#version: 0.2
Ġ t
h e
Ġ a
i n
Ġt he
e r
o n
r e
Ġ s
Ġ w
Ġ o
e d
n d
Ġ ,
a t
i s
i t
o r
Ġ c
e n
Ġ b
Ġ f
Ġ .
a n
e s
a r
Ġo f
Ġ in
o u
in g
a l
a s
Ġ p
Ġa nd
Ġ m
Ġt o
Ġ h
Ġ d
i c
l e
o m
i on
Ġt h
Ġ T
i l
Ġ l
Ġ S
Ġ re
Ġ n
en t
e l
s t
Ġ A
r o
Ġ Ċ
a d
Ġ 1
Ġ e
Ġ g
Ġw as
a m
Ġ "
Ġ C
a c
Ġ I
Ġ on
Ġb e
i d
l y
Ġ he
Ġ M
o t
i m
o w
u t
o l
e t
u r
Ġ B
a y
i g
Ġf or
i r
v er
v e
ĠT he
Ġ @
u s
Ġ '
t er
Ġth at
Ġ H
Ġ is
Ġa s
c t
it h
Ġs t
Ġw ith
Ġw h
c e
Ġ 2
Ġ it
Ġ P
c h
u n
- @
Ġ@ -@
at ion
Ġa l
Ġ y
t h
Ġ D
Ġ R
a nd
Ġa n
u l
Ġa t
Ġ W
he r
Ġb y
Ġ r
Ġ F
o s
a in
Ġ (
Ġ G
Ġ L
Ġh is
e m
r i
Ġ N
Ġc on
Ġs e
a g
Ġ1 9
r om
l d
u m
o d
es t
er s
Ġ J
il l
Ġd e
ig h
i f
a p
Ġ E
0 0
Ġf rom
o p
Ġ )
is t
Ġc om
Ġy ou
o re
a k
Ġ O
al l
er e
u p
â Ģ
ar t
s e
p e
Ġ k
an t
i v
re s
ar d
Ġp ro
Ġ v
Ġ Ġ
a b
e w
g h
ic h
b er
Ġs h
i es
Ġw ere
Ġo r
Ġh ad
or t
at e
q u
Ġc h
es s
Ġa re
on g
igh t
Ġn ot
Ġp l
o c
a ve
am e
ĠI n
Ġe x
u d
el l
ou r
it y
Ġ K
ou gh
Ġ le
u st
i p
i ve
as t
ac k
ou ld
a v
Ġ U
at ed
o k
g e
Ġwh ich
re d
m ent
Ġs u
Ġhe r
ou t
ou nd
i an
ĠS t
e ar
Ġt r
' s
o st
al ly
Ġ ?
Ġ âĢ
i e
i a
Ġb ut
Ġh ave
Ġw he
or d
om e
n t
in e
Ġa r
ar y
t her
ĠH e
Ġg o
ou s
Ġ un
Ġa b
Ġ2 0
p t
is h
Ġon e
Ġth is
r it
id e
c l
ĠC h
Ġal l
Ġin t
s o
f ter
Ġ us
Ġ 3
ir st
k e
r a
u re
r y
f f
ĠI t
Ġthe y
Ġthe ir
Ġs he
Ġ up
Ġ V
Ġ j
ow n
Ġc l
Ġw e
ct ion
p l
Ġm e
i al
Ġh im
Ġd o
w o
c c
Ġwh o
Ġ2 00
t e
u b
as s
u e
Ġw or
m er
Ġf irst
im e
on d
he d
Ġo ut
ag e
Ġal so
o g
at er
Ġit s
i re
Ġh as
Ġcom p
p er
in d
Ġcon t
on e
Ġm an
o v
u c
ig n
ic e
Ġa d
ic al
Ġa g
Ġn e
ĠT h
Ġ ;
re e
an s
it ion
Ġbe en
Ġk n
a re
Ġbe c
Ġ ro
Ġs a
an ce
ac e
or m
u nd
p ort
Ġ20 1
l l
Ġs c
Ġt wo
i le
Ġt e
Ġs o
Ġo ver
Ġa p
Ġw ould
Ġp art
n e
Ġp er
ou nt
en ce
ac t
Ġre s
i z
Ġpl ay
Ġo ther
o ok
Ġg r
ad e
Ġ en
ĠâĢ ĵ
ac h
Ġc an
ak e
r u
el y
w n
Ġ 4
ic k
Ġof f
an g
it e
ol l
Ġd is
ul t
Ġ1 8
Ġy ear
Ġa fter
n g
Ġ 5
Ġ Y
os e
Ġre c
Ġ :
Ġt ime
ar k
Ġint o
i b
Ġs er
or y
l and
Ġthe m
T he
ĠĠ ĠĠ
Ġs p
Ġthe re
ver y
Ġwhe n
w e
ur ing
res s
e p
Ġ im
Ġm ore
m an
i ed
en s
ur n
Ġab out
ation s
ion s
w ay
i ke
ol d
ĠU n
ic t
cl ud
Ġd es
o y
Ġe v
at es
ab le
' t
a us
Ġp re
o ve
ing s
e ct
il d
am p
w ard
. @
Ġ@ .@
t le
a il
it ed
re at
ver s
o in
Ġwor k
r ough
Ġs pe
or n
ĠS e
l es
, @
Ġ@ ,@
Ġin clud
Ġcom m
Ġp e
as e
on s
Ġsa id
o od
f t
Ġbe t
as ed
Ġf e
is s
or s
o h
Ġth an
an c
Ġag ain
t ed
Ġs ome
Ġn o
Ġ qu
Ġat t
er ed
Ġf l
ter n
i ous
a h
Ġ 6
Ġn ew
v ed
Ġon ly
ic an
f er
f ore
ĠA r
und er
Ġd id
Ġse c
at h
ĠM ar
Ġc o
Ġm ost
ĠA l
Ġre m
k s
g an
ot h
. .
u g
Ġ 7
a w
h at
f orm
e nd
t s
Ġp r
Ġl ike
Ġwh at
Ġm ade
v el
il m
Ġm y
o b
Ġwhe re
Ġ under
i x
Ġd ay
Ġe ar
Ġo p
ation al
s s
Ġb l
Ġ19 9
ent s
ri b
Ġa m
al s
Ġthe n
Ġ 8
Ġs up
ub l
p h
we en
ot her
or th
Ġc all
ĠA mer
op le
Ġth rough
- -
ct ed
re n
Ġcon s
h ip
oll ow
Ġin ter
ĠR e
Ġc ould
as on
Ġth ree
ou th
ĠD e
Ġan y
in k
aus e
Ġd uring
el f
ĠN ew
t he
Ġf in
Ġb r
Ġre t
Ġ 9
Ġbet ween
Ġbe fore
Ġb ack
Ġc ent
Ġe nd
Ġf ilm
Ġch ar
ĠO n
Ġa ct
Ġw ill
ar s
t on
a ir
oc k
Ġpro d
Ġsu ch
Ġg ame
Ġwh ile
ic s
Ġn um
r on
Ġl ater
at her
em ber
Ġre l
Ġs ong
Ġre g
if e
il y
he s
Ġb u
o ol
ĠS he
Ġre le
ter s
ĠL e
Ġp os
f ul
en c
en er
Ġ if
Ġpe ople
Ġus ed
e ver
at ing
Ġa cc
in ce
ĠTh is
Ġin d
Ġe le
ul ar
t en
r al
an k
an n
Ġyear s
Ġsu b
Ġa c
m ber
Ġf ound
am es
he n
a u
Ġl ong
is hed
id ent
t ing
Ġfor m
Ġw ell
Ġsec ond
i ew
Ġas s
i o
Ġw rit
Ġm us
is ion
Ġyou r
Ġl it
Ġf our
p ed
t ain
Ġf ollow
t y
Ġd own
00 0
Ġc ol
Ġman y
Ġl ar
Ġkn ow
i el
Ġbe ing
ou se
p r
s on
is e
Ġh ow
Ġsh ow
Ġin c
ĠA s
ro w
Ġs y
Ġde f
u al
al e
p os
Ġs m
ĠUn ited
ĠC om
Ġse e
Ġspe c
b um
g r
Ġde c
Ġj ust
Ġ ent
Ġs ur
Ġte am
Ġ very
Ġg et
ou p
ĠS h
l ed
Ġap p
u ch
ro p
Ġrec ord
h ing
ow er
Ġp res
Ġth ough
iv ed
Ġs et
ou n
i k
if ic
er m
Ġ1 0
Ġbec ame
ĠA n
Ġc ar
m y
i ver
ur y
i er
v en
a j
Ġap pe
o ot
ver n
Ġagain st
Ġkn own
Ġm in
Ġb ro
Ġh igh
Ġcall ed
Ġse ason
Ġs ing
or k
Ġ19 8
Ġp ubl
Ġm ov
ĠA t
h y
Ġn ow
Ġal bum
Ġin v
a z
Ġst r
a red
Ġw ant
Ġe p
i et
Ġr ight
Ġd if
n ing
Ġnum ber
od e
Ġm on
ĠAmer ican
Ġl oc
Ġs ay
Ġ1 7
Ġc ap
d er
Ġm ay
Ġc ount
Ġp ol
i red
an y
ir d
ĠB e
Ġad d
ĠE ng
Ġb oth
ĠF r
Ġthe se
o ber
it s
Ġo wn
Ġm at
u res
in es
Ġse ver
ak ing
Ġl ook
Ġb el
un e
Ġ 000
u ally
ĠB rit
is ed
om et
Ġbec ause
Ġle ad
im es
Ġm et
le y
oh n
ain ed
Ġc re
t il
Ġlit tle
ro ss
j ect
Ġp op
vel op
ch ool
Ġe m
ĠS c
Ġst ud
Ġchar ac
it ies
Ġ19 7
Ġs l
Ġm ain
Ġ1 5
Ġd ist
ĠThe y
ri ed
ig in
Ġd ire
Ġw ar
Ġ /
an ge
Ġin st
Ġ19 4
ul l
s elf
ĠI nd
Ġser ies
Ġep is
Ġo b
Ġa ir
ĠA fter
Ġ1 2
c k
Ġo ld
Ġw ay
Ġre ce
Ġun til
at ive
Ġf am
ers on
ĠJ ohn
Ġinclud ing
ol og
Ġgo od
Ġ19 6
i vers
ĠC on
Ġbe gan
Ġ 0
Ġg u
ap p
x t
c ed
Ġsh ip
ĠSt ates
Ġn ear
iel d
in s
Ġhe ad
er n
i am
g et
b le
Ġp ass
en ed
Ġm ake
Ġst art
ĠB r
ĠG r
Ġr un
Ġs ame
Ġper form
Ġm uch
âĢ Ŀ
Ã ©
is m
Ġ1 6
Ġm ill
Ġh and
ment s
ĠC l
Ġde velop
Ġ !
Ġb at
Ġmus ic
Ġ Z
Ġsever al
Ġcont in
n a
Ġret urn
ĠA ust
Ġre p
c es
er man
ĠâĢ Ķ
Ġar t
le t
Ġor igin
th ough
ist s
ĠW h
Ġus e
g g
Ġs ign
n er
e b
ib le
r ic
ĠM ay
ĠH ow
em b
id ed
f l
Ġpro v
ĠB l
Ġk e
iz ed
uc k
Ġ1 1
Ġl ast
Ġc ity
ce pt
Ġd on
Ġto ok
Ġtr ans
Ġrele ased
Ġb o
u ed
Ġhe l
Ġdis c
ut ion
ĠS p
Ġg ener
am ed
Ġm ar
Ġc ame
` `
he re
Ġar ound
Ġth ink
ĠW ar
Ġ' '
st em
Ġch ild
al k
Ġal ong
an e
av ing
Ġhe re
Ġl ife
Ġgr oup
cc ess
Ġl and
Ġe ff
ĠW or
Ġde p
Ġwor ld
Ġear ly
Ġp oin
Ġm il
Ġev en
v ent
a x
Ġc r
Ġt urn
Ġg reat
Ġ est
Ġn ame
Ġin s
i ally
Ġepis ode
Ġgo vern
od y
el s
Ġs im
Ġe very
re t
Ġdes ign
u red
en n
Ġp o
ĠI s
Ġre v
ĠF or
r ap
Ġsm all
i um
Ġoff ic
c ess
ug ust
Ġe ach
us s
Ġdes c
ĠBrit ish
Ġim p
ain s
ĠC ol
ct or
Ġm od
Ġ19 5
ĠG erman
ĠA nd
Ġfe at
pt ember
Ġp ut
ĠA ugust
Ġh ome
ward s
Ġb ook
er v
Ġdif fer
ĠM e
Ġpl ace
Ġst ate
en e
Ġ Q
au gh
Ġ1 3
g er
b e
t o
ad y
in a
ĠSe ptember
te nd
as h
Ġan other
ĠJ u
Ġle ft
y ou
om an
Ġw ent
Ġ ed
iv es
Ġt ake
Ġmill ion
ĠU S
ĠWor ld
ĠK ing
aj or
Ġc are
Ġser v
ĠA ll
ĠĠĠĠ ĠĠĠĠ
ĠA d
Ġsh ould
Ġw on
ut h
ac ed
ut e
w hat
Ġst ill
ar l
i ent
uc ed
ant s
ĠP r
an u
g in
Ġw in
ĠO ct
Ġc rit
Ġth ose
. "
Ġn orth
Ġwe e
Ġ19 3
Ġne ver
Ġs ix
Ġsu ccess
em ent
Ġo cc
n ess
' re
Ġplay ed
Ġhis t
u es
Ġatt ack
Ġ1 4
is on
Ġd r
Ġc our
Ġprod u
ĠT r
Ġs ince
Ġm en
ri end
Ġo per
ĠOct ober
Ġre st
Ġs omet
Ġbu ild
ĠT e
Ġsy stem
Ġs chool
Ġ $
b all
âĢ Ļ
et s
l ish
b y
Ġto o
Ġare a
r ist
Ġf ive
Ġcharac ter
her n
Ġg ot
Ġp rom
Ġcon st
pe ct
Ġre d
Ġres ult
ĠJ une
ur ch
Ġw ater
s h
Ġex t
Ġcons id
Ġex p
ĠAust ral
m ed
Ġb re
Ġdesc rib
Ġcl ass
Ġle t
at ely
ian s
ar r
u ro
Ġ i
Ġp erson
al f
Ġfollow ing
Ġb est
ĠMar ch
ove mber
Ġsup port
l ing
is ter
ĠE d
Ġan n
ĠHow ever
ĠJu ly
pr il
ĠN orth
t al
Ġre f
anu ary
ap an
ĠP ro
Ġm ed
Ġa way
ĠN ovember
o ver
os s
Ġv ar
Ġcom e
il ity
Ġk ill
Ġb and
Ġpart ic
ĠA pril
Ġrece ived
ĠThe re
Ġcomp le
ĠJ anuary
Ġlar ge
Ġgo ing
H e
ak es
ore d
ĠC an
iv ing
ĠJ apan
ĠY ork
Ġp h
Ġ19 1
Ġ el
it al
ra ft
re w
ic a
Ġcent ury
he st
ĠP l
Ġh ouse
Ġbel ie
il t
ion al
a id
et er
Ġne ed
ce mber
ne y
Ġpubl ic
c hed
ur al
I t
Ġ [
a im
ag es
v es
ag ue
on y
Ġde ath
ĠS outh
ĠW ill
en g
Ġfam ily
ain ing
ĠB y
Y ou
ĠDe cember
Ġcont ro
re en
Ġcon c
Ġg l
Ġto p
ent ly
un g
Ġdo es
Ġsh ort
Ġall ow
Ġne xt
i ence
ĠW hen
Ġsing le
Ġm ajor
at s
ord ing
in ed
ĠH is
Ġre port
ivers ity
iss ion
ĠCom m
Ġto wn
Ġc ur
ĠG e
Ġk m
ir l
ction s
Ġst ory
e ah
o on
al es
ĠP h
Ġs outh
r act
Ġthough t
Ġf ind
Ġ19 2
Ġl ine
id ge
Ġp ower
Ġad v
Ġmon th
ro te
p le
ar m
ot t
Ġex pl
p or
ĠB ro
in c
Ġt y
Ġ3 0
Ġd ied
ĠW e
Ġdiffer ent
Ġop en
Ġt w
Ġs k
Ġcon d
iv ely
Ġpos s
Ġgovern ment
Ġth ird
| |
id es
av y
ĠO r
Ġv is
Ġd et
Ġre al
Ġ2 5
Ġf ew
b r
Ġpol it
ĠY ou
ic ally
Ġn amed
ren ch
ĠM c
if ied
as ter
ag ed
ĠE uro
Ġf riend
em pt
eb ru
Ġw rote
pe nd
v ious
er t
Ġyou ng
ebru ary
ĠC ount
Ġb ased
y ing
o x
m p
Ġst and
Ġre pl
og rap
Ġs ide
Ġw ind
Ġ ]
ĠCh rist
Ġm ust
Ġcol le
om en
ĠI I
Ġh um
at ure
m e
Ġof ten
ac hed
ĠF ebruary
Ġday s
Ġwith out
Ġapp ro
d ay
at ch
ĠF l
Ġt ell
Ġc amp
g ed
Ġle g
Ġev ent
' ll
Ġen g
iv en
Ġhim self
Ġf oot
Ġo ur
Ġ vers
c on
Ġ es
el t
I n
om in
Ġl ist
l ess
Ġn ight
Ġinc re
Ġd ue
' m
ri v
Ġt it
Ġbe h
Ġt erm
Ġfin al
Ġhe ld
Ġh app
ul ation
ĠD uring
Ġst re
p s
Ġp ort
Ġor gan
Ġl ed
Ġ201 0
o f
o ad
Ġas k
Ġd em
y l
A nd
Ġs w
Ġfor mer
le v
en se
Ġ %
emb ers
e c
ĠF rench
a ff
Ġpos ition
ĠEuro pe
Ġappe ar
Ġ. ..
Ġl ight
id d
ĠN ational
Ġj oin
Ġd el
Ġinclud ed
Ġm ark
es e
Ġg un
Ġre qu
Ġcon f
way s
Ġh alf
ĠM in
s ide
Ġs old
i od
ĠM r
Ġtr ack
Ġs ent
Ġs it
Ġb orn
ĠG u
ar n
Ġb us
i or
ard s
Ġt ri
Ġc he
ĠâĢ ľ
Ġf ather
anc es
Ġres p
Ġd iv
ak en
il ar
Ġg ave
Ġl aw
Ġe y
y s
th at
Ġpres ent
ide o
ĠEng lish
ĠH er
Ġex per
Ġw ord
ur ther
ĠN o
Ġbu ilt
Ġm ove
Ġf ore
ĠM on
Ġwith in
Ġeff ect
oc i
Ġc aus
, "
er y
.. .
Ġam ong
Ġg ames
Ġl ate
one y
a i
Ġspec ies
ro d
ĠB ut
ar ch
Ġcount ry
Ġs ound
ĠĠ Ġ
Ġhel p
Ġ X
g y
Ġt our
m s
Ġh aving
enc es
Ġf act
Ġd am
ic es
Ġm embers
on na
Ġup on
ĠA m
at or
in ess
Ġv iew
ĠM us
ot s
Ġpre vious
Ġcomm and
ĠC ar
Ġchild ren
Ġsa w
al d
Ġrev iew
Ġhow ever
Ġdescrib ed
Ġim port
Ġatt empt
âĢ ľ
Ġ2 1
Ġper iod
ĠW est
at ic
op s
Ġd est
er ing
Ġf r
e ad
pos ed
Ġc le
ĠGe or
ap e
ur r
Ġe qu
h am
ĠEng land
" .
Ġplay er
on es
b o
Ġin fl
Ġl ess
it her
Ġ ide
Ġis s
er tain
ĠB at
Ġp ar
Ġ1 00
Ġorigin al
Ġg iven
Ġbec ome
Ġ2 4
Ġa v
ab ly
Ġ Â
c om
ut ed
iz e
as k
am a
ra w
th ing
Ġm ag
c hes
ĠWill iam
o le
Ġadd ition
ĠCount y
Ġf un
m ost
es tern
ĠM an
Ġpro f
r ict
ĠUn iversity
ĠO ne
Ġh our
Ġal though
Ġro le
est ed
ĠC ity
gr am
Ġse en
Ġon ce
Ġl a
Ġt imes
ĠC al
Ġro ad
p ar
Ġc or
it ary
ron t
Ġf ire
Ġmov ed
Ġmat ch
ru ct
ĠE l
Ġch ang
Ġco ver
Ġa ff
qu e
Ġf re
Ġde b
Ġe ver
Ġest ab
Ġs oc
Ġst orm
tern ational
res ent
Ġb ig
Ġstr ong
op e
Ġ201 1
Ġan im
ond on
ie f
Ġp ost
amp ions
l er
Ġor der
Ġloc al
Ġ2 2
Ġpoin t
et h
w h
Ġcl ub
ur s
Ġv ideo
re nt
Ġa uth
Ġ200 9
il le
Ġwrit ten
Ġ200 8
Ġm ight
Ġcomm un
Ġst at
Ġre ad
Ġl ost
f ord
ri es
Ġcl os
Ġ &
ĠS w
) .
ĠL ondon
Ġme an
Ġsim ilar
Ġcontin ued
a e
er r
Ġcomm on
Ġp at
b s
Ġm other
Ġb oy
ĠM ich
ĠC ent
re st
olog y
lev ision
ent ion
Ġm aking
Ġle vel
ĠH ar
Ġe as
Ġa ge
Ġsomet hing
out e
Ġad m
Ġg ive
Ġcare er
Ġse em
iet y
ir c
Ġt em
ĠA ng
ĠCan ad
or ies
is c
ĠD av
Ġc ast
rop ical
iv al
Ġcl aim
Ġcomp any
Ġs on
Ġn ational
ow s
o e
o ice
Ġrele ase
Ġf urther
a ut
as es
Ġconsid ered
Ġin it
Ġstart ed
ĠP ark
Ġ2 3
Ġe ast
Ġw est
B ut
Ġ200 7
pe c
get her
Ġto gether
al ity
Ġl ow
y r
a ul
ĠFr ance
y n
ĠR iver
Ġh ig
Ġ201 2
Ġg irl
ĠP res
ac es
is ing
g es
Ġt re
ĠB ar
ĠG o
Ġwh ite
ĠThe se
Ġr ound
Ġreturn ed
Ġtr ad
os p
Ġsu gg
Ġbl ack
T h
n ow
Ġf ar
ĠN e
Ġm om
us h
Ġf elt
Ġwee k
Ġr ad
Ġann oun
Ġth ings
ru ction
Ġh ard
ĠW ith
Ġf ell
Ġt en
Ġinfl u
Ġf ull
a ur
Ġor d
z e
Ġto ld
ĠA f
im ent
Ġbet ter
Ġro om
Ġlar g
2 0
Ġpro te
p ite
Ġan t
Ġ19 0
Ġh old
Ġinclud e
Ġs ol
al th
Ġinv ol
Ġf ail
ĠP ar
Ġl ive
Ġpro gram
Ġgr ound
l ine
ri pt
ap s
est s
Ġcomp et
Ġpop ular
y le
Ġre fer
Ġl ove
Ġvers ion
us ed
ch n
ĠJ ack
Ġst e
Ġhist ory
ition s
ress ed
ay s
om b
c raft
Ġe ight
ĠA b
Ġke ep
Ġcontro l
Ġbuild ing
ĠS m
Ġac ross
Ġprodu ction
Ġpubl ished
Ġs qu
ain t
Ġprod uced
Ġus ing
Ġcom b
d om
ĠG ener
a f
ĠA ir
Ġk ind
Ġpartic ular
Ġv al
a it
Ġs um
Ġfe el
Ġb ody
Ġre ally
Ġto tal
n o
Ġw omen
ri e
Ġte levision
Ġ2 7
s c
Ġm ember
rough t
Ġso on
ut es
Ġ2 8
Ġauth or
ro y
Ġde cl
ed er
Ġpl an
ĠR uss
Ġt aken
um ent
Ġv ict
Ġ201 3
ĠAl though
ĠA cc
um b
land s
f ic
Ġin f
Ġ200 6
ĠP ol
ampions hip
ĠR ep
al t
Ġdef e
Ġc ross
ok ay
ĠH igh
ĠE x
Ġsu ff
Ġme et
Ġ2 6
Ġimport ant
ang u
Ġg en
Ġf all
Ġele ct
Ġn ort
art ment
Ġd ri
enc y
ĠD es
ot e
Ġab le
re et
ĠA ss
Ġal most
u ff
Ġcomp os
se qu
Ġen ough
Ġl im
av es
ĠSt ate
Ġal ways
Ġg row
) ,
Ġcre ated
Ġd one
Ġfe et
he l
Ġf ield
Ġbe gin
ĠLe ague
ur g
Ġserv ice
Ġbro ther
Ġrep resent
Ġre ached
ĠP e
ĠE n
re am
Ġf ight
ĠD r
r ation
W hat
Ġf ace
st er
Ġwant ed
Ġmonth s
ĠC o
ĠAustral ia
ĠWh ile
Ġl ik
Ġmov ie
Ġk ing
Ġkill ed
" ,
are nt
oy al
Ġb all
out hern
Ġst op
an a
Ġbeh ind
it ive
amp le
Ġc ut
Ġmil itary
ress ion
ĠJapan ese
a el
Ġdire ct
Ġprod uc
Ġ201 4
pl oy
Ġ5 0
ĠAmer ica
Ġar m
Ġs il
ĠSe c
it ted
Ġask ed
f or
Ġt alk
Ġsong s
Ġf av
Ġpop ulation
Ġreport ed
ar a
ĠD iv
Ġbat tle
ĠJ ames
ĠSt e
n ed
Ġind e
Ġp ress
ĠC or
Ġrecord ed
Ġtr av
he ad
Ġcap t
Ġreg ion
i ber
Ġw ife
u k
ough t
o or
Ġr ather
a ign
Ġfor ces
Ġst ation
e y
Ġf ront
ud d
ĠG l
Ġother s
Ġb rought
Ġser ved
m en
ĠGener al
Ġh or
Ġm id
Ġfollow ed
Ġ er
Ġst ar
ist ed
u h
ĠE m
Ġfor ce
Ġro ck
ĠP art
Ġ18 9
Ġspec ial
ĠIt al
le ct
Ġst ated
in ation
ĠT o
ĠAcc ording
1 9
ro wn
Ġship s
ens ive
ĠS y
Ġtit le
Ġhe art
Ġgener al
Ġt ro
Ġappe ared
Ġ4 0
ĠPh il
Ġm er
re g
at ter
Ġoffic ial
Ġcl ose
Ġrem ained
Ġpro ject
Ġse ven
b or
Ġpolit ical
ĠAr my
ĠM ad
Ġdevelop ed
Ġv ill
ol ution
w ell
Ġint rod
w here
em y
Ġh it
re ad
ĠF in
Ġ2 9
Ġpro ble
Ġv ol
urr ican
Ġey es
Ġm oney
ap er
ĠGeor ge
Ġcrit ic
Ġh y
Ġhist or
Ġdevelop ment
ok e
Ġs at
Ġturn ed
ĠE ast
id ence
iz ation
Ġf le
Ġc ase
ĠS up
c an
p ing
ĠCh ar
Ġbus iness
Ġannoun ced
ĠP er
Ġr a
iv il
Ġc ult
Ġc ost
in o
ĠPres ident
Ġf em
i ers
s el
Ġpro cess
f ield
i us
Ġrel ations
Ġth ing
et t
Ġcharac ters
s w
Ġplay ing
Ġl angu
Ġle ast
Ġair craft
Ġhum an
nd er
ir on
Ġvar ious
Ġw oman
Ġpart y
ab or
Ġc irc
un k
Ġm ot
ĠS ome
Ġwork ed
augh ter
Ġp le
Ġc op
Ġp ie
Ġ200 5
st and
ĠS im
Ġm ount
ĠH ouse
g o
ac y
hy s
Ġsuccess ful
Ġqu ick
o ff
ĠInd ian
end ed
Ġare as
n y
ĠR ober
Ġ ve
oun c
in t
Ġbec om
am b
W e
Ġst ri
. âĢĿ
og n
Ġprof ess
ĠS er
Ġperform ance
as hing
pl ay
Ġdec ided
ĠH en
Ġd ou
Ġent ire
Ġ -
Ġmil es
w ork
Ġex ample
Ġob s
am ent
con om
' ve
Ġ --
Ġa ver
ud e
Ġcaus ed
ĠG od
Ġch art
Ġinst ead
Ġop ened
Ġfoot ball
Ġb ar
Ġn on
ĠM or
Ġcamp aign
Ġadd ed
Ġb as
Ġdo ing
Ġbro ad
ou d
c ent
v iew
tend ed
Ġbre ak
Ġpr im
Ġe ither
ul a
Ġg onna
Ġear l
Ġdest roy
e e
ur b
Ġag re
Ġh on
ĠSt reet
idd le
Ġm iss
iv id
ke y
ĠQ u
Ġsign ific
Ġf ree
Ġt er
ou l
r ight
Ġcour se
Ġp ra
Ġ201 5
un t
re ady
m ing
st it
on t
Ġwrit ing
c ast
Ġes c
Ġnew s
at a
ce ed
Ġperform ed
Ġp ri
ĠR ich
ree k
Ġr ace
Ã ¡
fic ult
Ġplay ers
Ġcur rent
Ġinter est
Ġmod ern
Ġsay ing
orn ing
l ished
Ġact iv
Ġde v
ĠM ed
Ġa ud
y eah
ĠS ch
Ġf if
an ch
urrican e
r is
Ġte chn
ad es
Ġa ward
S he
Ġqu est
Ġwork s
ĠDiv ision
Ġco ast
ĠRe g
ell ing
Ġform ed
ĠTh om
ĠCom p
Ġn ov
id s
Ġloc ated
d e
ĠB ill
Ġc y
Ġc ertain
Ġ ident
it ch
ĠQ ue
Ġpo or
ĠBl ack
Ġar ch
ĠDav id
Ġf t
Ġdif ficult
wo od
enc ed
ĠS chool
Ġnot ed
Ġwork ing
Ġcon ne
Ġst yle
Ġy et
u le
ĠTh at
an ks
Ġpr act
Ġc oll
ĠM y
Ġin form
ĠR ed
Ġman ag
Ġestab lished
Ġd rop
ĠP ort
Ġen c
Ġthrough out
Ġm ix
ber t
ĠR oad
Ġpoin ts
at t
im ately
Ġp ain
id ing
Ġimp ro
n ot
ĠâĢ Ļ
at ors
Ġg old
Ġst age
Ġf ig
i ol
Ġm ater
Ġh ost
ĠI f
ĠAustral ian
ĠB o
? "
Ġ3 1
l in
Ġch ange
ĠC ap
Ġhe avy
d o
if f
Ġc reat
r ing
Ġst ruct
ill s
od es
Ġt ropical
m a
ad d
c le
ĠA p
Ġ18 8
ann a
Ġa ction
it ar
Ġpro per
S o
Ġus ually
Ġl ived
Ġp ast
Ġdid n
Ġse par
Ġr ange
Ġar g
Ġse a
ounc il
Ġ ill
med i
Ġf ood
Ġ200 4
air s
ĠA le
av al
Ġto wards
Ġeng ine
ĠR oyal
ov ed
Ġpres ident
, âĢĿ
Ġw all
Ġoff ice
ĠRep ubl
ĠP aul
Ġide a
bo ard
ĠE ar
Ġfeat ures
ĠB el
Ġ z
Ġposs ible
Ġ18 6
Ġv oice
Ġr ul
Ġc at
Ġres pect
ĠC up
ĠS an
Ġin j
ĠP eter
k y
Ġpass ed
Ġwho le
Ġsignific ant
Ġar ri
ot ed
Ġst ay
Ġc e
Ġty p
ĠM ary
Ġac cept
Ġnot hing
eng th
Ġm m
p ly
Ġal ready
re m
h ic
ĠV ir
over ed
Ġb ase
ist ic
ĠN or
ag o
N o
Ġab ove
Ġwee ks
re y
Ġmar ried
it ing
Ġm ind
Ġ200 0
Ġsur v
ĠMich ael
Ġd ark
Ġ _
Ġt ou
Ġallow ed
Ġse x
ĠM iss
Ġsh all
Ġlarg est
ĠR oman
if orn
Ġb ird
oc r
Ġrec ogn
Ġevent ually
Ġcle ar
Ġf ac
as ing
t r
ĠGerman y
Ġis land
um p
Ġmin utes
Ġhour s
Ġn at
ĠK e
Ġsomet imes
Ġind ivid
Ġm ass
Ġpro b
Ġfriend s
ant ic
Ġre ach
ashing ton
Ġjoin ed
b orn
Ġl ay
Ġhand s
Ġe conom
Ġw ood
ĠS qu
ĠRe c
Ġp ay
sel ves
o o
v ille
ic o
Ġt aking
Ġr ank
Ġcre w
Ġsay s
Ġp ur
Ġass oci
O h
Ġout side
ĠC our
Ġ |
Ġde ad
Ġr oute
Ġfin ished
ĠC r
Ġind ust
Ġacc om
Ġar my
u el
Ġex c
ĠW ashington
ign ed
ĠT om
il ed
ĠCal iforn
Ġm ult
Ġm orning
Ġr ail
Ġle ave
w est
ĠL ou
ict ion
ĠHen ry
pe cted
ĠL a
ro g
Ġbr ing
an ish
Ġs le
Ġmater ial
Ġs ite
Ġtrad ition
Ġlook ed
Ġl oss
Ġp red
Ġne g
our n
Ġa ut
am s
Ġb ad
Ġapp oin
Ġme ans
Ġrel ig
Ġfour th
Ġeff ort
Ġcon v
Ġch urch
ĠCaliforn ia
ĠA ct
Ġcour t
ĠG reat
Ġpl aced
ĠB est
Ġcomple ted
S t
Ġ18 7
er ous
op h
Ġel se
Ġhe ard
ĠRober t
ĠCol le
Ġ Ã
ri an
Ġqu ite
T hat
Ġlead ing
ĠEurope an
Ġgun s
Ġinv est
ir th
Ġaver age
Ġl ack
Ġsh ot
v ing
Ġorigin ally
Ġl ength
Ġrelations hip
Ġb ur
c her
ĠAng el
Ġw id
it z
in ist
and er
Ġl iving
Ġbelie ved
Ġwh om
The re
Ġgo al
Ġn omin
5 0
Ġab s
Ġsoc ial
ĠJ e
ĠM il
Ġsc ene
Ġocc ur
Ġkn ew
u ct
f ace
v al
Ġ200 3
Ġpart s
ĠInd ia
ur t
ĠD on
ĠH all
ish ing
im in
Ġv oc
Ġhe ar
ab y
ĠCh ampionship
r ang
ent y
Ġs our
Ġl o
ĠB er
Ġex ec
r ay
Ġw alk
Ġd aughter
Ġits elf
Ġed uc
Ġp hys
ak er
Ġpro t
Ġre b
it or
ĠA nt
Ġd raw
Ġc al
ĠI r
oun ter
Ġdire cted
ĠF rom
as ion
ip p
Ġav ail
Ġcom ment
ĠM al
Ġp riv
ĠM art
az ine
c he
Ġwh ose
ĠCh urch
Ġpl ann
ord s
Ġre ve
Ġla un
ĠO ther
ight s
ĠGo vern
Ġdam age
h a
Ġgr ad
Ġl ot
I I
ĠV al
ag on
Ġb it
ed y
Ġt reat
Ġwh y
Ġev ents
Ġw at
Ġh om
Ġex ist
Ġdire ctor
olog ical
al ed
Ġsc ored
Ġgener ally
ent ial
Ġr iver
ĠH am
ĠKing dom
b ody
Ġcont ract
Ġp ers
and s
Ġprov ided
e x
Ġpe ak
m b
Ġtro ops
it te
Ġany thing
Ġsub ject
ch ie
Ġ200 1
Ġword s
Ġqu ar
ĠA g
Ġrun s
ĠWh ite
Ġt est
ĠĠĠĠĠĠĠĠ ĠĠĠĠĠĠĠĠ
ĠS l
ic ip
Ġend ed
r up
Ġem ploy
Ġde al
Ġp ark
k i
k ay
Ġsup er
Ġf oc
Ġdo or
ĠCanad a
Ġse le
Ġme as
Ġconst ruction
Ġp ot
ra z
ĠP at
Ġ â
Ġhig hest
ĠP al
ĠVir gin
ĠD o
Ġex cept
ĠS am
Ġrepl aced
ic ated
i os
ut ure
B C
e k
Ġlangu age
ific ation
am er
ĠUn ion
Ġreg ard
p on
Ġsub sequ
ell ed
ĠChar les
h m
ow ers
ĠA ward
augh t
Ġest im
ĠM ac
Ġsl ow
c o
i ation
ĠSc ott
Ġdesign ed
Ġfeat ured
Ġm em
st r
Ġob ject
ĠT wo
Ġth reat
Ġpartic ip
Ġreg ular
Ġs outhern
id a
ĠS en
ĠW il
Ġb ill
Ġthem selves
f all
pec ially
Ġinvol ved
Ġle arn
s y
Ġ ver
Ġsu re
Ġre se
en es
Ġinde pend
Ġde ep
Ġv iol
Ġa w
Ġan sw
Ġr ain
Ġ5 00
Ġcrit ics
Ġf und
ĠR es
um e
Ġbegin ning
g ress
ound s
Ġstud io
av en
Ġdist rict
ĠAt l
ĠH ol
Ġim medi
Ġr an
ĠChrist ian
! "
Ġe at
ĠM ag
Ġresp ons
Ġnov el
ore s
ĠMe x
Ġopen ing
ograp hy
Ġnort hern
Ġfor ced
ĠIs land
Ġ200 2
ĠD ep
Ġm akes
Ġty pe
ct s
if t
u ation
ĠPl ay
Ġquick ly
Ġre n
Ġr ap
ĠIn ternational
ĠD em
Ġst ates
Ġcl im
Ġacc ount
Th is
ĠF irst
ut ive
at in
Ġmom ent
h ib
Ġb ed
st on
Ġbo x
ĠPart y
Ġins p
t t
Ġlong er
ound ed
Ġm i
p ose
is es
ĠA c
Ġcap ital
Ġsp ent
Ġearl ier
Ġw atch
Ġs we
Ġcom ing
ĠBro wn
i que
fer ence
Ġspe ed
ber g
Ġavail able
Ġh op
Ġvict ory
en a
Ġj ob
ĠD an
b and
as ons
ĠThom as
Ġcent ral
ĠAle x
c y
Ġap pl
Ġchang ed
Ġbe aut
Ġlook ing
Ġn ine
ĠW hat
he ast
Ġin n
Ġ199 0
Ġst ep
er ved
Ġpr ison
port s
an ia
Ġl ower
en ing
Ġsp ace
Ġtr aining
ĠCour t
i qu
ĠGr and
ĠS ing
Ġcom mer
ĠBat tle
ĠSm ith
Ġgroup s
Ġh ous
ĠC ong
ov iet
ate g
ĠO ff
Ġbe g
ĠRich ard
Ġparticular ly
Ġb omb
Ġfor t
Ġcount ries
ollow ing
Ġsign ed
und red
The y
-- --
ĠM er
Ġcont rib
u z
us ion
ĠB ay
Ġes pecially
ly mp
Ġse qu
Ġc ivil
ĠM et
E R
Ġcar ried
ly ing
Ġs us
ĠDes pite
Ġd i
or ing
Ġh ot
Ġstud y
i ant
Ã ¶
Ġprob ably
o es
Ġappear ance
Ġord ered
Ġacc ording
ĠM ount
ĠSt ar
itte e
m on
ĠS oviet
Ġele ction
Ġp ick
m ar
ĠO lymp
om s
Ġph ot
Ġper cent
ad ron
ell ow
Ġstre ng
b ed
i res
ap t
Ġshow s
ĠG old
ful ly
l ike
Ġcom pl
W ell
Ġvill age
Ġtrav el
ĠFr ank
Ġmat ter
a ult
ĠS oc
f e
ĠM ost
Ġwhe ther
ĠB en
' d
e um
Ġmain tain
Ġrun ning
anc ed
Ġf uture
ĠS o
Ġl ines
ĠF ollowing
ĠMus ic
ar ily
Ġj ud
the re
Ġre ason
rie f
he m
ĠO h
Ġcent er
Ġgr and
u ction
Ġst ars
b ack
Ġincre ased
o id
Ġc ell
ant ry
it es
Ġmin ute
Ġin ternational
Ġbl ood
ĠR ock
if ul
arl iam
Ġn et
Ã Ń
Ġpol ice
Ġsum mer
ick et
is l
N A
Ġb ow
ĠV ict
Ġw ear
f ort
b our
ĠMc C
Â ł
Ġp en
Ġcount y
ĠAss oci
Ġbook s
Ġs elf
Ġ198 0
as c
ĠR ob
ĠN avy
arliam ent
Ġcar ry
Ġun its
il ities
ĠAr t
Ġm ur
ĠTe x
Ġb i
ĠM ark
Ġass ist
Ġt ried
Ġm ph
ĠColle ge
Ġto day
ĠG ame
Ġbelie ve
f ect
Ã ¼
Ġconsid er
c ome
Ġp ict
Ġa chie
Ġcom es
Ġnear ly
ĠLou is
Ġsh oot
ers hip
it t
ĠG reen
Ġfem ale
Ġan g
ĠM any
he t
Ġ197 0
Ġam ount
Ġop pos
Ġpos itive
Ġfail ed
Ġs n
Ġbr idge
Ġb irth
Ġcommun ity
ĠJ ust
Ġdo g
Ġh urricane
Ġ201 6
Ġnat ural
Ġent ered
ib ility
ĠCh ic
er ve
te en
Ġw ait
ĠIt s
Ġlit er
Ġdet erm
Ġf ast
Ġquest ion
Ġhigh way
Ġl ab
c ause
ri age
Ġarri ved
Ġtr y
Ġw ide
Ġbl ue
ab ility
ĠComp any
Ġinit ially
Ġke pt
at ory
Ġpre vent
ĠH ill
Ġcommer c
Ġ6 0
Ġ3 5
ĠW estern
Ġp arent
ĠFr anc
i en
us e
Ġocc up
k en
Ġlet ter
ul f
Ġs ize
osp ital
ines e
Ġc red
c er
Ġhel ped
ol ic
Ġle aving
s hip
Ġwrit er
Ġfre qu
Ġrad io
Ġrequ ired
hest er
Ġsur face
ĠSp anish
ĠC ro
gr ound
l ook
Ġen v
it tle
il es
ap h
Ġher self
Ġke y
Ġh undred
ar ies
Ġright s
inc ip
ĠO ld
ĠU K
Ġwind s
Ġpra ised
ar i
b ers
Ġhor se
Ġ199 9
ĠVirgin ia
Ġdeb ut
ir t
ĠD ay
Ġstud ents
Ġev idence
Ġc ause
ess ion
Ġrem ember
Ġunder stand
ib r
b urg
Ġfor ward
Ġs ister
ĠK h
ric a
in ct
Ġcy cl
Ġtem per
ĠChic ago
ĠÂ °
Ġseem ed
Ġan c
Ġtr ue
eder al
Ġw estern
Ġd oc
Ġt rib
Ġele ments
all ed
f act
Ġinter view
Ġlar ger
ĠSt ud
ĠL os
Ġintrod uced
h aps
Ġsp ir
Ġmark et
Ġac qu
ĠP ri
ĠQue en
ab it
se c
ĠJ im
Ġprevious ly
ic ation
ĠMr s
Ġsur r
ĠFl or
n es
Ġre act
ac ing
Ġmus ical
Ġmost ly
Ġs un
ent h
Ġrem ain
Ġreview s
o ly
Ġmove ment
Ġprofess ional
er gy
Ġfilm s
e al
g ing
Ġse ction
ĠCh inese
Ġt ree
Ġd en
ig an
Ġsc ore
Ġle ague
Ġal one
Ġins ide
ĠK ore
Ġim m
Ġteam s
Ġsec ret
ain e
Ġ ``
Ġcomple te
ĠBrit ain
ri a
h ood
ĠS al
re l
ourn al
ĠI m
Ġsing er
Ġvis it
i j
Ġdep artment
Ġcomp an
Ġdisc uss
Ġconc ern
ond er
ĠT ur
Ġperson al
Ġchang es
ĠVict or
Ġrecord ing
Ġpol ic
Ġact ually
u ke
Ġ20 2
Ġpl ant
Ġlead er
ad ed
Ġcomp let
j oy
Ġg reen
Ġ196 0
ĠL ord
Ġfav or
Ġhig her
Ġhe alth
Ġth us
Ġclaim ed
Ġbo ard
Ġbecom ing
g ar
Ġeas tern
ous ly
Ġtrans fer
un icip
is er
ord er
Ġt ax
Ġl atter
in ent
ĠM ill
Y eah
h ow
Ġgo es
Ġspec ific
ĠT imes
Ġhapp ened
in n
Ġde g
Ġgu itar
Ġmag azine
om m
ut er
ul ly
Ġm ach
Ġme ant
ĠH ot
Ã ³
Ġd ate
ĠÂ £
Ġdec ision
e en
ĠB ur
Ġar rang
r d
Ġpre m
Ġd er
Ġter rit
Ġs ort
Ġc and
ĠTex as
Ġtr ain
ear s
Ġdes pite
Ġaff ect
ĠCh ina
Ġ199 8
Ġacc ess
Ġb rief
Ġp il
O n
g a
Ġt able
and ed
ac her
Ġwe ak
Ġg one
Ġh air
Ġsold iers
il i
ĠP ac
Ġproble ms
u it
Ġt akes
Ġsugg ested
ĠC ast
ul ated
ĠE mp
Ġmin or
ĠJack son
Ġsc reen
Ġn ature
ĠMin ister
ĠS ir
ill ed
ar ing
Ġexper ience
Ġe mer
Ġb ene
1 0
Ġf arm
at ives
al y
Ġagre ed
p an
ĠM at
Ġappoin ted
Ġh us
Ġfl ood
ic ian
ch ange
b it
ĠC ouncil
Ġtou ch
Ġf ir
Ġto w
Ġmet h
Ġiss ue
ĠJ ew
Ġ3 6
Ġatt ract
Ġinflu ence
Ġm iddle
Ġdestroy ed
as y
Ġcont r
Ġn orm
Ġf air
ĠEar th
it ude
oin t
ĠRuss ian
h old
Ġfore st
Ġdis p
Ġinclud es
Ġaddition al
ĠE v
ĠEd ward
ĠB et
i est
et her
ĠAf rica
Ġtr ying
Ġinvest ig
Ġdefe ated
Ġpress ure
ĠFor ce
Ġrese arch
Ġ8 0
as tern
ĠThe n
ĠO l
ĠH arr
Ġ18 4
ĠP et
Ġt ar
Ġdisc overed
Ġpriv ate
Ġinform ation
Ġra ised
Ġtw enty
ĠAssoci ation
tal ion
Ġmult ip
ens ion
Ġdiv ision
Ġlik ely
il s
ĠA wards
Ġ3 2
or ial
Ġdet ail
Ġbel ow
se e
Ġget ting
Ġanim als
ĠSc ot
n el
ic ans
Ġwin ning
ĠMon t
Ġm ess
Ġs al
Ġcommerc ial
k in
ĠN Y
um n
is ions
Ġst aff
Ġcre ate
h i
ĠItal ian
ĠS un
Ġneed ed
ĠSe a
Ġsc ient
Ġen joy
udd en
Ġrem aining
Ġrel ated
ĠO ver
ĠM o
om er
I f
Ġwe ap
Ġb aby
k a
Ġaward ed
Ġth r
id ents
v in
u x
ĠR oute
Ġne cess
ĠFlor ida
Ġc ru
Ġth ous
ĠCong ress
pt ion
Ġ18 5
od s
Ġplay s
ic le
Ġappro x
g l
por ary
ĠL aw
Ġpre t
Ġprov ide
ĠCanad ian
Ġc oup
Ġestim ated
Ġ199 7
le br
Ġsh own
Ġne igh
Ġc orn
Ġact or
Ġproduc er
Ġepis odes
Ġpie ce
Ġsupport ed
wh o
Ġdist rib
Ġ4 5
Ġterm s
Ġimmedi ately
ĠR o
Ġsle ep
e ch
Ġk il
Ġfam ous
in ing
re ater
W hen
Ġpro posed
ip s
ut ch
ĠH ist
Ġevery thing
ĠS ince
Ġele cted
Ġun s
Ġg iving
ĠDem ocr
3 0
ock ed
pl es
Ġcol or
et ic
Ġstruct ure
Ġmeet ing
Ġeffect s
Ġlim ited
ce an
Ġinst r
Ġbroad cast
id er
Ġmov ing
Ġw r
ĠCl ub
u ce
s he
ol k
Ġbuild ings
an i
Ġear th
ĠL ake
on se
Ġd ig
Ġwrit e
Ġdis s
Ġspe ak
ĠD ist
ll ed
ap ed
s en
Ġequ ip
ĠF le
Ġcover ed
re me
ail y
C h
ict ed
ĠN ot
Ġint ended
Ġadm inist
Ġex am
ro s
st e
Ġp aper
ĠT V
at ively
Ġl ives
k n
Ġcan not
Y es
Ġmod el
ĠCar ol
Ġclos ed
Ġser ious
Ġmanag er
em s
ĠK n
Ġmed ia
Ġdep art
Ġco ach
Ġp al
Ġn ames
Ġat tend
Ġquar ter
ill a
d en
ĠF ilm
Ġestab lish
Ġl yr
Ġcon cept
im um
ve y
t ies
r ated
Ġfound ed
u ing
Ġcomm ission
Ġrem ains
nd ing
Ġfif th
Ġdef end
Ġindivid ual
Ġfle et
Ġhus band
Ġcap tain
ĠB oy
l ight
Ġfl ag
ĠL ater
d own
ĠB ig
Ġse at
Ġshow ed
ru cted
ĠJohn son
ĠC ath
Ġplann ed
l or
Ġ7 0
if y
ru g
le g
Ġpri or
Ġnum bers
ograp h
er ry
ĠK ent
ĠW ood
Ġsc ript
w in
Ġsc enes
Ġant i
Ġover all
Ġdou b
Ġp urch
Ġset t
Ġsl ight
is k
al a
Ġresp onse
Ġ199 5
ac hes
ĠAd m
ĠCent ral
Ġcol on
Ġ199 6
Ġst ood
ĠSec ond
Ġatt ention
Ġc old
Ġoff ered
Ġfin ally
Ġc ry
ĠEn ter
ĠF ox
ĠPr ince
Ġcomple x
Ġcapt ured
ĠL ove
Ġso ft
h ouse
and on
ĠAngel es
um mer
ĠT or
um ents
Ġfeat ure
Ġcomp ared
Ġch air
Ġrem oved
ĠS ong
it ation
Ġg rew
Ġsmall er
Ġs ch
Ġpr incip
Ġserv ices
Ġ und
cl aim
uc le
ĠPac ific
The n
ĠJ ose
âĢ ĵ
Ġre pe
Ġm outh
ro l
st ant
iron ment
ĠEmp ire
Ġw ild
ĠD el
ĠSw ed
ĠE r
Ġmix ed
Ġpre c
Ġpret ty
ut y
Ġoffic ers
Ġch ief
ĠAc ad
Ġh ar
t les
b ury
Ġpro p
Ġen ergy
ĠF ort
Ġm ention
ro ad
Ġsuff ered
Ġsur pr
A R
Ġ ice
ĠB oth
on a
w rit
ri al
A F
ard en
ĠAtl antic
Ġtrans port
Ġgo als
est ival
Ġcop ies
b ut
em ents
Ġcon clud
ur ies
Ġ199 4
Ġmean ing
Ġad op
Ġch all
ir al
Ġcond itions
ĠS pe
Ġre ady
ol f
Ġwith d
Ġpl ans
y a
Ġpr in
ro om
Ġtrack s
Ġappro ach
im s
ĠMart in
Ġex pected
Ġincre asing
Ġo kay
Ġfl oor
y es
ĠT own
Ġbeaut iful
a res
Ġen s
ig ade
Ġm or
Ġb ank
Ġce lebr
Ġt or
Ġtre es
ic ed
ar row
Ġt ail
et te
ur ity
Ġfl ight
Ġint ens
ĠC le
ot ion
Ġart ist
Ġst ra
Ġhe av
Ġup per
Ġappe ars
Ġf ans
Ġqu al
Ġnews p
Ġeduc ation
Ġtr ou
u ge
ven ue
ĠCent er
b l
ĠPar is
r ican
iz ing
ĠSt ep
Ġoffic er
ĠThe ir
ĠC am
Ġincre ase
âĢ Ķ
Ġbro ke
m ore
Ġ ult
ad ium
il ly
H E
ĠII I
ed s
Ġh un
Ġc oin
ĠM el
Ġ3 7
Ġdecl ared
Ġproble m
Ġm ale
Ġs pl
is her
Ġ195 0
ĠAn other
il ing
ru gg
ĠR ail
Ġex tended
ĠP enn
Ġtr ade
Ġ3 00
ir ty
ist ics
Ġcont ains
ĠIn ter
ch an
Ġdis e
Ġapprox imately
Ġp it
Ġfight ing
Ġfoc us
u cted
ĠN ort
ver t
Ġmajor ity
um ed
Ġact ive
Ġfig ure
Ġsele cted
Ġbe at
Ġtar get
Ġd ang
Ġconst it
Ġdrop ped
Ġcon fl
Ġsugg est
Ġiss ued
Ġdou ble
ĠCon t
ib ly
A N
Ġrelig ious
u als
en ant
Ġ9 0
u ated
ĠAf rican
Ġoper ations
Ġarch ite
us hed
Ġd ance
A l
m as
ĠMex ico
in et
Ġs ense
Ġdoes n
g en
Ġag o
Ġoccur red
Ġparent s
oc ks
Ġ199 2
Ġg e
Ġcent re
Ġpre p
Ġth ick
ĠJ o
Ġconf ir
Ġro y
ad a
Ġem b
Ġst ories
ĠG reek
ĠD is
ad o
ĠM ass
Ġc ases
ĠF ore
Ġde pend
Ġs em
Ġcompos ed
ĠS erv
ĠR h
ĠSup er
Ġ3 3
on ic
Ġl if
gy pt
Ġc ounter
ed ing
Ġmar riage
Ġc er
ĠU nder
in i
Ġf ish
Ġcons ist
Ġm unicip
Ġschool s
H ow
Ġar ms
Ġs en
ĠRe v
Ġindust ry
u gh
yl v
Ġd oll
un ity
ic ient
Ġ7 5
or row
Ġr ate
Ġloc ation
ĠSt r
Ġsc ience
Ġfin anc
sy ch
qu ar
Ġve hic
Ġey e
c el
i ences
ens us
D on
Ġal tern
Ġgr ant
per or
ĠY ear
Ġattack ed
ĠItal y
Ġpe ace
ing er
Ġstat us
ĠO per
Ġd omin
m it
Ġc ust
ĠBill board
ĠCap tain
Ġ3 4
Ġattack s
ĠAr ab
Ġ *
Ġtradition al
Ġref used
N ow
ĠC amp
ag ing
A S
Ġstand ard
od ies
Ġcolle ge
ut ions
ĠW al
Ġs udden
ĠR ad
Ġbat tles
ot a
b re
ĠM ore
igh ter
ĠC he
ish op
Ġdire ction
Ġ199 3
Ġsp ot
Ġreve aled
Ġc row
Ġt ur
Ġad ult
ĠL ittle
Ġlaun ched
Ġassoci ated
Ġrap id
Ġrefer red
Ġnum erous
op er
Ġmat ches
ic ations
Ġse vent
anc y
ĠE gypt
Ġm ission
Ġdist ance
Ġf ine
? âĢĿ
Ġ 00
ĠTr ans
Ġthe at
ĠW ales
ĠO p
ĠIn f
Ġpl at
Ġinit ial
Ġr ule
Ġprodu ce
Ġr ing
Ġen emy
Ġform s
Ġmet al
ent ed
riv ing
kn own
Ġh ope
Ġv ia
it a
Ġus es
Ġp aid
Ġhous es
Ġpl ot
Ġr are
ĠZ eal
Ġ3 8
Ġc m
Ġlyr ics
Ġ199 1
Ġin tern
A s
Ġpl aces
Ġar rest
os en
b on
ĠRepubl ic
Ġinsp ired
y ond
Ġy ards
Ġn ice
ĠGr oup
1 8
Ġcompet ition
Ġp air
Ġhapp y
l o
Ġch o
Ġdam aged
I N
ĠI ll
Ġrank ed
Ġb urn
Ġm aster
ĠS ar
av ed
W h
ĠM a
Ġsepar ate
Ġh ors
Ġst one
Ġaud ience
Ġleg isl
Ġ194 0
n am
ĠH el
Ġo il
ĠO ut
br idge
Ġt ons
Ġh ospital
Ġstra ight
od d
Ġdis play
Ġsqu are
Ġimpro ve
ĠG ames
Ġiss ues
our s
ĠV iet
ĠB ob
ĠZeal and
Ġe gg
Ġr out
Ġroy al
ann el
ceed ed
Ġear ned
os h
stit ute
Ġc aught
Ġwin ter
y m
Ġcand id
Ġdr ink
k ing
Ġsubsequ ently
Ġc ities
ĠĠĠĠ Ġ
Ġdirect ly
ĠAcad emy
in al
Ġstreng th
z a
res h
it iz
ĠH aw
ĠSec ret
Ġprote ct
ĠL atin
Ġdefe at
ĠI re
Ġun able
Ġpract ice
ĠD ou
A T
Ġn ation
ĠSe ver
Ġnet work
p ut
Ġf ix
Ġoper ation
ri er
uck y
Ġte xt
Ġsp read
Ġche m
Ġl og
ie ut
ter ed
ol s
t a
Ġg as
Ġs ides
ĠC arl
Ġstart ing
Ġprim ary
Ġm ist
ĠW in
a ith
Ġw anna
Ġy ellow
Ġfell ow
ar ian
led ge
c ript
p ass
Ġattempt ed
Ġd in
Ġcast le
Ġab ility
Ġsy mb
Ġb ound
Ġp ath
ĠS at
Ġst rugg
Ġbird s
ĠMich igan
Ġp un
Ġs ales
Ġper haps
Ġinc or
e ction
Ġrespect ively
ĠT im
Ġcontin ue
ĠV er
Ġlist ed
Ġrecord s
Ġam b
Ġcrit ical
Ġr at
ĠB ow
Ġbro wn
Ġspir it
ĠBe cause
ĠScot land
Ġ18 0
Ġdem on
ĠP arliament
ĠO x
Ġse arch
ĠU p
ĠG ood
Ġleg al
um ber
V D
ĠM ic
Ġt ill
Ã ¤
Ġpresent ed
Ġfore ign
Ġ `
ĠHigh way
Ġarchite ct
Ġm ax
Ġch ap
Ġn ucle
Ġdis m
Ġun it
Ġaccept ed
Ġbo at
Ġun c
Ġman aged
Ġcomm une
am m
Ġset tle
Ġstr uck
ĠAn n
ĠB u
Ġlarg ely
Ġsh are
ell ig
Ġl aid
Ġcont act
og ue
Ġdiv ided
Ġhigh ly
hip s
Ġconfl ict
ra wn
Ġsoc iety
ĠT ime
Ġg reater
Ġeven ing
Ġm el
Ġdoc ument
os ing
Ġa head
Ġmain ly
Ġ193 0
in y
Ġp urs
add y
Ġ ir
ĠGeor g
Ġsc hed
Ġbecom es
ĠG ar
y er
Ġv ot
Ġh all
d on
ant ly
Ġto ward
Ġcoup le
ĠF oot
Ġboy s
Ġpie ces
Ġenv ironment
Ġresult ed
Ġ20 20
s p
Ġth row
Ġbl ock
ĠF red
wh ile
ub e
Å į
ieut enant
Ġper fect
Ġ18 3
Ġan al
Ã ¨
Ġd ream
vent ion
w ide
ou red
ast ic
ĠW all
m ond
a wn
Ġd om
ĠL ong
Ġwr ong
in ary
Ġcont em
Ġop port
om ew
Ġle aves
ĠK enn
ah a
ing u
ĠAr ch
Ġelect ric
is ation
ĠC ons
Ġhe ro
g u
ask et
Ġind ic
ĠSt an
i h
Ġm is
Ġsit uation
ers ey
Ġthe ory
Ġr ough
Ġport ray
c ul
Ġsour ce
Ġim ag
Ġbe ar
ol es
ĠS aint
Ġpres ence
b ur
ĠB raz
Ġn or
ĠT our
Ġ4 9
Ġd raft
ĠCath olic
ing ton
Ġnear by
ĠJose ph
ĠF our
ian a
Ġrem ark
ĠL uc
Ġdep ression
ant a
ã ĥ
ĠJ ones
Ġat tended
w ith
Ġab andon
Ġsu c
Ġown ed
Ġkil omet
Ġbel ong
ur a
ĠB ost
ĠSqu adron
1 2
Ġtr aff
Ġass igned
e v
ĠD utch
ĠW ell
Ġold er
Ġproper ty
Ġ iron
ed d
oc key
Ġnot es
ĠW ind
th ur
Ġpo et
Ġch ampionship
ĠCor ps
it an
ibr ary
Ġs ens
ĠDep artment
r or
Ġchar ge
Ġbro ken
Ġcommand er
im ate
Ä ĩ
Ġcult ure
Ġrespons ible
Ġj ournal
Ġimp act
ick s
Ġf at
Ġstand ing
Ġcer em
er o
Ġgreat est
Ġsch ol
E S
Ġex act
ĠJ oe
Ġc as
ĠS il
Ġthem e
c hest
ĠD VD
n s
Ġf it
erv ation
m ark
Ġf ear
ĠB C
ĠTh ree
Ġeconom ic
Ġtrans l
Ġcomplet ely
Ġdel iver
Ġindepend ent
Ġ ut
Ġthere fore
Ġstre et
ag er
Ġlevel s
Ġstop ped
H L
ĠP an
ĠDist rict
ter y
Ġ17 9
ĠM ajor
ian ce
ĠD en
Ġp ack
ste in
ian o
ĠT re
Ġlaw s
Ġph il
rup t
Ġwor th
Ġte nd
ound ing
Ġwe ather
ab eth
n ament
ent al
Ġob tain
Ġmark ed
A n
Ġb ul
Ġsim ply
Ġact ing
Ġpower ful
isc o
Ġ ess
Ġadv ance
ĠBraz il
e es
ant asy
ron ic
Ġcomment ed
Ġvar iety
Ġfun ction
Ġbeg ins
is ters
ĠPe ople
Ġswe et
A ll
ĠRec ords
ĠT est
ĠAmer icans
Ġcrow d
Ġy ard
Ġde ar
ĠN ow
el ve
ĠS ol
Ġc ook
ist ry
ĠBe fore
ĠCh ief
ĠS outhern
Ġmag n
ĠSever al
Ġsu it
anc ing
Ġch ance
ĠCol umb
re c
ĠC ross
ĠSoc iety
Ġme chan
Ġeffort s
ab les
ĠIre land
Ġed ition
Ġann ual
Ġs and
Ġred uced
it er
i ated
ĠLe e
ĠTe am
ol ved
1 5
ĠB re
Ġobs erved
ĠT w
in em
al ing
ĠT y
Ġcall ing
Ġon es
Ġpict ure
Ġinter se
Ġval ue
Ġconc ert
Ġb ott
ĠWilliam s
ĠE ll
ĠComm ittee
Ġcolle ction
Ġcompan ies
Ġf ederal
Ġseem s
Ġgirl s
ĠGovern or
m m
am ing
ĠH ung
ĠBost on
ĠJ ul
Ġqu ality
Ġtell s
Ġcle an
Ġ198 9
Ġo x
Ġanim al
ot hes
Ġrec omm
Ġ3 9
A t
Ġmultip le
ĠCh ris
Ġsp ring
al le
Ġpro pos
ĠO f
th is
Ġnomin ated
Ġconst ructed
t ime
Ġw onder
ir ing
ce nd
Ġmur der
ru it
i ot
ĠCh arl
Ġv ess
Ġsup pl
Ġinc hes
Ġ +
ĠS k
l a
Ġpro gress
ĠT ri
os aur
ra el
Ġdri ve
st one
Ġhors es
Ġsil ver
Ġcomb at
y e
Ġex hib
ĠYou ng
Ġbe yond
Ġposition s
ĠSp ain
ĠM anc
Ġdise ase
Ġ4 8
ĠSt one
Ġun iversity
Ġ194 2
Ġw ing
or ry
and a
ĠL ike
Ġend ing
i as
Ġdist inct
T V
ĠS pr
ĠNew s
A r
Ġsystem s
Ġs out
Ġact ress
Ġoff er
ro ve
ĠF re
Ġcontro vers
Ġd rug
ig g
r id
Ġc ried
om a
ĠK r
Ġvoc als
Ġwe ight
Ġanc ient
ĠD ire
ĠH or
Ġcont ent
Ġspe ech
ĠMad onna
Ġret ired
Ġ4 00
Ġtw ice
ĠJe ff
Ġb order
Ġre in
Ġacc ident
im a
ar p
Ġc atch
Ġwe bs
Ġpass ing
ill ery
an o
Ġw it
Ġe th
ĠĠĠĠ ĠĠ
ĠStep hen
W hy
ent le
Ġb al
ap ers
Ġs now
Ġt all
Ġop in
ĠMus eum
Ġpolit ician
Ġse nd
ĠS ur
Ġtri al
n ers
Ġser ve
Ġp ul
am ber
Ġnorth west
m in
Ġro ll
Ġon to
Ġsome one
Ġcond ition
ĠM ax
ĠB ook
Ġd ed
Ġexpl ained
Ġslight ly
Ġresult s
Ġd ry
Ġse asons
ag n
Ġwat ers
Ġmach ine
ĠOx ford
ul ations
Ġth in
Ġrec ent
Ġo pt
Ġin h
Ġgrow ing
Ġd ress
ad el
Ġ194 4
oth ing
Ġphys ical
Ġl ink
Ġcontin ues
Ġcond ucted
Ġfinanc ial
ap pe
Ġt al
ĠT er
Ġg ives
Ġs oul
Ġres ist
Ġy es
Ġc itiz
Ġpl ants
ĠC reek
s et
Ġte ach
Ġbeh av
r ance
ylv ania
l am
ĠComm ission
Ġp sych
ĠW ay
ĠL o
Ġincor por
the y
Ġmet res
Ġenc our
Ġocc asion
ell a
M S
ag a
u ous
Ġesc ape
ĠR og
Ġide as
Ġpro ved
ew ay
ĠCol on
Ġfav our
ĠEl iz
Ġmount ain
quar ters
Ġtraff ic
ĠDe v
Ġfor g
Ġ4 2
Ġresp ond
Ġcontr ast
Ġt err
il ies
per ial
Ġs ave
Ġport ion
stit ution
Ġ194 5
ĠL ight
iver se
Ġag ed
Ġnecess ary
Ġresult ing
Ġs omew
Ġgu ard
our ney
ĠV an
Ġart ists
Ġg ained
Ġmy self
emb ly
Ġwall s
Ġperform ances
Ġpolic y
ĠL ine
Ġsc ale
Ġ4 7
Ġconc ent
Ġext ra
Ġst ating
uz z
Ġactiv ity
ĠR ay
Ġgl ass
ĠFin al
Ġsim ple
Ġst ore
Ġsex ual
el d
Ġdeg ree
Ġ198 8
p re
ĠR os
ĠA v
tr ack
Ġrepresent ed
th let
ĠChrist mas
Ġfeel ing
ĠG irl
Ġp an
ĠVal ley
ist an
6 0
Ġsa f
or ks
Ġlook s
Ġpur pose
Ġ198 7
Ġn ative
Ġdisc o
Ġs ight
Ġstud ent
Ġ6 4
Ġwrit ers
Ġh at
l oad
Ġf resh
ĠCarol ina
ĠB BC
ess ed
Ġsecond s
Ġ194 1
Ġorgan ization
F A
Ġd u
ĠS und
Ġshe ll
a ud
ph y
Ġallow ing
m itted
ĠD ar
Ġa ctions
Ġapp arent
Ġr id
ĠRuss ia
Ġs elling
Ġmed ical
Ġwid ely
ĠNort hern
Ġplat form
Ġ192 0
Ġv o
Ġalbum s
i ro
Ġte le
Ġ4 4
1 4
Ġco ol
ĠGovern ment
ĠEnter tain
1 7
ash ion
Ġro w
ĠAn ne
ig er
ĠJ ud
k ins
Ġw ish
Ġr om
Ġwar m
Ġs ought
Ġwind ow
Ġconclud ed
Ġcycl one
Ġpot ential
ĠC at
Ġd ie
ĠFoot ball
ĠM iddle
Ġansw ered
igh th
ĠN orm
ĠManc hester
Ġtyp es
Ġtransfer red
ĠBr idge
Ġp et
ĠSer ies
ĠC orn
ĠL y
ĠL iber
I s
Ġl oad
ĠO tt
Ġinst it
Ġro se
or a
ĠInf antry
ay er
Ġm ut
Ġin ch
Ġlet ters
for ce
ig r
et y
Ġent er
ĠCl ass
ĠIs rael
ĠAdm iral
Ġt un
Ġrel atively
Ġsp oke
ad ow
ĠL ife
az z
Ġ18 2
g est
ad s
Ġdr ama
ĠCro at
w as
ĠV ol
Ġad j
Ġcomb ined
Ġtalk ing
urb an
Ġstud ies
a un
ĠP ubl
ĠL and
Ġhon or
p son
Ġp oll
ĠD un
Ġtr ail
Ġpeak ed
b a
Ġl ov
ĠBr ad
ĠCon f
ĠSen ate
Ġf lying
ĠPr in
Ġattempt s
Ġ5 5
amp ion
Ġyou th
ĠHarr ison
Ġtit led
Ġvoc al
w ar
and y
Ġprim arily
e g
Ġro les
ĠF ar
i Äĩ
Ġtw elve
O N
Ġweap ons
Ġinstr ument
ĠEntertain ment
in son
ĠPr ime
Ġ15 0
Ġcon ver
Ġprov ince
Ġoffic ially
Ġv ote
Ġinflu enced
Ġcomp uter
Ġd rew
ĠBe at
Ġh arm
ĠA re
Ġpat tern
ĠP op
Ġro b
ĠPro v
1 6
Ġre ject
Ġway s
Ġrequ ire
ĠVictor ia
Ġprem i
Ġ198 6
ĠN in
Ġnorm al
d id
em ic
Ġord ers
Ġr isk
ol a
Ġcom edy
Ġple as
ĠPenn s
ĠSh ow
Ġex pect
Ġofficial s
z en
Ġre form
Ġthink ing
Ġh ang
el ess
Ġr ang
Ġch osen
! âĢĿ
Ġnort heast
Ġgovern or
Ġs ac
Ġb es
Ġalong side
g ian
an es
Ġqu iet
Ġsix th
Ġa st
ĠC are
ĠP ers
Ġhy d
Ġphil os
Ġbr ight
i pe
ad ing
Ġconfir med
cl us
Ġf ired
Ġis n
ĠJ es
Ġview ers
Ġpre par
Ġav oid
Ġfig ures
ĠServ ice
M y
ĠS pec
Ġterrit ory
ge nd
D o
id ay
Ġ194 3
Ġn arrow
Ġsh ut
1 3
Ġim age
ĠD i
Ġshort ly
ĠM od
ĠR am
Ġfl at
Ġgrow th
ĠM en
Ġfeat uring
ol ly
ĠDe f
Ġlead ers
Ġexp ress
ans as
Ġse g
Ġres c
Ġsc oring
ĠL ady
m ission
ĠIr ish
Ġmax imum
Ġsing ing
Ġer a
Ġreach ing
r ick
Ġprom oted
ĠT ay
Ġexp ressed
ĠH al
sh ire
Ġc amer
Ġtour nament
c ious
Ġr ating
r ical
Ġrepl ied
Ġcoll abor
Ġs ell
ĠG al
Ġspl it
ĠE ach
ĠO s
um an
ac ity
or ation
Ġf ully
Ġ5 2
is hes
Ġh abit
Ġmeas ure
l t
Ġd ata
Ġdef in
ateg ory
Ġstud ied
Ġl iber
Ġsour ces
Ġdr um
Ġte acher
Ġcolle ct
Ġtreat ment
ĠC ivil
ĠH y
Ġhold ing
Ġtr ust
Ġpil ot
y an
er c
Ġc ab
Ġf ought
ed om
or ter
C l
ĠEliz abeth
Ġm ic
ĠMar sh
us es
ĠRepubl ican
ĠA venue
Ġfail ure
Ġvis ited
ĠB as
Ġaffect ed
Ġfollow s
Ġ201 8
ĠM os
Ġlearn ed
om ers
Ġ4 3
Ġele ment
ĠPenns ylvania
Ġexec utive
Ġbu y
Ġrail way
ĠD uke
Ġfin ish
om y
Ġdeb uted
Ġro of
iz es
Ġeas ily
Ġ6 5
Ġinv asion
n ight
Ġcaus ing
Ġplan et
l ers
p ress
ĠE astern
Ġun known
Ġheav ily
Ġend s
ĠDan iel
ĠE ven
Ġ198 4
Ġslow ly
on c
ĠR od
ĠJ ac
Ġcurrent ly
en ger
Ġcorn er
Ġr ich
Ġadv ant
F or
r am
Ġsup ply
ĠM em
Ġnewsp aper
Ġtor ped
Ġult imately
Ġ198 5
u fact
ĠE le
un ction
Ġst ations
Ġspe ct
Ġy eah
ĠAd d
Ġrepe ated
Ġb ud
ĠL et
ĠDemocr atic
Ġs ports
ĠSecret ary
iv ity
Ġal t
ino is
Ġget s
Ġinj ury
Ġcon vers
ĠR oll
ĠF e
Ġm ine
Ġtr uth
Ġwat ched
Ġc ard
Ġs ust
ĠPol ish
ĠP en
Ġfir m
Ġf ly
Ġset ting
Ġdesign ated
ip l
ĠInd e
ĠB or
Ġvers ions
p et
Ġt on
Ġed ge
Ġman ufact
ĠAr m
ĠHar ry
ĠScott ish
Ġtow er
Ġre ign
ro ll
Ġsup posed
Ġn aval
Ġa ired
Ġknow ledge
Ġbill ion
ĠB ell
Ġauthor ity
h ire
Ġgu est
Ġf illed
Ġcon sec
Ġident ified
Ġex ped
ill ing
Ġple ase
ĠH ind
art s
ĠAnd rew
ys is
ĠAs ia
Ġlab el
Ġas pect
Ġb reat
ĠT em
w ater
Ġsing les
Ġb odies
Ġd yn
Ġed itor
Ġw ounded
Ġreturn ing
A A
Ġl ady
ĠBat talion
ĠJ ersey
Ġworld wide
r ich
Ġdel ay
ĠD am
ĠIs lands
Ġactiv ities
S h
res p
Ġd iam
w are
Ġ4 6
Ġhead s
p ool
ĠJ on
Ġch ose
Ġwork ers
ĠTh ough
Ġc ouncil
ĠS ummer
g ent
Ġsit ting
at o
Ġres idents
Ġexper iment
ĠR om
Ġk ick
Ġmom my
ĠM ur
Ġ196 8
Ġh ill
ĠHist or
Ġfam ilies
O R
Ġl in
Ġrefer ence
ĠL ind
Ġentire ly
Ġequip ment
pos s
Ġcapt ure
Ġsen ior
Ġsub s
ĠN ight
Ġinn ings
Ġsh ape
ĠS ub
Ġe t
Ġfrequ ently
ĠT op
Ġadop ted
ĠL ew
ĠO cean
Ġbrother s
u a
cl usion
Ġeas y
Ġsk in
ĠTh rough
Ġr aid
Ġsur re
Ġint ellig
Ġ201 7
ĠBl ue
Ġcond uct
ĠIn stitute
Ġposs ibly
ĠH ard
Ġdeterm ined
ĠR ome
z er
Ġmention ed
Ġappear ances
ĠWil son
Ġprom inent
ĠAlex ander
Ġachie ve
Ġprodu ct
idd en
Ġj ourney
ĠAl b
Ġ198 3
i able
Ġl osing
ap ped
ĠSy stem
Ġrece ive
Ġserv ing
Ġyoung er
d d
Ġb ought
Ġco al
Ġart illery
Ġbott om
Ġch oice
Ġ197 9
Ġcommon ly
Ġregard ed
Ġ ur
Ġdo ctor
Ġturn s
f riend
Ġt ask
Ġadv anced
Ġmot or
un ch
A P
ĠBr igade
st ead
ĠP re
av a
Ġl abor
ĠB us
Ġsubsequ ent
Ġis lands
Ġ Î
Ġdef ense
Ġwant s
i i
p ro
Ġthous and
en ge
ĠReg iment
ast y
ĠM ah
Ġhom es
Ġt im
ĠW at
est ic
Ġ197 2
Ġkill ing
g n
f it
cl es
im ents
Ġa f
if ying
Ġc ensus
op her
k er
am in
Ġman ner
ĠHol ly
1 1
Ġwebs ite
Ġequ al
Ġturn ing
ĠW W
Ġhistor ical
Ġarg ued
ĠAl bert
ĠCast le
Ġsound track
Ġaccom pan
Ġneg ot
Ġb ass
Ġcons isted
ans ion
Ġ198 2
8 0
Ġv ac
ĠS us
c hen
ak ed
I S
ra id
ĠM ir
Ġmeth od
ĠF estival
ĠP ost
Ġad vent
ĠH ere
ct ic
ĠFle et
Ġterm in
Ġf iction
pt on
ĠGeorg ia
Ġf rog
Ġne ck
Ġf aith
ĠIll inois
as hed
ĠU pon
Ġbas is
Ġnot e
ad or
ĠC y
Ġclaim s
m osp
Ġsever e
ĠL u
ĠG il
o ch
el ly
Ġn arr
ĠC ub
ĠU s
Ġcont ained
ĠM ike
ĠAl so
ul s
Ġhistor ian
Ġland s
Ġreport s
Ġent ertain
Ġ #
Ġc ert
ĠW omen
ĠB art
Ġw ave
Ġneg ative
ĠOh io
Ġwas n
Ġs port
Ġp ig
ag an
aw a
Ġsat is
Ġpass es
ast e
Ġtrou ble
Ġm ob
Ġneed s
Ġstri ke
Ġad apt
ĠL es
ĠH omer
claim ed
Ġl augh
ann y
Ġpre fer
Ġ196 7
Ġf an
ĠB on
ri f
Ġleg s
Ġc art
re ct
ĠG erm
Ġtri p
Ġform ation
ograp her
Ġmaintain ed
ĠOlymp ics
ĠDis ney
Ġg entle
Ġc a
Ġp age
Ġindivid uals
e per
ĠJew ish
ĠRev olution
Ġc ars
Ġn one
ath an
ph as
Ġ196 9
Ġcomp ar
adel ph
w ise
Ġk iss
Ġ193 9
ĠGu ard
Ġext rem
Ġsurr ounding
Ġcontem porary
Ġf aced
ĠH urricane
Ġ17 7
Ġ196 4
Ġd rawn
Ġf uel
Ġprom pt
Ġ5 4
ul ed
Ġv an
Ġdemon str
al i
ol n
Ġ197 6
Ġcritic ized
ĠB ond
Ġbr anch
Ġroad s
ack s
S B
Ġr ise
Ġrul es
Ġf ashion
ĠF ield
Ġcol umn
os a
ĠTay lor
ĠC ard
ĠT ra
Ġgen us
Ġcont ain
im ens
Ġback ground
ĠF er
Ġp ull
n oon
Ġk g
Ġmunicip ality
Ġ197 1
ĠJ r
Ġb asket
ĠB ul
Ġop posed
Ġ197 5
Ġhe ight
ĠD et
ĠDo ctor
ĠN at
out s
ĠAr thur
Ġoper ated
er a
Ġ198 1
Ġagre ement
adelph ia
r an
Ġhouse hold
Ġfl ow
Ġany one
ĠWh o
Ġsw im
Ġper man
Ġp up
Ġgr ass
Ġ197 3
ĠEm peror
Ġele v
ĠH ome
Ġun us
Ġbur ied
Ġop pon
Ġ197 4
Ġmot ion
ĠJ er
Ġbelie f
Ġcom fort
Ġex tend
ĠOlymp ic
Ġill ust
Ġmov ies
Ġcap acity
ac ement
ing ly
Ġopport unity
et ts
Ġ ign
Ġsp ok
Ġd ial
im al
ĠE p
ĠSh ort
v a
Ġw rest
um es
ot y
Ġm ile
ĠR on
Ġr ival
Ġtyp ically
ĠT ro
Ġnew ly
Ġconc er
Ġact ors
Ġoppos ition
Ġrec ently
Ġtown s
Ġopin ion
ĠStud ios
on ia
Ġp owers
ĠN ever
ĠG all
Ġneigh bor
Ġtemper ature
Ġb le
ap es
Ġcall s
ĠF air
ick ets
ess ions
ell er
ak a
o z
Ġar med
Ġap art
ĠW ild
Ġcreat ing
Ġansw er
g al
Ġart icle
B A
Ġparticip ated
he im
Ġinde ed
ĠKore an
Ġst ret
i ate
ĠOn ly
Ġsudden ly
u ate
Ġa im
ĠB ad
Ġexpl os
ir a
Ġinc ident
ir ation
Ġfind s
ĠCo ast
ĠS her
Ġclos ely
Ġorgan ized
Ġl ad
Ġexper i
Ġdis app
Ġgl ob
ĠColumb ia
Ġh oney
Ġprep ared
Ġ6 00
Ġem phas
itz er
ar ia
ĠPhil adelphia
Ġrelig ion
L et
Ġass ault
ch ing
Ġor chest
Ġrain fall
n ce
ot ional
Ġ196 6
Ġgrant ed
i ents
Ġo h
ult ure
ĠD ick
A fter
Ġhead quarters
Ġrecogn ized
ĠV en
Ġeffect ive
Ġp iano
ĠJe an
Ġnucle ar
er al
resp ond
Ġre asons
ĠColon el
p es
ach us
Ġrest rict
Ġbud get
Ġp aint
Ġabandon ed
Ġ9 7
inc oln
he red
Ġcl oud
Ġadvant age
ĠSqu are
Ġ5 3
Ġun cle
Ġdec k
ub b
Ġsec urity
" )
an while
Ġre ar
Ġdoub t
Ġcitiz ens
us hing
ĠAs h
Ġat mosp
Ġbr ain
ĠT HE
ĠBro ok
Ġevery one
u ccess
Ġatt rib
ĠM id
Ġs orry
Ġcas ual
ã Ĥ
ĠM aster
Ġmus eum
Ġtr ains
il ton
Ġsol o
b ox
Ġread ing
ĠS S
Ġdem and
Ġyour self
Ġeng aged
riv al
Ġh ur
Ġchall eng
Ġinter ested
Ġreg ions
Ġ196 5
Ġd uty
Ġadminist ration
is a
Ġcan cer
Ġegg s
ĠC a
ĠAll ied
p o
Ġmanag ement
im et
Ġad vert
ĠB ru
ĠFranc isco
T C
Ġk id
c ing
ĠF am
ĠC D
ĠH un
Ġg arden
Ġpro s
Ġcre ation
Ġenc ounter
M r
ab b
Ġcontro lled
ĠBo ard
Ġsa fe
Ġs ir
Ġst uff
Ġsh op
Ġcent uries
olog ist
Ġcons ists
Ġcr ime
Ġ197 8
ĠCh ild
Ġdism iss
ĠH a
r as
Ġsee ing
Ġcell s
ren ce
Ġbo ats
Ġw a
ow a
Ġsy n
Ġsequ ence
Ġsymb ol
Ġcritic ism
ĠOn ce
Ġac ad
ĠSwed en
se y
ĠN az
tend o
Ġafter noon
achus etts
Ġoccup ied
Ġn ick
Ġmy th
ĠR ose
Ġsa il
Ġshoot ing
ag ement
Ġland ing
Ġscient ific
Ġsevent h
Ġmess age
ĠKent ucky
ĠG ree
Ġ202 1
Ġd aily
ut ation
Ġa id
ĠS and
Ġproduc ers
ĠS el
ĠH ay
Ġauthor ities
ce ived
oc ated
ĠMus l
Ġmer ch
Ġset s
Ġimpro ved
em an
Ġachie ved
k now
od ay
Ġ201 9
Ġinter act
Ġshow ing
Ġhum ans
av el
w all
Ġfr anch
ĠAb out
Ġsound s
Ġcomm ittee
r ons
in th
Ġne ither
ĠL incoln
Ġbrief ly
Ġro t
ĠCh ap
Ġoff ensive
m un
Ġg all
ĠL ab
Ġking dom
in ity
Ġ( "
Ġcross ing
Ġpar alle
Ġsouth west
a fter
Ġconne cted
ĠL ive
Ġ8 5
ĠCl ark
ĠN HL
Ġdescrib es
ĠP ict
Ġste el
Ġdis appe
Ġcaus es
uc ks
ĠMass achusetts
ĠNin tendo
a is
Ġcarry ing
Ġmar ry
st ream
Ġche ck
Ġprote ction
Ġlangu ages
Ġexist ence
A C
Ġcult ural
ĠB ern
Ġhapp en
ĠF antasy
Ġconsec utive
Ġindust rial
Ġ197 7
ap ore
Ġdec re
wh ich
ĠComm on
f ather
ĠP ot
stand ing
ĠPrin cess
Ġl ic
ell o
Ġ7 4
Ġdet ect
Ġspe aking
Ġacqu ired
ĠWal ter
Ġun ique
ĠPro d
Ġwait ing
Ġr ide
k o
Ġl ap
ĠM D
ol t
Ġ9 5
Ġwe alth
ar io
Ġ5 7
Ġa wards
Ġch or
ĠW ater
ĠH it
Ġwit ness
ĠK en
Ġfilm ed
bur gh
B e
Ġlead ership
Ġg ross
Ġmiss ing
ĠOr igin
Ġsh ore
u er
at ures
ĠT am
ate ver
Ġcerem ony
aval ry
ĠJ ane
Ġn ose
ĠOff ice
Ġar rival
Ġ err
Ġun ivers
Ġsh r
Ġg ain
Ġmin ister
Ġvehic les
Ġrequ est
ĠHe ad
Ġs ick
ver se
ul ate
ĠW ars
ĠBro ad
Ġsh ark
Ġgl ad
st ruction
Ġsett led
ang er
Ġk it
Ġsuccessful ly
ut ies
Ġrapid ly
Ġr ac
Ġex erc
ut s
ĠF orm
Ġth irty
Ġ5 6
l ig
Ġshe l
Ġcor respond
C ome
ĠH on
ĠWe ek
ĠSing apore
ĠU N
Ġte eth
b ar
Ġc up
Ġev ac
Ġh ung
j a
Ġmed al
e f
ĠK im
poss ible
Ġh urt
ĠN ick
Ġfilm ing
Ġexp ansion
Ġcont aining
ĠE arl
ĠL ar
Ġfl owers
it led
c ks
Ġreject ed
Ġliter ature
ĠCam bridge
ĠE s
h is
Ġsugg ests
Ġc rown
Ġst ick
el a
is ers
Ġexp anded
Ġmount ed
ĠS a
Ġst ock
ĠN ap
l s
Ġprov ides
Ġh am
ĠM ul
Ġval ley
Ġpain ting
Ġold est
ĠL iver
b ro
ĠL ieutenant
Ġ12 0
ĠâĢ ĺ
Ġobs erv
E N
ĠGold en
ph one
ĠOper ation
O ne
Ġhe at
Ġ7 6
g t
Ġvol ume
Ġaf raid
ĠB alt
Ġadd ress
ĠGerm ans
if orm
Ġ17 8
ĠGr ant
op hy
rop ol
i ations
ĠB ank
Ġeconom y
Ġwatch ing
Ġaccompan ied
Ġlik ed
Ġsqu adron
Ġtit les
Ġcom ic
ĠAm ong
ac ter
ĠP ak
Ġfind ing
ĠMill er
ĠC rit
ann ing
Ġkilomet res
ĠE nd
ĠĠĠĠ ĠĠĠ
Ġdef ence
ĠSund ay
Ġe c
Ġext ensive
ĠOr der
m outh
Ġ4 1
ĠF urther
Ġsh ared
ĠD ue
m hm
ic ate
ĠY our
ĠMe anwhile
Ġsup por
ĠD ie
ĠAl bum
ĠB al
Ġso le
Ġsuc ceeded
e z
Ġdis pl
Ġfun ny
Ġprote cted
ic ial
Ġsout heast
Ġnot able
at i
ĠG i
ĠS ix
Ġg ar
ĠLew is
Ġ196 3
Ġtechn ology
un ior
Ġsy m
Ġf ruit
Ġ191 8
ĠS ound
Ä ģ
F L
ĠT urn
ĠT ropical
ri p
Ġmem ory
ĠSup reme
Ġsaf ety
Ġm o
Ġded icated
ĠW rit
ĠPol and
Ġv on
are t
w orth
Ġag ent
ĠB urn
Ġ194 8
Ġtorped o
Ġdef ined
Ġem p
ip ped
Ġ194 6
Ġh a
Ġh ired
Ġtell ing
Ġdin ner
Ġcr icket
Ġinf antry
Ġexped ition
Ġprogram s
A L
ĠSte ve
ĠSt orm
Ġquest ions
Ġcont est
Ġgr aph
Ġdist ingu
le cted
ĠTe ch
Ġenjoy ed
Ġ urban
Ġthan k
Ġpr ice
Ġhy p
ĠJ an
Ġconstit ution
Ġv irt
the n
Ġun f
Ġde ploy
Ġdr am
the less
Ġperform ing
rib le
Ġreact ion
Ġband s
Ġrul ed
w ing
k es
ĠM u
bre ak
Ġchem ical
ak i
Ġstart s
re ll
ĠV ar
Ġl oved
ĠO k
m od
ĠN ether
ord in
Ġaw are
ist ory
ĠF all
Ġpart ies
I D
ĠCon ference
r ain
ĠAir port
ĠPort ug
Ġste am
Ġschol ars
ĠDav is
Ġexist ing
Ġdep th
ĠEar ly
ad er
Ġ6 6
ĠPro f
Ġstay ed
ot ten
rop ri
ĠFore st
ĠG ord
ĠE very
Ġ5 9
ĠR oss
Ġsus p
Ġg iant
Ġwithd raw
ĠM as
Ġinj ured
Ġm ort
ĠI V
Ġ7 7
Ġoper a
el le
St ation
Ġwear ing
ult ural
Ġ191 4
Ġfle w
ĠN et
Ġj um
ĠSer b
Ġinter change
ĠB rian
Ġlast ed
Ġ8 00
Ġmic ro
ĠLiver pool
os l
Ġad ap
Ġpr ince
w an
ĠRail way
em ies
Ġaut om
Ġexact ly
Ġcamer a
Ġallow s
ĠI d
Ġref lect
ĠD ark
w hy
Ġfl o
Ã¡ n
Ġknow s
Ġsk y
Ġ x
app ing
Ġcirc um
Ġfl u
i at
eng ers
Ġsupport ing
ĠG ulf
Ġimport ance
Ġbl ow
Ġocc as
Ġcon sequ
ĠKore a
ĠPhil ipp
ĠAnd erson
ra ham
Ġdes ire
Ġr hy
w estern
Ġ202 2
b ell
Ġcommission ed
Ġmil k
writ er
Ġtrans form
Ġhot el
ĠRad io
Ġd addy
Ġcl othes
Ġh uge
ĠTur k
Ġpo em
Ġadminist r
Ġim pl
Ġrev olution
Ġsched uled
o oth
Ġrece iving
Ġoppos ite
ov a
Ġ195 6
Ġarrang ed
Ġd riving
Ġpurch ased
ĠComm and
Ġb ag
ĠK ir
ĠMar ia
Ġcontrib uted
Ġle ar
Ġprison ers
Ġextrem ely
Ġexperi enced
ĠSy d
Ġstr ange
Ġcon qu
Ġres our
Ġas h
d y
Ġcon ference
Ġ196 2
ul pt
Ġret ire
iqu es
ic les
het ic
Ġdef ensive
ugh t
or ough
Ġcol our
o ir
ĠI owa
Ġsele ction
Ġt aught
Ġel imin
ĠHolly wood
Ġsp in
Ġex change
ĠNor way
Ġsem i
n ic
le ment
ĠJ ay
Ġl ose
Ġsol id
un te
Ġ6 2
Ġindepend ence
ac hel
st ate
Ġf ur
Ġv ir
Ġ9 9
Ġdes cend
ĠP ress
Ġsc r
r ig
ant on
Ġcertain ly
Ġag ric
Ġfoc used
Ġcandid ate
Ġanal ysis
Ġ5 8
Ġst adium
Ġown er
ĠA ri
r ate
Ġpro ceed
c ol
Ġdig ital
Ġarrest ed
Ġl ake
ĠLe g
Ġpolit ics
Ġpal ace
Ġstruct ures
ĠPlay Station
L e
os is
Ġent rance
b ook
Ġr u
Ġp ure
Ġv en
y les
ĠAss embly
Ġup gr
ĠAt t
ĠInde pend
Ġfe ed
ĠC ur
Ġlist en
Ġact s
Ġdep ict
Ġunder t
ist ol
Ġviol ence
Ġp itch
w ick
ĠAr gent
ĠT en
Ġesc ort
Ġg rown
Ġsit es
Ġstat ement
Ġappl ied
Ġresist ance
Ġb an
Ġappro ved
Ġs ession
Ġplann ing
B S
ot ic
og ether
Ġest ate
Ġs ons
ĠB all
Ġact ual
Ġmod er
ĠF I
ious ly
Ġgu y
Ġconne ct
ĠK ong
ĠConf eder
Ġv ent
Ġac id
ĠG ib
Ġcon ve
Ġun l
Ġview s
ĠBet ween
Ġearl iest
Ġinterest ing
ĠS R
ĠH art
ograp hic
Ġemploy ed
R e
ĠH an
ĠP rem
oy s
Ġvis ual
Ġrough ly
Ġloc ations
Ġclim ate
ĠCare y
ĠSt ation
Ġj u
Ġdevelop ing
it ors
Ġm ir
ĠW alk
ĠA D
ĠBe y
Ġfor th
Ġcross ed
Ġ7 2
ĠY es
Ġbig gest
Ġobject s
u an
os ed
Ġflood ing
ĠC oll
Ġadd ing
Ġlim it
ak ers
Ġs ad
Ġfield s
ĠViet nam
Ġen l
Ġren amed
ĠPhil ip
t ical
Ġdiffer ence
ĠP oint
Ġbat talion
Ġw ings
Ġ196 1
ch ar
Ġprodu cts
Ġinv ited
Ġtouch down
Ġfranch ise
aw s
Ġres ident
Ġ6 7
Ġintens ity
Ġoper ating
Ġchart s
Ġlaun ch
h uh
le ts
ĠAr ts
Ġn est
ear ch
Ġsecond ary
Ġ8 7
Ġprov iding
ĠComm un
o ard
Ġ195 8
ĠAdd ition
Ġne ut
ild ing
Ã ¸
ow nt
Ġsub mar
Ġcr imin
v est
erv ative
Ġbase ball
Ġsuff icient
Ġt one
Ġcould n
Ġ7 3
Ġinh abit
Ġis ol
Ġthous ands
at re
Ġgu ess
Ġwalk ed
Ġsettle ment
I T
Ġrel ief
ĠIn c
ĠCh art
Ġappro ached
Ġfac ilities
Ġw el
ĠAn th
N ot
Ġt ank
ĠC ape
ĠSpec ial
ĠSim on
Ġcompos er
Ġc ore
Ġ191 7
2 00
Ġcolle cted
Ġthem es
Ġl ies
Ġr ated
Ġwould n
Ġt ied
ar c
II I
Ġ194 7
g ers
Ġf al
ĠAl an
ĠMex ican
Ġf olk
u v
g ood
Ġm oon
Ġdesc ript
Ġ193 8
Ġre nd
Ġafter wards
Ġmet ers
ĠG re
Ġ uh
Ġ5 1
ony m
Ġa thlet
Ġdom estic
Ġ25 0
Ġc ow
Ġinvol ve
Ġrep utation
ĠLe on
Ġ16 0
por ation
Ġgrad ually
Ġp ow
ĠB ase
Ġview ed
Ġ( )
Ġregard ing
Ġaltern ative
ill er
Ġsec ure
Ġdetail s
ĠSpr ing
ĠB ang
z ant
Ġg od
Ġ195 7
p ret
Ġw et
ĠBar b
ĠR et
el er
Ġhead ed
T o
ord an
Ġsc ulpt
ĠCon stitution
i y
ins ula
Ġrest aur
Ġdist urb
Ġpublic ation
ĠW rest
Ġsurpr ise
ĠD ream
Ġwin ner
h us
ĠMary land
C H
ĠT ony
Ġadm itted
ĠSyd ney
Ġg ay
H istory
Ġassist ant
Ġsomew hat
Ã ±
ĠJust ice
Ġdisc over
Ġal le
ĠNether lands
Ġh ol
Ġfall ing
ĠKenn edy
h ost
Ġstat istics
Ġfor get
o is
es c
Ġanim ated
Ġsqu ad
the w
ĠE lect
w ich
Ġ193 6
Å ¡
ĠI v
ĠMo ore
re ts
Ġpopular ity
Ġfre edom
Ġpick ed
Ġreg ister
ic ine
4 0
ĠC op
Ġsh aped
Ġrepl ace
ĠBy zant
er ted
Ġconcern ed
iz ations
ĠInd ust
n ie
ĠD or
Ġeng ines
Ã³ n
Ġappe al
cept ion
Ġspe nd
Ġmiss ed
Ġit ems
Ġjoin t
Ġst ages
Ġear n
enn is
ind er
Ġp in
Ġsub stant
Ġclass es
Ġ195 4
Ġbring ing
_ ,
man n
Ġproject s
ĠF ire
Ġon line
O U
Ġuns uccess
Ġt orn
---- ----
Ġ6 3
ur ation
ĠR oy
Ġth rew
Ġpl ane
Ġen emies
Ġcomb ination
ĠIm perial
Ġe ating
ĠG reg
Ġpl ain
ĠIs lam
ĠM ain
Ġch ampion
Ġmod els
pos ition
Ġreal ity
Ġfr ag
it age
ĠG er
ic ide
a o
ac he
ĠSt and
h an
Ġrem ov
Ġloss es
le ton
Ġstre ets
Ġdeliver ed
Ġ195 3
G o
ĠM other
itzer land
Ġh uh
Ġclim b
ĠD own
ĠW hy
end er
Ġanc est
ĠDou gl
Ġint e
ĠV ill
Ġroom s
Ġus ual
Å Ĥ
Ġ6 9
J ust
Ġ195 9
ĠR em
Ġc ode
Ġf oss
rog en
Ġwor st
Ġproduc ing
Ġthreat ened
ĠB ir
uth or
ĠWh it
Ġconver ted
Ġal ive
ant e
Ġdang erous
ĠD aily
ĠN ob
ĠIndian a
Ġconne ction
Ġcons um
Ġâ Ī
Ġdistrib uted
ĠF ord
Ġwrit es
Ġemer g
tern al
Ġbeg un
b ound
Ġw edd
Ġf ict
ĠB ra
ĠN ations
ret t
j i
Ġl ibrary
ĠDire ctor
Ġsh arp
Ġ195 5
or gan
Ġdeath s
ĠP it
ĠIn stead
Ġrespond ed
ĠO b
enc ies
Ġm ales
um in
ĠSw itzerland
ĠGord on
ĠA h
ut ing
g reg
Ġh its
Ġintrod uction
Ġcasual ties
Ġem pt
Ġvol can
Ġchar ged
re al
Ġpo ly
cher s
T ER
ic i
Ġcap able
ĠK a
Ġdesign s
Ġdo ct
ĠGr am
Ġjud ge
ĠT oday
Ġgener ation
Ġ191 9
ol i
Ġ8 2
Ġdecl ined
Ġg al
ĠP ass
Ġtem ple
ĠM oon
ĠAl f
ĠP ier
Ġbas ic
Ġconv in
ĠR un
w ould
Ġag ree
Ġim possible
Ġfavor ite
ond s
Ġev olution
Ġ191 5
il a
Ġsurv ived
Ġim pr
Ġbat tery
bour ne
Ġw ars
Ġstand s
ask a
ĠR aj
ĠSt ew
le e
ĠBe ach
Ġsignificant ly
st ances
Ġbirth day
Ġex clus
Ġreb u
Ġappoin t
hed ral
ĠP o
Ġm ole
Ġp arliament
W here
Ġ8 9
Ġabs ol
Ġconsider able
Ġb ot
ĠAs ian
Ġgreat ly
h ad
Ġbre aking
Ġres erve
ell s
av ig
Ġin se
Ġto m
ĠAd am
r m
y o
ock et
ĠB udd
Ġinterse ction
ke nd
iss ance
ĠB ab
Ġ195 2
Ġ193 7
Ġfem ales
Ġdraw ing
Ġpl ate
ile y
s es
Ġsuppl ies
. ,
ĠB os
Ġstri p
Ġl ying
Ġpict ures
a ug
it o
Ġmay be
ĠInd ones
Ġprincip al
Ġc ou
com ing
Ġmeth ods
enn y
re te
ĠCh annel
ĠMar c
Ġele ven
re es
ĠK at
ĠN ic
ĠAust ria
ĠPubl ic
ĠProf ess
ĠF ederal
Ġcor rect
ail ed
Ġv oted
arr ing
Ġ194 9
Ġsy nt
Ġunus ual
ĠM ot
he astern
Ġc rop
ĠW he
am i
ĠM att
Ġdoll ars
Ġhop ed
j e
on to
ent ially
se x
ĠH MS
Ġadap ted
Ġdifficult y
Ġt act
Ġb ath
ĠB ah
Ġ7 8
p y
Ġpre ced
app y
Ġpoin ted
Ġt ired
Ġ9 6
Ġext r
Ġco ff
IN G
Ġd uties
um ph
Ġcomm itted
Ġother wise
Ġatt ached
Ġev il
ĠB and
ĠThe atre
Ġqu ant
Ġmat hem
enn es
Ġdri ven
ownt own
ĠAd ams
le ep
I C
ick en
ĠBer lin
Ġdel ight
ific ations
ĠR el
ĠA C
Ġput ting
Ġ191 6
Ġpresident ial
ĠHam ilton
Ġinvestig ation
Ġobtain ed
Ġperson nel
Ġse ctions
Ġ6 8
Ġred uce
ĠT ok
ism s
Ġequ ival
Ġnomin ation
ign ment
Ġgame play
Ġd ipl
Ġd ates
uc ing
Ġind icated
ĠA z
onc Ã©
ĠB illy
ĠSwed ish
Ġg ro
ĠK ansas
Ġcoast al
Ġweak ened
ĠS ant
Ġ7 9
Ġperman ent
Ġph one
st ood
ĠP ower
Ġwar ning
ĠJes us
ĠDougl as
ane an
Ġcamp us
Ġc ited
Ġpul led
ĠMar g
Ġacc ur
c oh
Ġm ad
Ġsurr ounded
ĠA k
ow ed
im b
ĠWin ter
Ġent itled
Ġgen re
Ġinc ome
Ġcred ited
ĠB ush
Ġpart ner
Wh o
ĠSt adium
ĠOtt oman
Ġcar bon
Ġatmosp here
or ney
Ġl b
Ġmov es
Ġrom antic
Ġc inem
Ġpass age
Ġhun ting
a ft
Ġwind ows
Ġtyp ical
Ġbe ach
Ġinst all
Ġpers u
ĠJ ordan
Ġwhe el
H is
ĠStan ley
ars h
ĠF eder
Ġcomp on
Ġoff ers
Ġintern al
e er
y ard
ps ons
Ġincreasing ly
Ġsust ained
ĠSt aff
Ġcan n
ĠSc ience
Ġtheat re
b an
ĠC ab
Ġr ural
Ġform al
Ġkeep ing
ili ar
Ġpass engers
ĠC irc
h ar
Ġstory line
Ġmaterial s
ĠBey oncÃ©
Ġdec or
el son
Ġb om
ĠAr k
ĠA ge
Ġtre ated
ot o
go ing
Ġvess els
Ġl ie
ĠS av
Ġreg iment
ĠA my
Ġocc urs
Ġident ity
Ġ8 8
ĠCol or
Ġra ise
ĠWW E
ĠC art
ĠAnd y
ĠSim psons
ok ed
N e
ĠU r
pect ive
Ġbre ed
Ġac res
ivers ary
Ġland fall
Ġsepar ated
z y
Ġa er
Ġassoci ation
Ġintellig ence
Ġo cean
ĠD u
are n
Ġret ained
Ġspok en
Ġnot ice
Ġacc used
Ġlear ning
Ġsp ons
ĠRog er
ĠHow ard
G N
ĠF ame
ĠFred er
Ġ7 00
urr ing
Ġpain ted
Ġdistrib ution
em ed
Ġent ry
Ġbasket ball
ĠG un
ĠB a
ĠP ur
re ck
ĠH ug
ust ed
ĠRe view
ie val
Ġl at
ĠM TV
Ã© e
Ġim ages
R A
Ġ195 1
Ġh al
ĠSong s
Ġmount ains
velop ment
ĠK ar
Ġph ase
Ġhold s
ost er
Ġout er
Ġ193 3
p ir
aw are
Ġstrong ly
ĠN aval
Ġse es
Ġdec ade
ĠH o
Ġrec on
Ġabs or
he me
Ġ193 5
Ġhost ed
th a
Ġcompos ition
Ġpen al
ĠS u
ro ke
ĠâĪ Ĵ
Ġr ub
ic y
Ġstar red
E D
ĠNor we
Ġliter ary
Ġle gend
te enth
Ġfif ty
igh ters
Ġch annel
Ġsur vey
ĠCon stant
ĠSoc ial
v is
Ġret reat
Ġve get
Ġsequ el
Ġdisco very
Ġp ushed
Ġh ip
Ġg ather
ie ge
Ġ9 4
Ġground s
Ġz one
ou ri
Ġm ap
Ġar c
Ġplay off
ĠSp ace
Ġr um
ĠShort ly
2 5
l ines
ann ed
ĠMat thew
Ġgold en
ĠJew s
Ġe ighth
Ġte en
Ġchall enge
Ġask ing
Ġcost s
Ġsa iled
Ġpropos al
ĠH oly
oy d
ĠRep resent
Ġdang er
ĠBro ther
ĠMount ain
Ġbehav ior
Ġ ille
un a
ag ues
Ġthr one
Ġent ering
Ġast ron
ĠB ack
ĠEng ine
Ġfix ed
l ie
Ġmove ments
ĠG en
Ġ id
à ¸
ut her
ag le
ĠTh us
ĠH ans
ĠH ou
ic it
ĠA st
Ġrec alled
Ġac know
Ġhon our
Ġd read
t ure
ĠHist ory
ĠBow l
c a
Ġpre y
Ġdri ver
Ġspecific ally
ĠMem orial
av ia
Ġexp ression
Ġwalk ing
Ġdown load
Ġsuff ering
Ġcommand ed
ĠB ol
S ome
Ġl ane
Ġreg ional
Ġ ere
it err
ĠF ive
in ter
Ġh ole
ĠB ry
ust er
Ġfict ional
Ġinte gr
ob e
O T
Ġrec overed
ĠMor gan
Ġsp r
Ġweap on
Ġw ides
Ġco at
Ġparalle l
Ġcan c
Ġass umed
row s
els h
Ġchar ges
Ġprom ote
reg on
f ast
ac le
Ġprom otion
Ġd ens
om ic
ĠBru ce
ĠR A
Ġgr av
Ġmusic ians
Ġc ous
Ġres emb
Ġstep s
Ġth ou
ay a
Ġr aces
ĠF ound
Ġf er
Ġimp lement
id ges
ĠW ork
s m
Ġint ention
Ġch ain
Ġhear ing
ĠSc ient
p art
w en
il ation
as er
Ġprom ised
Ļ ª
ur ches
Ġ13 0
Ġaccom pl
atter ed
Ġ193 4
ĠMc G
Ġang ry
ĠL oc
ĠJ oh
vel and
Ġcour ts
Ġbre eding
Ġvot es
Ġm aid
Ġs am
Ġcomm it
ĠG ill
Ġtri es
p read
ĠHit ler
Ġwedd ing
ĠMc K
ĠI ra
ropol itan
ĠRob inson
ĠS anta
Ġrout es
Ġin ner
ra it
d a
ĠD og
Ġdog s
Ġconsist ing
c ar
Ġh ockey
Ġposs ibility
Ġdest ruction
Ġclos er
Ġg at
l i
Ġfl ed
Ġ191 0
iterr anean
b les
it able
ĠP ope
con t
Ġconcern s
w orks
osaur us
it ter
ly n
th m
Ġme at
Ġsy mp
Ġclub s
O S
urr ay
Ġg ate
Ġd ated
ish ment
Ġm ode
Ġcons ult
ail s
in ton
ie ce
Ġexcept ion
ĠNorwe gian
Ġcommun ities
ĠFranc is
Ġdec ades
ens es
Ġfund s
ch ang
we ight
Ġinst ance
Ġwh atever
ĠL ow
ĠB arn
Ġfre eway
Ġexc ell
Ġder ived
ĠO regon
Ġ8 4
ĠR yan
Ġbeaut y
Ġjournal ist
Ġserv es
Ġf ool
Ġoccasion ally
Ġt anks
Ġmil it
Ġd ressed
Ġdiffer ences
pr ise
Ġrecomm ended
ĠM ov
Ġkn ots
Ġw ore
Ġadv ice
p en
az a
Ġfl ower
Ġele ctions
Ġinst alled
us ing
ĠS ax
og y
Ġportray ed
ĠPh ill
Ġreturn s
Ġsee k
Ġmon arch
Ġrespons ibility
Ġinhabit ants
G ood
Ġ9 8
ĠG et
ĠRh odes
Ġnick n
be y
Ġal coh
ain ts
ĠMed iterranean
j ust
em eter
pl ace
Ġremain der
Ġengine er
Ġl iqu
or ous
ĠE ric
Ġden ied
pos es
z z
Ġfor ty
ather ine
r ad
Ġvehic le
Ġdepart ure
Ġassist ance
Ġext ension
ĠP ear
so le
Ġa x
ĠD E
ak s
Ġp ounds
Ġair port
Ġun less
az ing
ĠUS A
Ġvol unte
ĠNorm an
ĠHaw ai
Ġp ale
Ġclass ic
Ġattract ed
Ġsatis f
ĠE ver
Ġcr ash
ĠT ar
un es
Ġrel ative
ĠInd ians
Ġaspect s
ĠTor onto
ur day
ĠAr n
i ac
Ġlong est
ĠCle veland
Ġequival ent
ĠD omin
Ġrecogn ition
Ġtr a
Ġ9 3
Ġdiv or
Ġcons cious
ĠW eb
ĠN ich
Ġv ary
ĠPro t
Ġbl ind
ĠT reat
Ġcred it
Ġs ale
ĠIn it
s aid
is en
ĠR ain
Ġdeb ate
Ġb on
ĠL aur
ag u
Ġfriend ly
Ġab oard
ĠAll en
Ġde leg
ĠC as
ĠRes earch
Ġequip ped
Ġp ush
al o
h im
Ġtr ained
Ġ8 6
Ġ17 5
ĠMin nes
Ġun ion
Ġ11 0
ĠMag azine
Ġpurch ase
ĠL anc
Ġwood en
Ġj oy
Ġexp and
Ġvis ible
ĠPrem ier
ĠT s
Ġg rey
ĠMul der
ĠW elsh
Ġhundred s
Ġp ool
Ġprofess or
Ġsuppor ters
ĠW here
ĠMor ris
ĠJac ob
j o
Ġin qu
Ġresour ces
Ġ =
ĠIn t
ĠR ow
ĠCar ter
ĠW y
Ġland ed
ĠTem ple
Ġs ed
Ġan x
ab led
Ġinter ests
Ġt ight
ĠN BA
e or
Ġarchitect ure
ĠG ro
Ġse lect
Ġconst ant
Ġ192 7
Ġapparent ly
al ities
ĠIr an
ĠAg ain
ĠPal ace
r um
ĠJ am
O kay
Ġfeel ings
bor ne
ĠG ard
anc hes
Ġpost ed
Ġexpl ain
ĠD NA
Ġinvol ving
ĠPri ze
Ġproper ties
ĠB ishop
a ire
at tle
Ġpoet ry
Ġf estival
Ġbr and
Ġcompet ed
ĠMiss ouri
Ġwides pread
L ook
m et
Ġglob al
us ic
Ġtechn ical
m es
Ġv ision
Ġmem orial
Ġun p
omet imes
Ġ192 6
Ġregular ly
Ġneigh bour
ok ing
ĠMiss iss
ĠKe vin
Ġcert ified
ĠF ree
Ġconvin ced
l an
Ġm ent
ĠM it
Ġtr uck
ol ph
we et
ĠTe chn
I A
ĠPat rick
Ã §
os es
ic er
Ġmor al
Ġdescrib ing
Ġqu een
Ġdiv isions
ĠAnth ony
Ġs aved
Ġstr ing
Ġl oud
in er
Ġabs ence
uc ation
ĠCent re
Ġinstr uments
sen al
ĠâĢ Ŀ
Ġrail road
Ġsh ots
Ġv ide
Ġsh if
iv als
Ġpop ulations
ĠT al
Ġfall en
Ġadult s
ĠN elson
ĠB ure
ar ly
Ġgood s
Ġun iverse
Ġmass ive
Ġs an
Ġtrans ition
Ġcontrovers y
iv a
Ġ193 1
ĠGree ce
ĠPro ject
Ġ8 3
ĠMinnes ota
Ġd rove
ot al
Ġterr or
D e
Ġ192 9
L L
Ġc raft
Ġbr on
Ġcr is
Ġ193 2
Ġrest ored
Ġclass ical
Ġh aven
ug hed
Ġrem ix
Ġphot ograph
oun ced
Ġwor ship
Ġfin ishing
Ġlead s
Ġpra ise
Ġimmedi ate
Ġ erm
Ġchair man
ĠBel g
m n
Ġsc heme
Ġsuper ior
ĠV ice
Ġapp rec
Ġn inet
Ġestablish ment
He y
ĠSe e
Ġdescrib e
ipp i
Ġ9 2
Ġdecl ine
Ġwee kend
ĠBeat les
Ġrece ption
ĠH ockey
O M
ĠI GN
he y
Ġsup erv
Ġpo ison
Ġincorpor ated
ul ous
ph oon
ĠTurk ish
up t
ĠMar s
H ere
Ġd owntown
t an
Ġfall s
ĠA ut
Ġclass ified
ĠIra q
Ġres igned
Ġsup pose
Ġteach ing
Ġchor us
ĠAr men
Ġbel t
ĠU TC
ro it
ur ance
ĠO t
em ble
ast s
Ġph r
Ġdipl om
ur ally
Ġpart ly
uer to
f ire
est y
Ġcho ose
ate gy
Ġbr igade
Ġemer ged
ĠBr istol
Ġr ivers
an z
id ae
Ġauth ors
Ġl oyal
Ġso il
ord ers
ĠV ideo
Ġpre gn
Ġte a
Ġt ie
agon ist
ig en
op es
atin um
v ens
Ġstr ateg
Ġapp ropri
Ġinj uries
R E
Ġc avalry
Ġchild hood
Ġdr ag
w a
we alth
Ġarm or
Ġinter pret
i ography
Ġw ond
ĠUn like
Ġprogram me
ĠFam ily
ĠSt ory
Ġun iform
Ġstre am
ĠTh ird
Ġsm ooth
Ġc ategory
ĠL isa
Ġa cted
ĠH ospital
Ġnot ing
Ġbut ter
ĠS n
ri ers
Ġpass enger
Ġme ets
Ġ192 1
Ġaccom mod
ĠD ig
Ġseg ment
ĠFin n
. '
ĠChampionship s
Ġscient ists
Ġd ancing
ick ed
ĠMer c
ĠHarr is
Ġs isters
Ġwill ing
Ġshould er
ĠSil ver
ĠL ibrary
ĠPol ice
Ġclass ification
U n
W ith
erv es
Ġalle ged
ĠS ky
ĠS in
ĠW right
ĠI ron
Ġcol ony
Ġs essions
Ġpenal ty
Ġfound er
Ġlaw yer
Ġj ump
o om
A re
e enth
ĠLouis iana
Ġdev ice
ath y
Ġaccount s
Ġ19 00
p any
on ies
Ġf ro
ol ished
ruct ure
Ġresc ue
Ġhelp ing
y gen
Ġb are
Ġh orn
Ġc hest
Ġevery body
Ġformer ly
ĠGil bert
ĠE st
ĠAust rian
Ġuse ful
Ġdi agn
ĠKn ight
Ġf ault
Ġkit chen
arr ison
Ġmag ic
ĠPark er
Ġstreng the
ĠAr ound
Ġform ing
ĠF A
Ġco vers
ĠThrough out
Ġgr ave
r ant
Ġ192 2
Ġhapp ens
Ġtem porary
Ġvess el
ix on
Ġm ental
M ar
st ers
al right
Ġcirc ulation
Ġcrimin al
Ġse ats
F C
i ens
Ġst able
Ġsym pt
ĠTe levision
Ġw aves
le nd
ĠP uerto
Ġfif teen
Ġf ishing
Ġacad emic
Ġcon clusion
ĠU t
Ġrepl acement
Ġsold ier
I V
ĠDe an
ĠSing les
Ġdeterm ine
Ġto t
Ġform ula
Ġsurv iving
Ġ Å
Ġm amm
Ġhor ror
a ired
á »
Ġla ughed
Ġnov els
el ine
Ġpat rol
Ġwh is
ger y
Ġgr ay
Ġmar gin
ĠCo oper
og en
ĠC E
Ġfr ight
Ġw ished
o en
Ġcirc le
ĠAnt on
ĠD ri
Ġ192 8
per ed
ĠSc ully
ĠB ull
l ah
ol as
Ġwor se
Ġref ers
ĠPak istan
ĠJ os
a ver
Ġeffect ively
ĠRuss ell
Ġempt y
Ġext ent
ĠWith in
Ġemerg ency
f ish
Ġclear ly
c rib
Ġro cks
O r
ĠBe ck
Ġmiss ions
ic ious
emeter y
Ã ´
Ġhistor ic
Ġperson ality
ĠK elly
Ġsign s
ĠJ ason
Ġf itted
Ġear s
Ġnorm ally
ĠA N
ĠRoll ing
b ow
m ay
Ã ¦
ĠS ab
Ġpred e
Ġdocument ary
Ġm art
Ġhand ed
Ġex isted
ĠL abor
Ġprom ise
sc ape
ĠNet work
m ers
s k
Ġout break
ĠÃ Ĺ
Ġchang ing
Ġmer ely
Ġhistor ians
Ġinsp iration
b oy
ĠTrans port
ĠCor poration
ĠThom pson
at ically
Ġsc rap
Ġposs ession
ĠJ ournal
Ġbus y
Ġdes p
at ics
Ġob vious
Ġretire ment
Ġrepresent ing
Ġp ed
ĠMusl im
b urn
il ty
ĠS on
ĠL ast
Ġattrib uted
it ated
Ġent hus
Ġann iversary
ĠHe art
Ġd ating
Ġh ide
ĠCon ne
ĠColor ado
Ġbl ocks
Ġp ound
Ġneighbor hood
Ġf urn
Ġde pos
d in
Ġo ught
Ġvict ims
Ġren ew
Ġel der
im ore
Ġcon vent
ĠSat urday
Ġstrugg le
Ġw ins
ĠR ab
ĠMil itary
Ġvisit ors
à ¤
ĠMe g
ĠSar ah
Ġbelie ves
ze ch
ar on
ag re
Ġbreat h
Ġsurpr ised
Ġrequ ested
ĠM aj
ĠJim my
Ġinform ed
Ġremember ed
ĠQue ens
Ġexam ples
ud es
Ġcal c
end ment
ock ing
Ġdelay ed
Ġth ro
ab ama
Ġinter ior
u ly
ĠLe v
Ġrep rod
ĠMississ ippi
Ġal ien
b ra
raz y
ĠHung arian
ĠDe ath
Ġmom ents
Ġn inth
Ġbre ad
ĠComm ander
Ġtermin us
ug osl
Ġsubject s
Ġv ice
ĠWeek ly
Ġf il
Ġmat ters
Ġencour aged
Ġt ub
Ġhigh light
olog ists
ĠKh an
Ġext reme
Ġ6 1
ink ing
Ġmur d
Ġp uzz
ĠH op
R B
Ġexper iences
Ġno ise
Ġst arring
ĠAr senal
ag g
Ġvill ages
Ġmeas ures
Ġc ul
Ġf aster
Ġcolon ial
Ġprede cess
ĠSen ator
Ġappear ing
Ġh idden
Ġg ard
Ġob lig
Ġh o
Ġaff airs
Ġo dd
ĠM urray
Ġprot est
Ġ17 6
Ġmed ieval
Ġfam iliar
Ġ191 2
2 2
Ġr ising
ĠC ook
ĠH oll
Ġsw ord
ĠCroat ian
ĠF ather
form ula
Ġpr on
ĠRober ts
Ġpar ish
Ġo ri
Ġ191 3
ip per
ic ians
Ġf aces
Ġres ign
Ġstr ategy
Ġoffic es
Ġin her
ĠUn ivers
Ġfe ather
ĠDet roit
Ġcop y
Ġs ke
Ġw ickets
or i
m other
Ġhe ll
Ġmy st
Ġle ct
Ġarrang ement
B I
ot ing
M ay
Ġtemper atures
ĠL enn
ĠSt ock
Ġfl ank
Ġexec uted
Ġchap ter
ĠAddition ally
ik a
in ction
ĠMed ia
ĠB ou
Ġsec ured
ĠT rib
Ġforest s
Ġpremi ered
ab il
Ġpr ime
Ġass ass
m ate
Ġ <
he w
ĠT ower
th rop
at us
be c
Ġeth nic
ĠCommon wealth
ĠAl abama
Ġbene ath
ĠC zech
ĠM un
ĠD er
Ġown ers
Ġdiss ip
ĠF ront
Ġdismiss ed
ĠHou ston
ĠMar ine
ĠWar ner
om ot
Ġn ations
ĠL yn
hen s
Ġcust om
Ġs ter
Ġpro port
Ġch urches
Ġ192 5
d ie
Ġcy cle
Ġrein force
Ġtalk ed
ĠN FL
Ġstand ards
ac c
Ġunder stood
E C
Ġth ir
ĠCl inton
ĠMal ays
Ġrel ie
Ġtw in
ĠPri or
Ġfal se
Ġf ighter
Ġp ink
ĠPl an
ro c
Ġcomplet ion
SB N
ĠAd vent
rup ted
Ġint ent
Ġper mission
Ġd ub
Ġrec ru
Ġ192 4
Ġtechn iques
D id
pl ed
ĠJohn ny
Ġill ness
ĠIn tern
Ġunderstand ing
Ġd iet
ĠI SBN
Ġadministr ative
Ġwonder ful
l ife
Ġattack ing
ĠO ak
se a
Ġrecomm end
ĠProv ince
Ġacknow led
ol is
Ġsim pl
ch o
Ġcontrovers ial
ĠGram my
Ġt aste
iv an
ĠSam uel
Ġmay or
f are
ĠO F
us al
amp s
ĠMar io
.. ..
ĠH ills
Ġd ies
em or
Ġbehav i
Ġpart n
Ġcon vention
Ġimp ress
Ġfact ors
ro se
az e
Ġsu icide
ĠHe nd
Ġint ense
Ġoper ate
Ġmed ium
Ġcross es
Ġter rible
ĠS ports
el lect
Ġgr ade
Ġengine ering
Ġgu ys
ĠMarsh all
p ers
Ġt ong
ic ity
j an
by e
er k
Ġarch ae
C an
Ġsurv iv
Ġens ure
ĠProfess or
l ong
Ġem otional
Ġsuccess or
ĠY ugosl
Ġpr oud
ĠC ry
S p
Ġrat ings
ing ers
ĠCh amber
ĠM ort
Ġr ay
Ġfund ing
Ġr ug
Ġdeg rees
ĠBelg ium
Ġsk ills
ĠLaw rence
et ime
ĠH ell
ĠCon c
ĠP le
ĠL in
ĠL im
as ure
Ġt ape
ro id
ac ent
Ġp hen
Ġpat ient
Ġple ased
Ġex posed
ĠL i
ob ile
Ġshe ep
ĠAn na
Ġfac ing
Ġdiscuss ed
Ġenvironment al
u able
Ġar ts
Ġrem n
Ġbes ide
or ld
Ġex cess
ĠAl ong
akes pe
ĠU k
ig ration
Ġfact or
Ġadapt ation
Ġviol ent
he ll
Ġrese ar
Ġaff air
Ġclaim ing
ang ers
Ġhard ly
Ġimpr ison
Ġ192 3
ĠBul gar
ĠByzant ine
Ġs ang
ĠY an
ĠSim pson
Ġpro ve
ap se
Ġcompet e
ĠN C
Ġcomp r
Ġ191 1
Ġrem ove
che ll
Ġpremi ere
b el
Î ¿
Ġpubl isher
Ġmusic ian
ĠBalt imore
Ġf old
Ġem peror
augh ters
Ġexcell ent
ĠN BC
Ġmod ified
lah oma
Ġch amber
ĠTh or
ĠD om
Ġinc om
ĠMel bourne
ĠS um
Ġimp ressed
Ġv ul
Ġv ast
ĠAp ple
ĠCharl ie
Ġlink ed
ĠFreder ick
Ġor ange
ĠC amer
Ġs alt
Ġb ones
ĠA uthor
Ġpur poses
2 4
Ġsus pend
Ġdescript ion
e le
Ġesc aped
ou st
ĠT ennes
Ġannoun ce
Ġgat hered
Ġsu gar
Ġbene fit
ro t
ach ment
ĠPhilipp ines
Ġrare ly
Ġox ygen
f rom
Ġb oot
Ġsil ence
Ġcous in
ĠS oon
be an
Ġinflu ential
ĠWrest ling
d ale
ĠH ong
ult ane
r idge
or age
ĠB ird
ĠG ri
og an
Ġsubmar ine
ĠMarg aret
en ess
ĠL l
ĠCroat ia
Ġprefer red
Ġc os
Ġbr anches
2 3
ab s
Ġsynt hes
ĠGu y
Ġcoin s
ĠOk lahoma
E T
Ġperiod s
p ower
Ġunc ertain
ur d
Ġbat s
Ġphilos ophy
Ġv eter
Ġfac ility
ĠA ff
Ġattempt ing
Ġw ine
h ave
Ġav o
ĠFound ation
Ġf inger
te xt
Ġlegisl ation
Ġpaint ings
ud a
Ġcontin uing
Ġbad ly
ĠD ave
ut t
il st
Ġcircum stances
Ġsh out
ark ed
ĠBrazil ian
ĠJ enn
be cause
B l
w hen
Ġ ic
Ġbat ting
Ġp apers
the m
Ġcry st
ĠStew art
ĠTennes see
Ġbattles hips
Ġn avig
ĠH amp
Ġy e
ack ed
Ġsurv ive
ĠN ative
as m
Ġdyn asty
Ġvide os
Ġsl aves
Ġdepart ed
Ġd ust
ĠMar ie
ĠCar ib
iam i
f oot
Ġnewsp apers
cript ion
ĠR a
Ġorgan izations
Ġb anks
Ġfir ing
Ġh ills
Ġpleas ure
Ġref uge
ĠF el
Ġsign al
Ġbomb ard
b ird
e qu
Ġsp ite
Ġdifficult ies
Ġarg ument
Ġfrequ ent
c ow
Ġdec ide
ĠLa ure
ĠL ane
Ġexp ensive
Ġmoder ate
Ġ17 0
Ġfun eral
Ġrepresent ative
Ġinvolve ment
Ġanim ation
ĠAlex and
ne ver
Ġr ig
Ġde emed
Ġrefer ences
Ġprevent ed
Ġterrit ories
et ch
un c
Ġag ents
Ġpers ons
Ġent ers
ĠSh akespe
Ġlow est
as ters
Ġtri als
Ġform at
ĠL am
Ġtrav elled
s ky
ĠH orn
a way
Ġt ests
ĠN iel
Ġreb ell
ĠAl ice
Ġcris is
ĠB ed
od ge
Ġass emb
Ġb ay
Ġb ell
ĠBro s
es ter
ĠSim ilar
c ase
Ġs ank
ĠC O
and al
Ġpl us
Ġpr ay
Ġaccom pany
st ance
. _
ĠI an
Ġunsuccess ful
M A
Ġp ocket
ĠI mp
qu es
Ġdef ended
Ġval ues
Ġdomin ated
ut ely
Ġsurre nder
Ġmed icine
Ġb ull
Ã ¢
Ġ14 0
ades h
Ġst yles
ak h
ĠO bs
Ġcar rier
Ġsat ell
ĠS uch
ac on
ĠBat man
Ġp ill
Ġas ks
j amin
Ġdem anded
Ġspirit ual
Ġsil ent
ĠChild ren
ten ance
Ġcount ies
ug g
2 1
Ä į
Ġd anc
Ġg ods
Ġcru iser
ĠEx press
Ġr if
Ġearth qu
ĠK ey
Ġsm ile
Ġev ident
bor ough
Ġdiam eter
ĠTok yo
ĠR ick
Ġr idge
rom e
ĠEv ans
Ġdrum s
ĠM P
ĠN ag
Ġalcoh ol
O K
Ġs iege
ĠRe al
Ġj ur
Ġbal ance
f in
h ard
r un
Ġtravel ed
ĠEgypt ian
oty pe
Ġre nt
Ġmark s
Ġrelationship s
ĠNaz i
Ġswim ming
Ġsympt oms
Ġgraph ics
Ġo w
ĠW ard
ĠMin istry
Ġemploy ees
or ious
ĠH uman
Ġj ack
Ġdrug s
E x
S P
ĠC all
Ġan ch
Ġspe nding
E very
ĠP C
the l
Ã º
ĠR oc
Ġk ids
Ġwas te
res ents
19 9
Ġform ally
Ġtreat y
Ġg ang
ul es
if er
Ġdep icted
Ġâ Ĥ
Ġp ages
ĠX box
ĠHind u
Ġpro ced
Ġpro sec
ot ton
ĠOr gan
id ers
Ġpass ion
Ġnarr ative
Ġsol ution
Ġrec over
pec ies
Ġsc re
Ġdrink ing
ep ing
Ġbron ze
x ual
Ġver se
ĠOp en
Ġnot iced
ĠMed al
ĠFrank lin
ad ows
enc ing
Ġsee king
ĠAng lo
m ates
Ġup d
ĠChrist opher
Ġf ill
ĠNap ole
ĠM iami
ames e
ĠS omers
Ġst em
Ġadvent ure
o a
Ġr acing
Ġart icles
iven ess
ĠCount ry
C on
Ġbreak fast
Ġelse where
ã ģ
Ġkind s
Ġparticip ate
Ġb acter
Ġgu ilty
Ġex pos
ĠFor ces
ic op
Ġcover ing
ĠC ru
us cript
ĠH u
Ġjust ice
Ġconve ction
h u
ĠV I
uck ing
Ġw ire
ĠC ole
Ġint ellect
Ġvo ices
A D
Ġnot ably
Ġsm oke
war f
Ġbr idges
Ġpri ze
Ġg arrison
J ohn
ĠMic hel
Ġconcer ts
Ġre j
p ent
it ely
Ġv el
Ġbr ill
Ġk ings
ĠUS S
Ġtest ing
ĠK ings
Ġdesign er
Ġrestaur ant
ot te
ĠDe velopment
Ġtun nel
ven ge
Ġoppon ents
ĠR aw
ĠK al
Ġyoung est
ĠB uff
Ġoccas ions
ĠHor se
hat tan
Ġwhere as
Ġref ere
Ġlight s
Ġmerch ant
Ġb oss
ĠT un
Ġcoll aps
Ġth y
ĠW ing
Ġcharacter istics
Ġse ized
ag en
e ff
Ġ9 1
Ġlo an
Ġisol ated
Ġ8 1
ĠN ord
ard o
Ġbo il
ĠEd ucation
ot es
iz on
Ġrep resents
Ġremark ed
ĠNever theless
s ay
Ġcl ock
Ġdif f
hel m
Ġh ook
ĠT ai
Ġsur f
Ġet c
Ġun like
Ġcol ors
Ġgener ated
ĠC rown
Ġtem por
ĠM ach
2 7
S T
Ġ9 00
le x
Ġreview er
Ġide al
h in
Ġb en
ĠD C
oin ted
Ġj unior
Ġover se
Ġunder ground
Ġprec ip
Ġno ble
Ġmon ument
Ġwithd rew
P h
Ġm al
Ġen h
Ġfe els
ĠShakespe are
ĠL ate
ĠR ap
i ar
Ġst ores
Ġinflu ences
ĠHung ary
ĠG arden
Ġt ears
as ant
Ġre un
Ġreal ized
Ġfun ctions
Ġ189 0
Ġtechn ique
Ġdetail ed
Ġfl ash
Ġcom ed
Ġjob s
Ġtrib es
ograph ical
Ġor bit
Ġant icip
ĠW olf
Ä ĥ
Ġin aug
Ġn om
Ġfe ud
Ġ7 1
ĠD a
Ġd iver
ri x
Ġwor n
ĠG ab
ĠG aga
au x
ĠJ erry
ĠHe avy
Ġbur st
ĠAlf red
ĠCarib bean
ĠMod ern
Ġcreat ure
Ġpres erved
Ġamong st
ĠBure au
z ona
ĠMan hattan
Ġprin ted
ĠAn im
Ġan aly
Ġelect ronic
Ġaud io
Ġcoff ee
are st
Ġf ier
ĠH and
n i
s ki
Ġgrad uated
Ġdes ert
oc ol
ĠK l
Ġover t
ĠAre a
Ġt enth
ĠC ome
Ġstat ue
ĠTreat y
gh an
Ġfound ation
Ġdel iber
Ġrhy thm
or ph
act ive
ĠPe ace
ĠĠĠĠĠĠĠĠĠĠĠĠĠĠĠĠ ĠĠĠĠĠĠĠĠ
Ġpolic ies
Ġt ort
ut or
ĠO nt
Ġsh oes
Ġrep air
Ġindic ate
ĠC re
ĠBen jamin
ĠS now
Ġpro hib
Ġmeas ured
Ġburn ed
O f
ĠC ategory
i very
it ting
ĠA ud
ĠW ol
Ġjoin ing
Ġreve als
ĠF al
ĠJ en
ull ivan
Ġthe e
Ġj azz
inc ial
Ġrele ases
Ġdem ocr
Ġmin imum
h and
vel t
ĠBr un
Ġsk ull
ĠM oh
ĠH aving
ĠL ook
Ġoccup ation
r im
Ġmy ster
Ġserious ly
ĠH em
Ġpri est
Ġdisplay ed
g ate
ĠSe attle
ĠRec ording
gress ive
Ġt ip
Ġrev ol
Ġdistrict s
ĠDie go
ĠHe alth
Ġun ex
Ġsubstant ial
od ore
Ġun com
Ġdis aster
ur er
Ġal ter
Ġcare ful
o ons
Ġstr ict
Ġr ates
ine a
ĠDe ad
iet ies
Ġro ots
Ġthan ks
Ġ190 8
Ġt urb
ov en
ĠM ess
A h
ĠB anks
Ġstrong er
r ine
Ġut il
P l
ĠU lt
ĠSpe ars
Ġl ob
Ġsome body
ĠTam il
Ġt iss
Ġfr ame
Ġsim ultane
Ġresident ial
ĠC R
Ġy ield
Ġloc omot
ĠCub a
Ġdial ogue
ĠCan al
ĠPen insula
b al
ĠAlbum s
og a
Ġsl ave
Ġposs ess
ĠD al
Ġneut ral
Ġf ung
om ed
Ġcomm emor
t own
iv ated
Ġbene f
oth y
ĠAd v
Ġadv is
uk i
Ġdeploy ed
ĠB av
Ġappro val
Ġ190 5
ell i
T r
2 6
Ġr iding
Ġcommun ication
ĠM es
ĠH ud
ok es
Ġburn ing
Ġentertain ment
ĠD ur
Ġfoot age
Ġorchest ra
ĠLab our
Ġs in
ag h
ĠShe l
ĠR and
id el
um a
Ġhous ing
B y
ĠPal est
Ġman uscript
ĠTr ust
ĠA unt
Ġpart ially
od a
ĠE P
Ġco oper
Ġsub t
ĠRo ose
ant ed
Ġexpl an
is p
Ġd im
Ġl ieutenant
Ġc ateg
Ġinter pre
Ġ190 9
w ill
Ġth rown
ag ger
form ation
Ġunder w
Ġthere after
Ġclos ing
ĠMic ro
ĠLenn on
ĠO ur
ĠPers ian
Ġencounter ed
ig e
in ations
ult an
Ġeas ier
ar o
ĠP ic
ang le
ĠC old
Ġconc rete
Ġliqu id
ĠM uch
ir m
iv ia
Ġconvers ation
ĠWalk er
em en
Ġcal m
Ġd aughters
Ġdo ors
ĠCamp bell
h r
ver e
Ġto ll
Ġsh adow
ĠC yr
Ġcom ments
ĠD ak
Ġpr int
Ġspec imens
ĠK arl
c ient
ues e
ĠEr n
Ġcon ce
Ġor b
ĠK it
ĠB an
ĠFeder ation
Ġcreat ive
Ġsuit able
Ġappoint ment
l ow
ĠAri zona
ĠNiel sen
ĠR AF
ĠF riend
Ġthough ts
ĠP A
Ġexpl o
Ġb ab
st an
Ġtrib ute
Ġn urs
Ġround s
ĠTown ship
ĠMos cow
ctic ut
ĠR en
ĠL ion
ĠMont real
ĠWind ows
ĠC her
ap a
Ġstorm s
Ġd eter
Ġreported ly
Ġm and
Ġprin cess
ĠSomers et
Ġmain tenance
ĠRoose velt
ors hip
so ft
Ġconst ruct
Ġshell s
ĠB enn
Ġsur gery
n ings
Ġre ward
S e
Ġche er
Ġel abor
Ġb one
Ġm ate
ĠB h
Ġcl othing
ĠHot el
ĠYan ke
Ġcan al
ĠOnt ario
Ġser ial
Ã¼ r
Ġap artment
am an
Ġele ph
Ġ Ä
Ġres olution
Ġrecord ings
Ġcut ting
Ġl ists
id ency
ĠV inc
Ġcontro ll
Ġcandid ates
Ġsh ield
Th ank
Ġfair ly
Ġvo iced
ĠN ash
L A
ph ony
Ġinn oc
H er
Ġd uck
Ġ0 6
AP TER
Ġsuc ceed
Ġcor por
th ank
7 0
ĠM aur
Ġpo ems
Ġrank ing
Ġappl ication
ĠSus an
Ġ190 7
Ġrecogn ised
Ġref lected
Ġdram atic
Ġwel come
Ġpartn ership
ĠL ad
Ġse ed
ĠConne cticut
E FA
n amese
h or
Ġoppon ent
Ġille gal
c ular
Ġres umed
c our
ir ts
Ġbusiness es
Ġcreat or
m i
or al
ĠD ance
ĠF ried
Ġoff ering
Ġdoc uments
Ġs unk
Y our
er g
Ġd ying
im p
Ġamount s
ber ry
ĠK now
Ġst ones
Ġcare fully
Ġdisp ute
Ġr ib
Ġab d
ĠBl ood
Ġstri king
Ġcoll apse
Ġf ingers
Ġcar go
Ġmin es
Ġmer ged
Ġdepend ing
Ġ0 9
Ġbeh alf
Ġsoft ware
Ġpit ched
ĠFr iday
r ations
Ġf ighters
el and
ĠA R
Ġl ips
Ġpl atinum
Ġl ots
ĠG rey
ĠN ik
Ġb ases
ĠL at
Ġconc ur
or er
ar th
Ġfin als
ĠL ith
Ġfact ory
ĠRA AF
is d
m aster
Ġfor cing
ĠH ann
Ġpro g
anc ell
ĠGi ants
ac les
ĠP as
Ġatt itude
Ġfl ows
Ġconv oy
b u
Ġadv oc
A mer
an ium
Ġnegot iations
ĠBudd h
i ary
ĠN ar
Ġal leg
ĠDen mark
ad i
Ġs av
ĠU l
Ġcond em
Ġinse cts
Ġo ption
at ched
Ġinst ru
Ġprep are
ĠI ce
ate ur
ĠAdm inist
ĠE xt
mun ition
ul ating
ĠViet namese
Ġmult i
ĠTer rit
Ġagric ultural
od ox
Ġdist ant
Ġhel ps
Ġpublic ly
Ġw reck
Ġhel icop
Ġinter cept
Ġmain stream
Ġarri ve
Ġbattles hip
Ġtele phone
Ġelimin ated
Ġp ace
omet hing
n et
ĠPlay er
for ced
cul es
Ġlov ely
Ġdest ro
ĠB ible
C C
Ġt ale
Ġc ock
Ġcritic ised
Ġexplos ion
Ġdistingu ished
2 8
ĠBar ry
m o
Ġcru isers
Ġadop t
Ġth under
op ed
ĠInit ially
ĠM ack
ĠPortug uese
Ġwor ry
Ġinv ent
Ġdisappe ared
Ġart istic
Ġhyd ro
Ġphen omen
ĠC ow
ĠC ob
Ġst uck
Ġhon est
Ġmultip l
ir ates
ĠUS D
Ġcre am
b ishop
Ġn ut
um ble
Ġbre ast
Ġcelebr ated
Ġupgr aded
Ġf ate
ĠU EFA
Ġce ased
Ġpro of
Ġdisc ip
Ġins isted
Ġsched ule
Ġsuspend ed
Ġres idence
Ġs ung
ĠDr agon
ĠSe ven
Ġelect ron
Ġpract ical
Ġco ordin
ĠTe le
ou ch
ĠA y
Ġfl ights
l ad
Ġno body
ĠP in
Ġsy nd
Ġbig ger
Ġdoll ar
ĠS id
Ġg ift
Ġgu ide
ĠWar ren
Ġinstit utions
Ġreview ers
Ġ0 8
ĠDon ald
st orm
Ġover s
Ġinn ov
Ġperfect ly
Ġar riving
Ġbit ter
Ġl ock
Ġjud g
Ġh ull
Ġdo zen
3 5
ĠE vent
Ġord inary
b es
Ġregister ed
ĠT el
anc he
Ġinstrument al
uc es
ĠSy m
Å «
Ġle an
ĠRepresent atives
ĠIntern et
R ight
a very
Ġam munition
ĠBl ues
Ġw al
2 9
it als
ĠR achel
Ġsk i
T A
ch ild
ĠN ov
Ġgen etic
Ġadj acent
ĠW es
Ġsecret ary
ind ing
ĠAf ghan
Ġ188 0
Ġh ast
for mer
Ġfin ale
Ġsur ge
k m
s pe
Ġ190 6
Ġprofess ion
Ġtong ue
ĠSte vens
Ġlay er
Ġpow ered
ro v
ĠSte ven
ĠMount ains
ĠTh ose
Ġprompt ed
B ec
ol en
Ġ187 0
ust ration
O C
or f
et on
Ġfriends hip
Ġas ide
ĠCh ron
ĠR ights
Ġte x
ĠA the
Ġare n
Ġover w
Ġtr ick
ens ions
Ġsit uated
Ġcons ervative
ask ed
ĠPort land
ph a
ass ador
Ġexerc ise
ĠC ost
Ġrad ar
u ations
ĠN ear
Ġcolon ies
rupt ion
ig s
ĠG raham
ĠGr ay
ĠPict ures
u j
Ġt iny
ab ad
Ġsw itch
Ġprison er
Ġinstit ution
Ġab und
W ill
ĠP ed
ĠOl iver
Ġprepar ation
Ġknow ing
z o
Ġby pass
ĠPh oen
ĠR ing
Ġguitar ist
Ġess ential
n or
ĠCh ile
Ġwe b
Ġrel uct
Ġall iance
Ġcirc uit
as hes
Ġhabit at
ĠGuard ian
u ary
Ġpercent age
Ġc ards
Ġr anks
t wo
Ġc oun
Ġbomb ers
ĠJ oy
Ġev olved
Ġlif ted
ĠBu ilding
Ġshe ar
Ġover l
Ġsever ely
Ġsent ence
ĠMit chell
Ġr it
Ġcred its
ip h
Ġart ific
ĠFl ight
p at
Ġse nding
Ġvict ories
Ġt ag
Ġ10 5
ĠLes lie
Ġpattern s
Ġm ud
ter day
ĠE c
Ġwe aken
u y
Ġab ilities
ĠL iz
Ġany body
im m
Ġag ency
f r
Ġim perial
Ġdefe ating
ĠArgent ina
ĠR ub
Ġass isted
Ġun h
ĠB eng
Ġsub d
Ġsm art
ĠSh aw
ract ion
ĠAtl anta
ĠTre k
Ġf iled
Ġdec ides
Ġaim ed
Ġbrill iant
ĠSm all
4 5
ĠCh and
Ġsc ar
ot ions
est one
Ġsomew here
inent al
Ġb id
Ġbound ary
Ġdens ity
Ġg odd
Ġmeet ings
Ġtur rets
ĠConfeder ate
Ġc yl
ĠN on
Ġsign ing
r in
Ġcl in
Ġimp ression
Ġpil ots
Ġ( ;
Ġsh irt
ĠK urt
Ġconf idence
Ġbehavi our
Ġre aches
ĠFin land
T S
Ġvis iting
ĠM ond
ig hed
Bec ause
ip er
Ã© n
Ã© s
el ia
Ġeng agement
Ġcontrol s
Ġbe aring
Ġhand le
Ġw ake
Ġprot agonist
Ġgrand father
Ġg ap
Ġex ha
ĠT ag
ax y
ĠAp p
ĠPit ts
ĠA ld
Ġv oy
Ġgentle man
ch i
Ġsub mitted
f ly
Ġbl ank
ĠAustral ians
ĠArn old
Ġre pr
ur se
ĠH ugh
Ġprote in
Ġ190 4
ĠJ osh
Ġd a
Ġst ress
ĠL ang
tal ions
ĠV II
art ed
b led
Ġas leep
l ock
Ġa in
Ġemp ire
crib ed
yl er
, '
Ġmist ake
im eter
ous es
ĠFI FA
Ġm ood
ĠAl i
ĠHer o
ĠV is
Ġcop per
do es
ke eper
ĠJu an
Ġsurviv ors
ĠN a
Ġrec ip
Ġwid er
Ġkn ocked
ĠF em
Ġsil ly
Ġh ate
ĠX X
ĠTom my
Ġmob ile
ar ation
ĠA BC
ĠC ra
Ġle af
ĠHar v
Ġdestroy ers
ĠLuc as
ch a
Ġmin imal
ĠAb d
t es
onym ous
n ik
ion e
Ġelectric ity
oc c
Ġinit i
Ġacc eler
Ġrebu ilt
ol id
Ġrec o
Ġup set
Ġsc attered
Ġt ack
Ġdiscuss ion
Ġthe ater
Ġrepl acing
Ġ36 0
Ġn erv
Ġback ing
Ġplan ets
Cl ub
ĠBroad way
ĠIndust ry
Ġforg otten
ur i
Ġwh ilst
Ġphr ase
ons cious
id al
ĠPr uss
ĠB orn
ĠS ony
Ġtre nd
in ces
Ġdefin ition
ĠKir k
Ġman age
Ġ12 5
ĠB eth
ĠIndepend ent
y our
st airs
Ġw o
ĠM aine
ĠB ach
ĠÃ Ĩ
Ġsol ar
ĠPet ers
ut ter
ĠChristian ity
Ġpoor ly
Ġexhib ition
G et
O W
m ad
Ġdeb t
n al
Ġapproach ing
G r
h um
Ġdec isions
ĠJust in
Ġcanc elled
l ings
ĠI N
ap olis
Ġj unction
Ġwe igh
ons in
ĠSw iss
Ġp or
ĠS om
ĠM ik
Ġex it
Ġaud iences
g ie
Ġhung ry
ming ham
ĠHe y
Ġer upt
ĠV ik
Ġm ac
e u
ĠR y
gr ad
ĠPer ry
ĠInter state
ĠT ol
ĠP a
ĠR al
Ġse ctor
Ġc ub
Ġper ceived
Ġres ol
Ġch ampions
Ġun w
ĠDel aware
as p
Ġpros pect
ĠMay or
ĠDig ital
ĠF err
ment ed
Ġsus pect
ĠTur key
Ġtempor arily
Ġsh ock
Ġfast est
Ġattend ance
Ġsatell ite
ug s
ĠRec ord
ash i
Ġexpl ains
Ġhousehold s
Ġcompar ison
Ġb ond
ĠS ullivan
ist a
ark s
ic ing
Ġdirect ors
Ġthin ks
Ġc od
Ġpred ict
Ġb ishop
ri k
ect ed
ĠSp ir
ĠPro gram
Ġsk ill
h ol
Ġm ail
Ġtal ks
Ġmain land
ĠCl ar
c ott
Ġpo le
isc onsin
Ġrec re
Ġorgan isation
Ġsw ing
if fer
ĠAl aska
p oint
Ġg host
Ġprov inces
Ġob st
Ġdr unk
Ġexec ution
Ġwood s
Ġtarget s
Ġbul k
w ere
ĠAb b
ĠC arr
iss ions
or ge
f ound
ĠA irl
Ġbr ick
Ġdesign ation
Ġrul ing
Ġ Ð
am as
Ġlist ening
Ġ190 1
ĠD w
Ġst ead
Ġcollabor ation
F rom
S A
ĠM L
ĠS i
Ġ0 5
Ġ190 3
Ġf isher
ĠBase ball
ac re
Ġvir us
or ia
Ġra ising
Ġfavor able
ĠA thlet
ĠO d
le ase
ĠM and
Ġpat ients
ĠB aby
Ġcomp ounds
as ia
Ġst om
Ġst orage
Ġeat en
ĠN AS
et he
Ġle m
ok er
ĠAn y
Ġdem ands
Ġprof it
Ġmar ch
Ġdomin ant
ĠBel gian
ĠD anny
ĠGirl s
Ġpan el
Ġpleas ant
all as
Ġhol iday
m und
Ġd rown
Ġfor b
Ġsh orter
Ġeduc ational
Ġl unch
Ġex clud
Ġgot ta
ĠMon te
ĠF if
ill es
Ġfe eding
Ġval uable
Ġdyn am
U h
Ġbe ating
Ġmin ing
Ġhe m
Ġarm ies
Ġl es
Ġcon sole
Ġread ers
ĠW isconsin
Ġ190 2
Ġpers pective
ĠBus iness
Ġrep airs
Ġto x
est yle
ou ver
ĠS em
ĠEd wards
ĠAm b
Ġtal ent
Ġwrest ling
is ons
Ġp unk
Ġdisc ont
Ġrequ ires
Ġl ung
ĠBob by
ĠOb ama
Ã «
Ġd imens
Ġpre v
ĠCom b
Ġbat ter
Ġpat ron
ĠPer form
iff s
Ġcontrib utions
ĠN ixon
Ġsp lend
Ġf antasy
Ġin land
Ġdark ness
ĠWil helm
Ġwa ited
ĠHamp shire
Ġf asc
ĠInd ies
ĠT on
Ġdeep ly
ĠMur phy
p a
Ġj ury
Ġm igr
Ġass ists
ro lled
Ġaff ord
ĠAb bey
ĠHistor ic
Ġper mitted
yl an
im en
Ġpract ices
Ġintens ified
ĠB aker
Ġass ess
Ġcomp ilation
s ome
ĠFore ign
ĠProt est
i oc
z es
un ny
ĠL ib
ĠBir mingham
l ain
Ġstrugg led
Ġ16 5
Ġspot ted
Ġtransl ated
ĠP il
Ġkn ee
Ġcap s
ĠCon struction
on ian
ang el
le te
Ġfew er
Ġver tical
Ġsl avery
Ġlack ed
Ġret ail
Ġgu ar
Ġopport un
Ġt ube
Ġc ir
Ġcompan ion
ĠIn n
ĠB oe
ĠU nt
Ġtr uly
ĠPro te
Ġearthqu ake
Ġl ion
ĠB es
ĠD est
Ġcoin c
Ġbom bs
t ar
Ġcon text
Ġdev ices
all ing
ab et
Ġyour s
C om
L C
Ġj ew
Ġcat tle
Ġappropri ate
az ines
Ġperson ally
ĠHer itage
d s
Ġst ops
ĠSt at
Ġear ning
Ġen cl
Ġexper t
Ġcivil ian
ĠUnivers al
Ġt icket
ĠH old
ov es
as a
Ġcr ack
ard on
f eld
Ġsleep ing
ĠGri ff
L E
Ġfound ing
ĠJon athan
Ġathlet es
Ġb orrow
Ġv ic
Ġfour teen
Ġown ership
Ġcontin u
Ġsurre nd
ĠHon or
Ġth orough
ĠBoy s
ĠEd ge
Ġal ignment
Ġwar ri
Ġlik es
Ġbe gg
Ġdri ft
ĠHud son
Ġus ers
Ġpred omin
Ġsuggest ing
Ġm ouse
Ġlim its
Ġbow l
Ġd warf
ĠS ay
Ġn it
ĠW ag
ĠJ ess
Ġdream s
Ġhyd rogen
th an
he ld
Ġc iting
ĠN ature
Ġsac rif
u art
Ġall ies
Ġvict im
Ġang le
in als
Ġto oth
ĠC hel
Ġ0 7
Ġcharacter ized
ĠHar vey
ĠFin ally
Ġpro ceeded
Ġdri vers
ĠCrit ics
u ating
Ġfair y
ĠWay ne
ĠNapole on
Ġvul ner
Ġte nder
Ġcomfort able
igen ous
Ġthir teen
up iter
f olk
Ġdes per
Ġrul er
ĠP erson
ep s
Ġgu ests
Ġtrib e
Ġland scape
Ġsequ ences
. ]
Ġincre ases
Ġdis l
it is
ĠF at
Ġstud ying
Ġsett lers
Ġconcent ration
ĠG ene
ĠSt ill
ĠP ars
-- "
Ġbe ars
ĠO ri
av or
on ne
at is
y ear
Ġf ulf
ĠCh ampions
ĠY e
Ġmon ster
Ġdistinct ive
ĠP ow
Ġtrav els
ĠD yn
anc ouver
gr aph
Ġaut umn
fort un
id en
ĠG oth
Ġpre tend
E arly
Ë Ī
Ġc ant
Ġd ict
Ġcomple ting
Ġtour ing
Ġcle ared
ĠUp per
Ġh iding
ĠL as
Ġex ceed
Ġelect rical
v et
F r
Ġre vers
Ġrest oration
e an
3 7
ĠGu ide
Ġfoss il
Ġgodd ess
Ã ¥
le ction
Ġsong writer
Ġexc av
Ġchap el
Ġrestrict ed
vent h
Ġfr ig
ĠR ico
Ġch ronic
ĠEm my
Ġrid ers
Ġsubs pecies
Ġlegisl ature
Ġwealth y
u ctions
ĠBe aut
Ġl on
ut o
ĠL en
Ġoper ational
Ġthro at
Ġ0 1
Ġbelie ving
ĠS oul
Ġgovern ments
Ġl ift
Ġcover age
Ġaut ob
asc ar
d oor
Ġany where
Ġlo op
Ġrepeated ly
ap ing
up id
Ġqual ified
ĠLl oyd
Ġsh ook
Ġsh ift
sequ ently
ĠA qu
Ġsix teen
Ġrang ing
ĠR at
ĠK am
Ġtr unk
ĠT odd
ĠM ans
Ġr ings
ĠDep ression
if ies
ĠIs a
ib ilities
Ġident ify
Ġag es
ĠSp art
it udes
Ġtri umph
ĠWor ks
Ġstrong est
ay an
Ġfe ared
Ġcour age
Ġequ ally
Ġpred icted
ĠS ig
Ġprincip le
Ġliber al
ĠB ron
Ġinst ant
Ġmilit ia
Ġto mb
ow ing
art ney
ĠV ancouver
Ġatt ained
ro ph
ĠCon vention
Ġhead ing
ĠA S
and o
Ġarm our
Ġe ager
Ġcr imes
Ġconsid ering
Ġprincip les
Ġb arr
u f
Ġret ain
Ġcrew s
ĠPri x
3 8
ĠC atherine
ab e
ĠCh ampion
Ġrad iation
Ġlo ose
b ach
Ġrep ubl
Ġdemonstr ated
it ure
str ong
ĠPhoen ix
Ġg ust
Ġship ping
Ġexc ited
Ġcompl iment
ĠD ylan
d es
Ġp ier
Ġste ep
Ġarg ues
ĠKe ith
ĠF arm
The se
Ġrem ind
ann on
CH APTER
ĠS oph
Ġsp ell
az ed
Ġcre st
3 6
3 9
os y
Ġmus h
Ġdel ivery
Ġprop ag
Ġpurs ue
ĠA M
ĠH ad
Ġel d
un ning
Ġmer c
c ut
Î ±
â Ļª
ĠMc M
ĠG ary
Ġex ists
Ġtri ple
Ã¶ n
Ġtax es
osa urs
ear ing
ĠCommun ist
Ġremn ants
Ġal tered
Ġany way
Ġhe aven
sh ould
Ġtou ched
l aw
st ar
ĠY orks
Ġcann on
Ġstrengthe ned
O L
Ġf art
oll o
Ġcloud s
T HE
Ġacc um
Ġsubs id
Ġun e
Ġem otion
ract ed
Ġmag azines
Ġcon ven
Ġacc ord
Ġass embly
Ġbow ling
Ġsuppl ied
Ġab road
ĠEd in
Ġpredecess or
Ġto ols
ĠL ess
ip ed
Ġsp aces
P er
Ġ16 4
Ġdesc ent
Ġcomp ens
ĠC ass
Ġback ed
ĠAll ies
Ġhost s
ort ed
ick ing
Ġfeather s
Ġorigin ated
ĠNe xt
£ o
Ġbomb ing
ĠPot ter
Ġw icket
Ġl y
Ġ11 5
Ġquarter back
ĠEvent ually
ĠRal ph
ĠR idge
Ġm ere
ĠJ upiter
Ġwest ward
ĠBern ard
Ġcan cel
Ġob sc
Ġcab inet
ĠYorks hire
um my
Ġlab our
r ison
Ġhe ir
Ġr ice
ĠGl en
Ġs tern
ĠT ob
ri fic
elt a
Ġtransl ation
ĠSc out
Don ald
ĠHal o
Ġunex pected
Ġmechan ical
Ġhang ing
Ġplayoff s
Ġcamp s
it ively
Ġre venue
ill o
Ġv ig
ĠK on
Ġcomp ound
Ġdis order
u its
u in
Ġthe ore
Ġex ternal
les h
ĠA T
enc er
M m
Ġvis its
Ġorgan ised
Ġcons pir
Ġmon aster
Ġvol umes
ĠAirl ines
ĠH ur
ĠL ist
Ġrad ical
ĠMicro soft
ren cy
Ġcrop s
Ġfe e
Ġnorth ward
ĠLiber al
ĠOrigin ally
A b
Ġ16 8
Ġbas in
ĠC urt
m om
iet h
ĠGr ace
Ġhor izon
Ġsimultane ously
ĠC ov
ist le
g om
Ġcast ing
Ġelev ation
Ġartific ial
Ġpubl ishing
Ġf ox
Ġquestion ed
ĠC H
Ġcreat ures
ĠIslam ic
v ant
ĠBr ig
Ġdis char
Ġcry ing
, --
Ġport ions
ĠBrother s
ĠM ong
ĠJ ama
Ġcar riers
Ġthrow ing
ĠIndones ia
Ġere cted
A d
and om
Ġclos est
Ġarm ored
Ġdev oted
Ġarrang ements
Ġin g
ĠRail road
el ing
ĠW oman
Ġgl ac
T W
ro oms
ĠB i
ĠMet ropolitan
ir y
Ġ0 4
Ġport s
Ġoverse as
Ġh oles
ĠR io
ple te
ĠR angers
old s
Ġchar ity
ĠEdin burgh
Ġpr ices
t i
as ks
Ġbe am
ĠM anu
ann er
Ġmet er
Ġf o
ĠLe x
Ġdis agre
ĠQue bec
ĠNe g
Ġflag ship
Ġschol ar
Ġtom orrow
ĠW alt
Ġhit ting
Ġobject ive
w ant
ut ers
ĠIsrael i
ĠN ad
Ġimm igr
c ell
Ġl uck
sh ore
Ġtrad ing
Ġaltern ate
ĠHawai i
he ars
Ġd awn
Ġsuff er
Ġhop ing
Ġjur isd
N ew
Ġc ash
ĠF il
Ġag greg
Ġeng age
Ġweek ly
Ġab use
oc a
Ġrel atives
Ġl over
u ber
ĠB ox
Ġident ical
ĠS et
Ġhum or
ĠK ate
Ġrebell ion
Ġproper ly
c ru
ĠS hip
ĠG a
Ġfl our
Ġtrad ed
Ġnerv ous
at ical
ĠD iam
Ġpart ial
ĠMad ag
Ġf ond
Ġtr act
hy l
Ġbar rel
ĠCra ig
r aine
ĠD id
ĠD aw
ach ing
Ġexper iments
sc ar
ÃŃ a
Ġman eu
ĠChrist ians
Ġt ested
Ġprogram ming
9 0
Ġfund ament
ĠCamer on
ern ess
ĠMed ical
ĠN i
Ġpl acing
ĠShe p
Ġpen et
Ġbeat en
ĠD S
Ġne p
Ġmill imet
Ġprov ision
ĠAnton io
Ġg if
Ġsur pass
ĠUn cle
Ġadd ressed
Ġcharacter istic
ĠMag n
th rough
ĠComm unity
ĠT it
ĠL ost
ia h
Ġsimilar ly
Ġannounce ment
ĠT H
Ġacknowled ged
ĠMar vel
aly mp
ĠDef ence
Ġst olen
Ġsp o
Ġmark ets
Ġw rap
Ġhop es
ĠVill age
Ġb ore
ĠD ale
olog ies
ad ers
Ġj oke
Ġmem or
ĠPlay ers
re hens
Ġn avy
Ġg ender
ĠB ath
Ġcle ver
ĠPear l
Ġ189 6
Ġhyp othes
ici ency
Ġb anned
ĠG ra
Ġro de
ĠCan ter
Ġconf ron
Ġnat urally
Ġcollaps ed
Amer ican
ĠN ine
ung le
ik o
Ġ186 0
Ã© t
Ġphys ics
ĠArk ansas
ĠD anish
Ġc razy
Ġb old
Ġh ind
Ġshould ers
ĠCh air
ult y
ect s
ĠB omb
h aw
ĠD isc
Ġmarket ing
ĠTurn er
ĠP ink
ĠG ot
Ġse as
Ġabsol utely
Ġconf usion
Ġdefend ing
Ġremov al
ĠHarv ard
ĠAnd re
ĠIv an
ĠNich olas
r ast
Ġconcer ning
ĠPitts burgh
s l
ĠJ un
Ġsup ple
Ġvar ied
Ġmin i
P ro
g on
ĠP rom
Ġcr uc
ĠJeff erson
it ate
ĠPar alymp
Ġf ed
her s
cast le
Ġbot tle
Ġf est
ĠPortug al
Ġr ushed
ĠG ate
ĠPol it
P e
Ġp airs
Ġto ys
Ġstep ped
Ġby e
Ġenl isted
ĠMalays ia
ien na
Ġju ice
ĠQueens land
m ont
ĠT ake
am ount
Ġst roke
Ġcar ries
3 4
A M
Ġag gressive
Ġfrequ ency
th odox
ĠOr ange
Ġaud ition
Ġarm ament
Ġexpos ure
re ated
it ched
aj a
Ġleg it
Ġfle e
ĠM ust
ĠN eb
ĠY ears
ab out
k h
ĠE mer
Ġrel ation
Ġdec ay
ĠCent ury
ĠOff icer
Ġobserv ations
D S
ĠD in
Ġinterpret ation
Ġoverw hel
Ġswe pt
ĠDemocr ats
Ġconstit u
Ġforg ot
ens on
ol ition
ĠG h
ag s
se ud
ĠY et
Ġ15 5
ĠJo an
io let
Ġcor ps
writ ing
ĠY am
arl ing
Ġtravel ing
Ġf ires
ĠR ud
Ġprov incial
ov iÄĩ
Ġindic ates
Ġbr ig
Ġcolle agues
ĠMadag ascar
Ġg re
Ġan ger
ĠS ultan
Ġsc en
Ġpark s
Ġerr or
Ġt a
Ġsa iling
ens ed
Ġemploy ment
L ist
Ġm ild
ĠH az
ĠR ih
ĠK an
ĠSec urity
Ã ª
ĠCh uck
ĠTr acy
end ar
Ġadvert ising
ĠK ap
ov ak
port ed
|| ||
Ġrepresent atives
Ġattend ing
Ġout put
Ġspec imen
Ġ10 9
Ġbi ographer
ĠColl ins
ĠB our
Ġem br
Ġbat talions
Ġ189 3
Ġl anes
cl ass
Ġty phoon
Ġdem olished
Ġquar ters
ĠCanter bury
Ġthe rap
ĠE nt
Ġcol ored
amb ers
ĠReg ion
Ġcart oon
ell ation
Ġres olved
ĠFl ore
aff e
Ġtheat rical
ĠBos n
Ġphotograph s
ĠDak ota
Ġan ime
ge ant
Ġsuccess ion
ows ki
Ġrang es
Ġf ame
se ason
port ing
Ġrec onna
p ine
Ġat e
ĠY ellow
Ġdisco vers
Ġatt orney
Ġlad ies
ĠD ub
ens ively
Ġmembers hip
Ġaer ial
h ill
ĠC elt
Ġdr agon
Ġto ler
Ġso vere
ĠCat hedral
Ġadv ised
Ġmurd ered
Ġassemb led
ad ier
Ġst im
ĠF C
Ġsatis fact
ĠRih anna
Ġt ent
Ġreg ime
ĠW ii
Ġball s
Ġdu o
ĠC hes
op les
look ing
at ers
ĠT ak
Ġre ver
Ġman if
Ġkn ock
Ġvot ing
ĠTai wan
ĠV e
Ġext inct
Ġgirl friend
Ġchalleng ed
ĠF ern
ĠMor rison
Ġpe aking
ĠLe gend
Ġh unt
Ġcomp rom
Ġac oust
Ġapp le
Ġconcent rated
ĠP ad
uc he
Ġprof ile
Ġconnect ing
Ġgard ens
A m
Ġp ip
Ġam ateur
Ġed ited
ĠCy cl
Ġtub es
Ġt el
ĠC ad
ĠE conom
Ġfollow ers
Ġconst antly
itar ian
Ġimprove ments
Ġreconna issance
Ġre verse
Ġv s
Ġbr ings
ĠEx ec
w er
Ġint r
Ġbur ial
ĠWrit ing
ĠYanke es
ĠT a
ĠH ob
ĠR ena
Ġmon itor
ĠOr chest
w right
Ġc am
Ġen orm
ham mad
Ġadm in
Ġ189 9
Ġunivers al
Ġs ample
ĠNe v
usal em
Ġcontin uous
Ġa rose
Ġ189 8
ĠAdminist ration
iz z
ĠBet ty
ĠR ace
Ġren ov
Ġeduc ated
ĠFurther more
ĠA x
ĠL em
Ġcon gress
ond e
Ġpol ar
less ly
ĠBav aria
S aint
ĠSy ria
Ġfort ress
Ġhar bour
ĠRet urn
Ġposs essed
Ġbreak s
Ġstrateg ic
Ġc ad
Ġsus pected
M e
Ġwh ale
ĠCl ay
Ġconvers ion
ĠNat ural
ue z
Ġtrad itions
Ġm os
ĠP hys
ĠE ug
Ġhigh ways
Ġreve al
Ġw itch
Ġmar ine
Ġindic ating
Ġlaugh ing
ac o
Ġsh ares
Ġprepar ing
Ġash ore
v i
ĠI l
ĠB ak
p ression
ch ief
ĠC row
Ġexplan ation
Ġat omic
Ġorigin s
ĠTro phy
S c
b us
ĠH as
Ġgrow s
19 8
ĠDar win
ĠUt ah
ĠM alt
Ġpl ates
ĠGe off
ĠAng l
Ġpur ple
ĠOrigin al
Ġb ite
Ġwor ried
ĠGu inea
Ġut ter
Ġc ave
ĠC BS
ĠRes erve
on ica
Ġemphas is
Ġconstitution al
Ġbon us
Ġthe ories
ĠD allas
Ġex ter
ig a
Ġcl ar
ĠTh r
Ġaff ili
Ġnomin ations
Ġstom ach
M I
Ġtre m
Ġkid n
Ġexclus ive
Ġc able
ĠL t
ĠL uke
Ġcent ers
Ġinvest ment
ĠT an
Ġch ase
Ġabs ent
Ġmyth ology
Ġtex ts
s a
Ġdeal ing
Ġproport ion
ĠP ap
av an
ĠYou T
ĠLeon ard
Ġnep hew
Ġkeep s
L a
Ġg ene
Ġinv ented
Ġbe ats
Ġ3 50
Ġprot ests
ĠEnter prise
ĠHel en
Ġp ap
Ġstation ed
Ġinvestig ate
ĠWall ace
Ġsurrend ered
Ġa unt
ĠY eah
le ans
Ġon going
all s
ĠDe c
Ġtrav elling
ĠMcC artney
Ġs q
Ġimprove ment
ĠDri ve
C A
u ctor
ĠA P
ĠRe agan
Ġcompet ing
Ġmyster ious
Ġenthus i
u rop
ic he
ĠB ald
Ġplatform s
Ġopportun ities
p in
Ġdef ences
ĠSh ah
Ġeff icient
Ġac claim
Ġsouth western
ĠF iles
Ġconf used
Ġven ue
ĠVinc ent
um s
est on
Ġpun ishment
Ġalt itude
Ġche ese
ĠOut standing
ĠSpir it
ĠL ock
ĠE ve
Ġcour ses
Ġfort une
ĠBenn ett
ĠL ower
Ġestablish ing
ĠT ed
ose xual
Ġbl ues
Ġshel ter
Ġfavour ite
w ait
ĠS ak
Ġst ir
ĠK y
Ġmat ure
Ġdeter ior
Ġs ings
Ġunivers ities
Ġpregn ant
Ġconvent ional
ig ers
Ġquiet ly
Ġart work
ash a
Ġb orders
ĠM ove
Ġch icken
Ġsent enced
ĠFle ming
ĠNob el
ĠS out
ĠP am
ild a
ÃŃ n
Ġcompon ents
Ġinit iated
Ġexperiment al
. )
Ġdon ated
Ġpublic ations
ĠBar on
Ġdestro ying
ĠS ometimes
am ma
ĠVictor ian
G e
Ġkn ife
Ġgr ace
Ġtop ped
Ġpar as
ĠJer usalem
ces ter
aut ical
Ġbelong ed
Ġprecip itation
ĠT ogether
ong e
Ġprocess es
Ġflood ed
ĠCharl otte
ĠH alf
Ġwrit ings
Ġke en
Ġaccur ate
Ġ18 50
in ks
Ġev al
Ġann ually
ĠJoh ann
ĠAff airs
7 5
at ural
Ġapp ly
Ġdr ummer
ou b
ĠTy pe
Ġmyst ery
Ġwar ned
Ġkill s
Ġtiss ue
Ġmel ody
ing e
ĠHard y
b ing
Ġd irty
ew ise
cc a
Ġshall ow
Ġun con
6 6
R O
Ġt une
ĠC os
um ps
Ġres erv
ĠM unicip
Ġsign ature
Ġcampaign s
ĠCr icket
Ġair line
Ġgrad uate
ĠJud ge
Q u
ĠTh under
Ġmed als
Ġcontrib ution
Ġcompon ent
Ġc ens
Ġn urse
ĠC raw
Ġevac uated
ond iss
Ġop ens
ĠMu hammad
ancell or
an im
Ġton ight
m ath
ĠS weet
Ġyes terday
Ġc ake
Ġfail ing
Ġinf ection
Ġstret ch
Ġs ake
Ġpay ing
S ee
Ġred ucing
osp el
n ell
Ġster e
Ġw ise
ct ors
ĠO wen
Ġprodu ctions
Ġred e
Ġsatisf ied
gom ery
Ġs oph
ĠGl obe
Ġjud ges
Ġdissip ated
Ġhapp ening
ĠHar old
Ġminor ity
ĠFall s
Ġt ap
oc ation
ĠPr im
Ġlov es
Ġmamm als
ĠR ic
Ġqu ad
ĠNe il
U S
Ġ10 4
Ġpar ody
ĠWith out
Ġvoy age
Ġk W
Ġhand led
Ġobs ervation
ĠTri ple
ĠP ast
enn ium
ĠOr leans
Ġarri ves
ĠLar ry
ĠJ ar
Ġ17 4
w ind
ĠM ason
Ġsum mit
Ġsh aft
Ġpr ide
ĠSt ars
Ġrequire ments
in ts
Ġpre l
ĠYouT ube
re p
al ia
ĠW onder
ĠF und
ĠCl are
Ġexclus ively
at ropical
Ġ189 7
Ġdisapp ointed
ĠH om
ĠP oly
ĠHe b
Ã °
ab ilities
Ġsc ores
Ġcol ours
Ġpartic les
Ġlight ing
Ġsurv ival
qu est
Ġz ero
ĠBang l
v o
Ġ1 000
Ġbut ton
ĠAg ency
Ġlif etime
Ġphilos opher
3 1
uck er
Ġtransport ation
Ġdraft ed
ĠB ud
Ġmir ror
H ave
Ġorgan isms
Ġval id
ĠG reater
be at
Ġlist ened
Ġchem istry
ars on
E l
Ġd well
iz er
ĠL iving
ag ers
Ġintellect ual
ĠAthe ns
m ith
ĠG y
ĠHar bor
Ġcut s
Ġbacter ia
ĠM ission
oc ity
ord inary
Ġfe ver
ĠAust in
Ġf ra
Ġend ors
Ġrep ly
enes is
ĠC er
Ġse eds
uss ion
Ġconf ront
ĠRob in
Ġconsist ent
in ian
Ġw ound
Ġc ats
ĠF lying
ĠSt uart
Ġus er
ĠV el
ire ct
ĠDe ep
ĠAn cient
Ġsal ary
g or
am ation
ch t
Ġserv ants
Ġmix ture
ĠJ unior
ol ar
cl ock
Ġsam ples
u i
ĠA ctor
oc y
ĠPet e
cel and
Ġraid s
ĠBur ton
qu er
ub s
Ġteacher s
Ġtur ret
min ster
ik ely
Ġrefer ring
Ġextr atropical
s ur
Ġbelief s
od ed
ĠDw ight
ĠIs ab
Ġagric ulture
I nd
iz ard
Ġ189 5
ĠAp ollo
ĠK o
Ġsp ots
Ã £o
ĠFr ances
ĠAm endment
ist ent
ĠV erm
ĠV ienna
Ġpres ents
Ġserv ant
Ġrest ore
Ġtr ough
ub ble
Ġrac ial
m at
Ġtow ers
ĠRog ers
w ow
ĠB arr
Ġball ad
v ar
ĠS ac
ation ally
Ġconf ident
ĠSel ena
en burg
land ers
ĠHug hes
Ġdub bed
ĠUnt il
ĠS T
ĠF isher
Ġex claimed
Ġass um
Ġdev ast
Ġappl ications
Ġhe s
ĠF itz
ust rated
ĠSh ak
Ġport rait
Ġg reet
Ġcon ceived
ĠBoe ing
Ġdoct ors
Ġt ough
Ġd ish
ĠT NA
Ġbl ocked
Ġstr ings
Ġess entially
Ġin cl
Ġg est
ĠG or
Ġrepresent ation
Ġrespect ive
Ġmach ines
j ection
Ġso ap
Ġdis band
gin ning
ĠHe aven
ens is
Ġreact ions
Ġdivor ce
Ġre organ
Ġsent iment
ĠRich mond
Ġrom ance
Ġwithdraw al
ĠPier re
ĠY outh
Ġdes ired
Ġjum ped
Ġadmin ister
t ic
ĠC arm
Ġhe nce
Mr s
h o
Ġcr ashed
ĠNor folk
Ġlearn s
Ġcat al
Ġconscious ness
P A
Ġconne ctions
ĠĠĠĠĠĠĠĠĠĠĠĠĠĠĠĠ ĠĠĠĠĠĠĠĠĠĠĠĠĠĠĠĠ
ĠT erry
ĠK az
Ġam ph
ĠW end
Ġarchitect ural
ĠHun ter
ro e
ri en
ĠCamp aign
ĠM end
ĠP ant
ik i
Ġcompl icated
ĠServ ices
Ġin fer
Ġoff ense
ĠSh in
Ġcommun ist
Ġadvert is
y d
Ġro ot
Ġcons ervation
iel der
p iece
com mun
Ġur ged
Ġaccompany ing
3 3
ĠHow e
ĠOrchest ra
Ġd ense
ĠSt ra
Ġ18 00
Ġred uction
Ġfarm ers
ĠAfghan istan
ar us
Ġl ord
Ġis ot
ĠD ennis
Ġap olog
Ġchar ter
Ġproduc es
ĠNC AA
Ġ186 1
ĠSax on
ers ed
Ġj et
Ã¨ re
Ġp el
ut ton
Ġwar fare
Ġcolumn s
er ts
Ġc otton
Ġd uration
ap le
qu is
Ġthr ust
Ġlegisl ative
en os
Ġre ct
P lease
n ote
Ġmagn itude
Ġpersu aded
ĠChron icle
Ġre hears
ab l
ĠMin t
ĠDav ies
Ġcal cul
ĠG on
Ġhy br
chang ed
Ġreco very
h all
ĠSte el
d am
og s
Ġ urg
pl er
Ġsl ip
Ġinvol ves
D own
Ġen force
ĠA ges
us c
Ġsw ift
e ks
r ous
ĠH av
ard ed
Ġreal ize
Ġsignific ance
Ġtou red
Ġunderw ent
is ive
Ġkill er
Ġver te
Ġdiam ond
ĠI celand
ail ing
Ġten ure
Ġpit cher
Ġshif ted
ĠJos Ã©
at ra
Ġmill ions
Ġwaters hed
Ġbut t
ĠK u
Ġpat ri
Ġf ru
am pton
ect ive
Ġcomm enced
Ġconsid ers
ĠMont gomery
b ie
ĠTra il
Ġuncle ar
ĠC amb
Ġr andom
ĠN ancy
Ġsp an
ĠNew ton
ĠPr incip
ĠSw ift
Ġnickn ame
Ġw and
ĠM ind
Ġcon j
ĠM S
Ġf ab
ĠA er
ĠE ight
Ġel ig
Ġsur ve
ĠB ass
Ġsm iled
ĠS ug
ĠB uck
Ġrev olt
Ġsout heastern
Ġo l
ĠM eth
ur st
ĠP y
Ġman ga
ĠDef ense
Ġcommand ing
Ġportray al
i op
Ġpl enty
Ġmar ched
le m
ĠB ear
Ġbet ray
Ġcru el
k on
in ated
d ing
Ġf lesh
ĠC e
ĠB ert
ubl in
Ġabsor bed
ĠRe ich
un s
Ġprom otional
Ġcompet itive
ĠIndepend ence
Ġd ign
Ġor g
Ġcompl ained
ĠR uth
ĠMay a
Ġman s
E d
e us
u il
ĠS alt
ĠP ok
ĠF BI
Ġimag ine
Ar thur
ad os
ĠK ane
ĠOs lo
Ġbenef its
ĠP riv
Ġv ital
bo ards
ĠWell s
M E
Ġ um
Ġw ishes
Ġsup ern
ĠLeg isl
ĠG ay
Ġrat io
ĠMusl ims
Ġdecor ated
Ġacoust ic
Ġsp are
ĠPl ace
" ).
amp ed
ĠCol in
ĠProtest ant
ig ger
Ġcinem a
hell o
Ġse al
ett a
ĠS ud
ob a
Ġvill ain
ĠO m
ach t
Ġcar riage
Ġdevelop ers
u is
here nt
ĠF act
yr am
urrican es
Ġshe et
ĠMet ro
Ġtransport ed
Ġcab in
iv ation
Ġgu ards
P S
l ist
Ġcon greg
Ġcompet itions
ĠSte f
Ġextend ing
ĠSimilar ly
om i
z h
Ġre venge
Ġele ctor
Ġpolit icians
Ġphot ography
ĠBrad man
ĠSerb ian
Ġben ch
Ġ Ï
Ġsc andal
k ind
Ġc reek
Ġch rom
Ġcomment ary
Ġint end
Ġhapp iness
ur as
Ġst upid
Ġdep uty
ĠTr ade
Ġwithd rawn
os ph
Ġexpl icit
ĠBurn s
ĠÃĨ thel
Ġb arn
Ġnight s
Ġdispl ays
ĠAtt orney
ĠAuthor ity
ĠSym phony
Ġsplend id
Ġf are
add le
Ġstay ing
Ġterr ain
ĠClar ke
Ġreinforce ments
Ġinterpre ted
Ġwas hed
Ġwas h
ab a
Ġ188 9
M usic
er ver
ast ed
Ġrele g
Ġsw all
Ġs ulf
bo at
Ġw ard
Ġh ollow
Ġsuggest ion
Ġfart her
Ġsc ream
Ġimag ery
Ġcateg ories
Ġpurs ued
H S
Ġl ighter
Ġsil k
ĠT ree
Ġpe oples
Ġcommun ications
Ġmess ages
ĠH ope
Ġpred ators
ocol ate
Ġt ickets
Ġsm ell
Ġcor on
esc ope
ĠMar ge
Ġoper ates
Ġfact s
ĠExec utive
p ur
ĠS ide
ĠV ers
ĠAct ress
ĠGall ery
Ġunh appy
Ġb ent
Ġcust omers
ĠBarb ara
b et
Ġbattle cru
Ġcho ir
Ġsac red
ĠCyr us
Ġm a
ĠP ul
Ġreview ed
op y
Ġpurs uit
om on
Ġstat ements
Ġhuman ity
Ġher itage
Ġrem ote
ĠZ one
ĠRoman ia
ĠPict ure
Ġoccas ional
or ne
ĠOver all
Ġpet ition
R I
Ġorgan ic
Ġcost ume
Ġless ons
Ġqual ifying
av id
ff ield
ne ath
it ic
Ġm ant
ĠConstant in
Ġfright ened
ĠI S
Ġconv icted
Ġcivil ians
A ny
Ġnumber ed
Ġhands ome
Ġbound aries
ĠT yler
ri el
Ġtact ics
r ating
et o
ĠF ull
ĠN am
Ġinv aded
Ġred es
c at
Ġd ull
the ir
Ġreg ret
Ġsettle ments
Ġd iverse
ĠD raft
ang a
Ġcat hedral
ĠHoll and
ver ty
ĠD iana
Ġr ushing
Ġch ore
ĠCorn wall
Ġeld est
Ġl ocked
Ġaw ful
ĠArm strong
Ġh osp
ĠT err
ĠA I
Ġlast ing
ĠDes ign
ĠFour th
r h
Ġb orough
Ġf aint
ĠIn v
Ġfilm m
Ġarg uing
ĠS ic
ĠK id
ĠEd die
Ġreb els
Ġrece pt
Ġpo verty
Ġprote ins
Ġcl oth
Ġboy friend
col m
Ġair ing
ĠElect ric
Ġabsol ute
ĠBry an
Ġc ro
ĠOther s
Ã¶ r
Ġreform s
us hes
ĠEx per
Ġ189 4
Ġparticip ation
Ġlabor atory
Ġshark s
Ġresear chers
on ium
ĠD ays
Ġdrop ping
ank a
ĠBl u
er ies
ĠT ang
Ġbe er
Ġrend ered
Ġt ies
al so
ĠL iter
Ġt ension
Ġc ott
ĠM all
Ġpresent ation
Ġur anium
Ġm aps
ĠChel sea
ĠS ara
ĠH ave
Ġab st
ĠV eg
ĠBrook lyn
Ġch a
Ġrece ives
Ġput s
Ġvulner able
th lete
ĠF ace
Ġsix ty
Ġexpl ore
Ġappro aches
C O
Ġdiplom atic
Ġrelie ved
he nt
ĠA ren
ĠP oll
ĠGreat est
Ġsculpt ure
Ġ10 8
Ġscient ist
Ġexam ination
Ġcommand ers
Ġsepar ation
Ġspir its
Ġhur ry
r Ã©
v ation
Ġsc rew
Ġunl ikely
Ġlat est
Ġrif le
Ġprom in
Ġaff ection
Ġsn ake
Ġc ord
Ġ16 9
Ġrev ised
Ġdr ain
ĠAb u
Ġinterview s
Ġinher ited
w oman
l ights
p ike
ĠQu est
ĠT oy
im mer
Ġ189 1
ĠBuff alo
r at
Ġto y
Ġd ad
Ġweak ness
Ġde ce
ol ia
Ġimprison ed
ĠW as
ĠL ov
ĠE th
Ġdire ctions
heim er
Ġstead ily
ĠS ign
Ġro lled
Ġen act
Ġbr ave
ĠSte in
Ġr ush
Ġl akes
Ġe cho
ĠStud io
ĠCons ervative
Ġrevolution ary
Ġd ual
cl iff
Ġany more
ĠJohn ston
ĠBr ight
Ġsupport s
Ġlic ense
ĠM om
Ġfle x
Ġmaintain ing
ĠPerform ance
ig ious
ĠShe ffield
Ġh arsh
ĠSc iences
ĠLoc al
Ġrej oin
ĠM i
ĠWind s
Ġresc ued
op ing
art ing
I ll
j ud
ĠN AT
Ġrid ic
C are
Ġc ere
od ium
Ġch im
Ġhost ile
Ġstret ched
Ġenorm ous
Ġd imin
up er
Ġ12 7
ĠPl ant
may be
Î ½
ĠÃ ī
Ġrival ry
ĠIndones ian
Ġc ig
Ġair field
Ġsound ed
ĠMad rid
Ġ186 5
âĢ ĺ
Ġevery where
Ġeight een
Ġtradition ally
Ġalt ogether
Ġdestroy er
Ġremark able
Ġton nes
oun ce
ĠMil an
ĠMag ic
ĠDep uty
Ġjurisd iction
ell ers
Ġs ne
Ġvar i
Ġox id
rast ructure
Ġexpl aining
Ġeleph ant
d ed
ĠN ova
umb led
Ġ189 2
ĠTerrit ory
Ġbatter ies
ĠB apt
Ġfore cast
Ġestim ates
D uring
ĠTh ames
ĠGr an
Ġwid ow
r age
us k
Ġqu it
Ġins urance
Ġdanc ers
Ġre ass
Ġind igenous
Ġep ic
Ġwar nings
ĠRepubl icans
Ġphot o
Ġrel ocated
ĠRon ald
Ġcur ve
ĠC emetery
ĠV III
ĠKa iser
at on
ĠH D
Ġcon tend
Ġd ivers
ic ism
Ġn autical
Ġfoss ils
Ġinstru ctions
Ġst ored
ĠR ight
Ġste ady
Ġlin ks
Ġjudg ment
Ġman ip
Ġrein forced
ĠErn est
ethe less
n an
it ement
Ġf ant
il ia
Ġconsider ably
en h
ĠR P
Ġconsider ation
ĠMov ie
Ġelabor ate
ell ar
Ġadv ancing
Ġindust ries
ĠSat urn
6 5
g us
in ery
ĠSc ar
st ad
ĠF ro
Ġfin est
Ġsub stitute
Ġdist inction
ĠGu itar
Ġclim bed
Ġp ine
Ġcolle ctions
Ġthreat ening
n els
Ġthe rm
ne x
Ġpr ayer
ĠHer ald
Ġmagn etic
Ġ188 8
Ġres ort
emb r
Ġche ss
Ġdise ases
Ġg ates
ĠL ud
Ġinc red
Ġpra ising
Ġseg ments
Ġmanufact uring
Ġg aining
ac ious
omet ric
Ġdepend ent
Ġfundament al
B ob
v an
at oes
Ġne arest
ĠBar cel
Ġdispl aced
Ġtot ally
er en
ain ted
Ġboil ers
j u
n ut
ĠBrook s
Ġspons ored
Ã ł
Ġbu ff
ĠSc ots
uk a
ĠPer cy
Ġrecogn ize
Ġinnoc ent
Ġn aked
ane ous
Ġen abled
arm a
Ġfore ver
en z
Ġf ol
ĠR est
ĠO scar
lev ard
Ġcul min
ĠD ublin
ah l
ĠTransport ation
ĠCh ad
Ġthere by
g ain
Ġa ft
Ġb ars
Ġto ss
Ġfem in
ed a
ĠS ri
Ġbl ame
ĠDe b
Ġsum mon
Ġinterse cts
Ġgross ing
on ial
ĠP el
Ġam id
ĠSher man
im ony
iss a
Ġactiv ist
Ġrenew ed
at ar
Ġch lor
Ġmor ph
ĠP un
pl ane
6 4
Ġinter rupted
ik ed
ĠBr and
ĠTr aining
Ġcal endar
Ġtorn ado
Ġdiscont in
g ow
es h
ĠB urg
Ġexam ined
Ġcelebr ate
Ġaccident ally
m ill
Ġl ux
ĠE ner
Ġhy per
Ġcirc ular
Ġaccompl ished
ĠP rest
Ġal right
Ġhand ling
Ġcelebr ation
W A
ĠOper a
Ġmechan ism
Ġmo ist
arr ass
Ġpropos als
it ol
Ġtr apped
Ġkilomet ers
ĠJul ian
Ġvar iation
Ġs el
ĠC ode
ke ys
Ġcl ergy
Ġmaid en
Ġanx ious
ud ed
ĠEn v
Ġc oc
ĠSe ga
Ġroll ing
ĠP ut
ĠN othing
ount ain
Ġant ib
Ġchampionship s
Ġchalleng es
Ġwal ks
ĠA ber
Ġinter vention
Ġem otions
gg ie
Ġattract ion
Ġsusp ic
ĠâĢ ¦
ie g
Ġbusiness man
ĠMark et
á º
ig o
Ġbi ological
Ġunc onscious
op l
Ġun t
Ġinh ab
Ġmathem atics
ĠPars ons
ĠM ix
Ġhealth y
ĠClass ic
Ġs inking
Ġg arn
Ġwin ners
Ġsens itive
ĠMond ay
ĠIsa ac
Ġcycl ones
Ġconfir m
ĠAN D
Ġimpress ive
ĠW inn
ĠPat ri
ĠK er
ĠSt re
Ġro pe
Ġinter medi
Ġvel ocity
ĠS af
Ġafter math
Ġrec urring
ĠC and
Ġr amp
Ġsh ar
ĠThere fore
Ġ188 5
ĠMont ana
Ġo ct
edd y
y ers
ĠSt ri
ĠSe an
Ġnever theless
ĠMin or
Ġpres erve
Ġtour s
Ġavo ided
D P
in stein
ĠR an
Ġbl ess
Ġtrib ut
sh ine
ĠSl av
Ġsearch ing
Ġmultipl ayer
iffer ent
Ġpos itively
ĠMal colm
ĠD h
ĠLuc y
ĠSerb ia
ĠC hester
ĠG ir
ĠK yle
ass y
Ġtour ist
Ġvolcan ic
Ð °
Ġsit uations
or ic
Ġp ressed
Ġj ail
3 2
ĠC ec
ĠH ood
Ġpriv ile
Ġwork er
p el
ĠE t
op ard
Ġ24 0
rid or
ap hic
Ġne uro
ne um
ĠAnt ar
Ġfund ed
ĠFre edom
ĠS P
ĠCom edy
Ġopt ions
or igin
reg ular
Ġstruct ural
Ġshop ping
Ġconsequ ence
Ġvolunte ers
Ġr ains
ie ve
ĠTechn ology
th ose
Ġbelong s
T ake
l ar
Ġcons olid
Ġbr ide
ĠBr anch
Ġengine ers
ĠMcK in
m usic
Ġf ile
Ġstre ak
ac er
ĠL ie
T H
ĠE ld
ik h
Ġour selves
ĠVeg as
Ġl un
Ġmid night
Ġstri kes
Ġdisapp oint
ĠBarcel ona
c ould
Ġprov isions
ĠBo at
o ft
Ġc ree
ĠM aced
ust y
ĠRo om
Ġinteract ion
F oot
ĠK rist
Ġdefin itely
Ġtim ber
Ġs aving
ĠS ah
Ġmunicip al
ĠPed ro
Ġsacrif ice
s is
Ġp m
ĠEll en
TW C
ann els
Ġchart ed
ĠFriend s
st op
Ġsail ors
et a
Ġbelong ing
Ġsaf ely
Ġ ug
ĠJ TWC
Ġcomp uters
Ġbul let
Ġ15 8
Ġste al
ĠMad ison
Ġlin er
ing ing
ĠLe af
w yn
as i
ĠZ h
ĠRab bit
ĠConstant ine
Ġb in
ag les
Ġpot entially
ĠP S
ak u
Ġ186 4
fect ure
Ġm it
ĠS aw
ĠP ay
ĠBe ginning
Ġliter ally
Ġparliament ary
Ġlay ers
Ġloc ally
os c
ck er
ĠKenn eth
ĠRom ans
Ġjum ping
ĠR ou
ĠReg ional
Ġrug by
x ide
Ġe agle
ĠC ensus
let t
Ġrequ iring
ĠMil es
it ime
ĠD J
her ic
Ġmin isters
Ġillust rated
Ġst air
Ġper mit
G B
om ing
Ġr ivals
Ġsub stance
ĠSh iva
19 7
Ġcitiz en
Ġdiagn osed
Ġcoun sel
is an
ĠS ep
Ġex ile
Ġsp ur
ĠMc L
Ġpost s
ĠYugosl avia
ov ic
ĠSe ction
ĠOff icial
ĠArmen ian
ĠWag ner
ĠQu ar
Ġoppos ing
ĠPan zer
d is
ĠM idd
Ġse ar
Ġ15 9
ĠReg ister
Ġdepend s
Ġpros per
Ġdisturb ance
back s
Ġe ase
Ġr ip
ĠF ish
ist ical
ang ular
ĠGl as
ĠProd uction
f a
ĠC S
ĠK ill
ĠSe ason
Ġvar iations
ol o
ĠS H
Ġaut on
ĠFar mer
Ġfrog s
Ġdisappe ar
ĠAgain st
B r
Ġdem o
Ġintrod uce
ĠLiber ty
Ġaccommod ate
Ġs que
Ġtr ap
ach ute
ĠCard iff
Ġdecre ased
Ġveter an
ack ing
Ġ10 1
Ġpain ter
rie ved
ĠCarl os
R S
ip her
Ġhard er
Ġal arm
os hi
Ġstr anger
Ġt ennis
ĠMaj esty
Ġcondem ned
ĠBangl adesh
w anna
ĠO w
ĠCom ics
Ġsl ide
ĠWar ri
ĠCr us
b ai
c r
i ors
t urn
Ġb apt
Ġs ized
Ġf erry
ĠC hen
Ġgr ain
rest rial
in ted
Ġs orrow
ul u
Ġgrav ity
ĠL ore
Ġme al
ĠDev il
Ġin clusion
ĠN as
ian g
Ġwhe els
ĠNev ada
Ġoff s
Ġ186 2
ĠW el
ĠArch bishop
Ġintellig ent
Ġmart ial
udd y
Ġce iling
Ġign ored
on ly
st al
ĠW atch
ĠSp ider
ĠSch um
Ġmix ing
ĠChap el
Ġresign ation
ĠC inc
ĠR I
p arts
Ġa ston
Ġh az
Ġcon vey
Ġtre as
Ġf ron
ĠE ff
Ġwhe never
Ġ15 4
Ġscreen play
Ġconflict s
Ġf ract
Ġcur ious
Ġimplement ed
c are
ed ge
Ġp ipe
ĠT ourn
Ġcom ics
Ġgr an
ĠVen ice
ort ion
Ġqual ities
. [
ĠT ell
Ġl ip
ĠAb raham
ĠBarn es
Ġbab ies
C ol
c ons
Ġsome how
Ġtrail er
= =
Ġl iver
ĠNorm andy
Ġload ed
a uc
Ġinter ven
oun ters
Ġche ap
Ġinf rastructure
ĠC red
Ġse ated
Ġde eper
Ġthreat s
ĠSpr ings
. --
Ġdisc our
ĠMer ced
w orld
on so
ĠL uther
ĠEd ition
ĠNAT O
m ons
Ġbl amed
Ġsimilar ities
achel or
ĠN ation
Ġr ab
ĠSp encer
Ġconv ince
Ġmeas uring
eal ous
ĠOl ivia
ĠConstantin ople
Ġw is
ĠPr inc
Ġext ensively
ĠA L
ĠB asket
un ge
Ġsh ops
Ġun n
Ġup coming
ĠEm ma
p ost
Ġm asc
qu et
am ine
Ġqu oted
p it
É Ļ
Ġsh aring
Ġauthor ized
Ġcommerc ially
rif ied
Ġpron ounced
ĠCa es
ĠS ox
ĠN iger
Ġle ather
ĠRe ed
Ġ13 5
ĠGu ild
Ġcompos ers
ĠAlbert a
U N
Ġ ib
ĠN athan
Ġrev ival
Ġread er
Ġdoct rine
ĠA zer
Ġst airs
ĠJ ake
Ġclimb ing
Ġhelicop ter
p erson
ĠT O
ĠCol omb
ĠX V
Ġparticip ants
uls ion
ar is
Ġan ts
ist ocr
ber y
ĠCont rol
Ġt ear
ent ieth
ĠC P
Ġfocus es
Ġconsum ption
ĠCE O
ĠG ang
ĠMar l
Ġju ven
Ġsquad rons
E L
b age
ar med
Ġsup per
Ġ0 3
Ġround ed
Ġexc iting
Ġvent ure
om as
ier ra
Ġcompan ions
Ġfat al
Ġcook ing
Ġ ||
Ġp ushing
Ġbe ings
ĠH um
Ġim posed
Ġ16 7
Ġed itions
ir k
ĠP eng
Ġpre st
Ġcar ved
Ġsle pt
ĠJan et
Ġcl ay
Ġopin ions
ĠBook s
l ittle
ew ard
ĠC inem
ĠB ent
av ian
ĠAll iance
Ġin ex
Ġst yl
Ġst iff
Ġim per
ĠCom mer
br is
Ġflo ating
ĠEner gy
Ä «
Ġp seud
ĠC avalry
Ġover come
Ġgen es
Ġpay ment
Ġpen insula
ĠBalt ic
ĠUk raine
r us
Ġd are
Ġpl astic
Ġdocument ed
Ġvirt ually
Ġgather ing
ĠB ased
ĠR ound
Ġr aw
ri ages
Ġhous ed
M an
ĠC ase
Ġcur tain
Ġvot ers
Ġextra ordinary
Ġrecru ited
Ġpro x
Ġind ucted
Ġsl ipped
Ġspok es
Ġconqu est
ĠFried rich
M any
ģ Ħ
Ġsc ared
Ġsurpr ising
E ven
Ġp ian
ĠW elling
ĠL ords
Ġinter f
Ġfac ulty
ul k
Ġwant ing
Ġprom oting
ĠSpring field
Ġc emetery
Ġh m
Ġus age
ĠAp pe
U C
ĠMar ian
Ġmole cules
Ġcorpor ate
ĠFlore nce
Ġa qu
ic us
ĠFr an
ik es
Ġins ult
Ġmunicip alities
d i
ĠB ark
Ġj aw
ĠCinc inn
ĠF ly
Ġsp awn
ah n
ĠStud ies
ĠV o
ĠGl ob
ĠRay mond
Ġremov ing
ĠM ann
ĠG host
ĠGreg ory
Ġboot s
Ġmonaster y
Ġfl own
ĠWest minster
Ġrock et
Ġwhis pered
ĠE sc
og g
Ġcond uctor
Ġ å
um i
Ġtro op
Ġlack ing
Ġestim ate
ĠEv il
Ġemb arked
ĠF ighter
up on
Ġpe as
ĠEd mund
Ġtem ples
Ġmem ories
Ġcalc ulated
ĠK il
ish ops
G H
Ġf ancy
c ia
nd a
ul um
ic ular
Ġarg ue
ĠLaur ie
ĠT ib
av our
ĠHe arts
Ġpoin ting
Ġdiv ine
e very
Ġto ol
ĠDer by
Ġanticip ated
6 7
ĠN ed
Ġfar mer
Ġaccess ible
ĠIn s
Ġcl ip
al g
ĠS kin
Ġemb arrass
ĠNAS A
ĠMove ment
z i
Ġgrand mother
Ġsust ain
Ġhur ried
Ġin hib
Ġth read
Ġvers es
Ġcontract s
ĠMerc ury
Ġl iv
Ġl aps
ĠL ink
ĠV ery
Ġdark er
Ġhighlight ed
Ġt um
Ġp y
ĠTre as
Ġescort ed
Ġf ears
Ġsh ake
Ġpart ners
Ġori ented
Ġp ir
em a
ĠSe b
ĠLe o
Ġpres idency
ar ah
le b
ĠA ction
ch air
Ġr is
Ġarg uments
Ġ184 0
Ġdecre ase
ro b
pl ing
al in
amp a
ĠLe ices
isc her
Ġmass es
Ġexc itement
Ġwitness es
G M
p op
Ġo ak
ĠH at
Ġr ider
ment ary
ĠV illa
Ġrep orter
ĠDun can
Ġp ond
ĠT itan
ĠR av
az on
ĠIs le
Ġcos m
in to
ĠWe ather
ĠM ember
Ġmark ing
Ġcontr ad
ĠH unt
Ġare na
Ġtour ists
Ġw olf
ĠR ivers
Ġopen ly
Ġdivor ced
ĠCincinn ati
ust ers
ĠMan agement
ĠRed dy
Ġbi ography
Ġshout ed
Ġly ric
ĠN ep
Ġpl um
Ġkn ight
enn ial
Ġdeliber ately
ĠMalt a
H ello
elf are
Ġnort heastern
or o
ĠM orning
ĠRevolution ary
Ġcir cles
Ġb er
Ġmet ric
Ġheart s
Ġ186 3
Ġwars hips
_ .
Ġb ark
ĠB ears
ĠD uch
Ġan nex
ĠGr ade
ĠTw itter
Ġlin ear
et ary
Ġwh ales
Ġrec onc
ĠLe eds
Ġmans ion
o an
ĠS onic
im ir
ist ing
ep per
Ġam azing
Ġsmall est
Ġcur ved
Ġgen ius
Ġ188 7
umber ed
ĠMarsh al
Ġweaken ing
Ġsign als
Ġfell ows
Ġdev il
Ġconne cts
Ġcomment ing
Ġterrit orial
ĠRom ney
ĠHer bert
Ġprot otype
Ġbes ides
Ġdescend ed
ĠLabor atory
Ġc anton
Ġr ays
ag i
Ġlon ely
Ġgif ts
M iss
h al
Ġo wing
ch w
ĠG ates
ich i
Ġar r
Ġreg ulations
Ġcompos itions
Ġexhib it
ĠK el
Ġdis gu
ĠRe f
v or
ĠAl t
Ġsurr ound
Ġprogress ive
he art
ĠN an
ĠCont inental
ĠT erm
Ġj ealous
ĠTh an
ĠNew castle
ĠRoman ian
Ġfarm ing
ĠChair man
Ġt ide
Ġocc urring
Ġ4 50
Ġcapt uring
Ġheav ier
Ġimag ination
Ġrestrict ions
Ġfier ce
B O
Ġsing ers
ĠForm ula
ĠR ush
Ġunder neath
Ġthunder storm
ĠL is
ĠBl air
Ġsymb ols
ĠHeavy weight
st s
ĠF ight
ĠE qu
Ġsp ark
Ġ10 2
Ġ14 5
ĠBrad ley
ĠP ick
ĠW ald
ĠCh ang
Ġrele asing
ĠOr thodox
ĠBut ler
ĠTourn ament
Ġd ug
Ġl ib
ĠV ick
Ġrel ax
Ġann oy
Ġ22 0
Ġ188 6
ĠBur ke
Ġtransform ed
t ry
Ġp ump
le ased
ĠM ak
Ġun re
Ġdistingu ish
Ġundert aken
Ġmet re
Ġins pe
Ġterm inal
Ġlaws uit
h as
Ï Ĥ
ĠT ir
Ġg ear
ĠP ly
Ġag encies
S te
Ġch annels
ĠV lad
Ġbr ush
Ġdetect ed
Ġvary ing
Ġb uck
ĠC ond
ĠO cc
Ġun ve
Ġdefend ers
Ġadj ust
O ther
m ans
Ġcontin ental
Ġdepict s
Ġvic inity
Ġa thlete
ag ic
ĠO il
Ġspeed s
oir s
an ian
Ġvar iable
c or
Ġteam mate
ec hes
ĠMac Arthur
Ġencour age
Ġn aming
Ġspe aker
Ġâ Ļª
os om
Care er
ĠScient ology
Ġde er
rit ic
ount ed
act ion
Ġrun ner
Ġcons ent
6 8
r aska
ĠF ab
ss on
ĠLaur a
Pe ople
w ig
el i
Ġj am
ym n
Ġmist aken
Ġconspir acy
in isc
Ġass erted
Ã© mon
ĠOr d
head s
Ġbom ber
Ġrap per
Ġgarn ered
ĠM embers
her d
ĠU C
ĠTrib une
6 9
ace ous
ĠPl at
ett es
Ge ography
ĠC ort
Ġ11 1
Ġmod est
en berg
Ġpro l
Ġbl ast
Ġsm iling
Ġconcept s
ala is
Ġham mer
Ġflu id
ĠChamber lain
ĠIn vest
Ġmus cle
Ġspec ulation
Ġtem po
Ġpark ing
g irl
Ġt asks
ĠT as
Ġar istocr
ind a
Ġnecess arily
Ġmon key
Ġbat ted
ene z
Ġtask ed
Ġadvent ures
ĠâĤ ¹
ĠBasket ball
R T
ĠH erm
os ion
Ġout standing
In ternational
Ġess ay
ah o
Ġspace craft
Ġworth y
ĠMar tha
ĠRe port
Ġbr ut
gr ic
Ġinst antly
c ock
f am
ĠC hem
Ġst raw
Ġtrack ed
ĠDes ert
ĠDen ver
Ġcorrespond ing
mom my
Ill ustration
em ploy
Ġstre ams
Ġcult ures
Ġwid th
Ġcomed ian
Ġin put
ĠL P
ace ae
hol m
. âĢĻ
Ġw ounds
ĠMar ines
Ġfarm s
ĠArab ic
ĠCelt ic
ĠU nd
ling ton
Ġcerem onies
ĠFer din
Ġgar age
ĠBou levard
Ġgener ations
Ġevent ual
ĠX I
Ġpreced ing
Ġdiscip line
ĠHis pan
ĠBroad cast
Ġvar ies
ĠJ oint
Ġpost er
ĠEm ily
Ġ188 4
ĠOtt awa
ĠK ay
Ġcent ered
Ġmanag ing
L ike
Ġ11 8
Ġgen res
Ġkil og
nam ents
Ġconsequ ences
ĠOrgan ization
h ind
Ġm arsh
Ġpro claimed
Ch rist
Ġphenomen on
ac ular
Ġeast ward
ĠBer g
ĠAzer bai
ĠF rog
ĠE C
Ġno b
au ge
ĠGlas gow
r ates
w atch
is ch
Ġp ity
ĠC ox
ĠM V
Ġde bris
ĠMo z
Ġsubt ropical
Ġde alt
Ġdirect ing
Ġir regular
ĠPalest ine
R C
Ġkn ees
Ġstop ping
op ic
Ġreport ing
Ġconf ess
alt ies
act ic
Ġcan on
Ġcent imet
Ġreal istic
z ed
ĠL ot
Ġexp ense
Ġbed s
umber land
Ġopt im
ĠEnv ironment
Ġattract ive
ĠS C
ĠF oster
Ġâ ģĦ
Ġindepend ently
ĠJama ica
ĠH ull
Ġsh apes
ĠMeth od
Ġin ning
id o
ĠH ok
ul ates
ĠSe x
Ġmet als
ĠSc he
Ġnickn amed
ion eer
Ġbo ost
Ġbre eds
Ġless er
Ġcast les
ĠB erm
ĠP sych
ple x
Ġkey board
Ġfaith ful
Ġimmigr ants
b ot
z ig
Ġprepar ations
Ġconcur rent
ĠGoth ic
P r
Ġp enn
ir i
ant o
Ġind irect
Ġac re
ĠSh ield
ĠComm ons
Ġbombard ment
Ġsh ame
ack er
Ġcontr ary
ĠFif th
h op
an ing
Ġr ic
ĠCl oud
Ġke ys
Ġpsych ological
ar se
im er
arch y
Ġhistor ically
Ġphys ically
Ġexpand ing
Ġrit ual
y cl
Ġan them
Ġres id
Ġpsych iat
ĠBeng al
ol ine
u ine
ro ck
ew ork
Ġstud ios
Ġel ite
Ġvers us
ĠÄ Ĳ
P eter
g ary
ĠF aith
um ped
Ġv ain
ĠPan ama
Ġper pet
Ġ188 1
f ront
ĠS uz
Ġintern et
Ġhybr id
C alais
Ġp neum
Ġplan es
Ġbare ly
Ġprog ressed
Ġdri ves
st able
Ġcon fer
Ġper c
Ġcor ruption
ĠNeb raska
ac co
ov sky
ph abet
ĠHen ri
ĠC ena
ne cess
ang ered
at hetic
ĠT igers
Ġsu ited
Ġret reated
Ġrout ine
Ġmel od
id ia
ri ans
fl u
Ġtri o
Ġphys ician
Ġnet works
Ġamb assador
ĠCirc le
Ġre vel
Ġon wards
Ġsub urb
ĠMich a
Ġsw itched
Ġfight s
Ġtrou bles
Ġsusp ension
ot ted
Ġk itt
f our
ĠT alk
Ġro d
Ġsynd rome
ri um
ĠN ak
4 8
ith m
ĠHe in
Ġed ges
yr ight
Ġproced ure
Ġb onds
ĠP on
ĠDel hi
ur bs
ĠN av
ĠE agle
Ġun ited
Ġgr at
D I
or us
Ġhom osexual
Ġsuper st
Ġevac uation
ĠGib ral
ĠCab inet
Ġp atch
ĠThe odore
Ġfl ies
Ġsub sc
Ġ187 6
ĠArgent ine
uche ss
ol ves
Ġelev ated
Ġcancel ed
ĠH ond
Ġwe ighed
Ġfre ed
Ġgrad uating
ondiss ement
d rop
ĠV oice
uel a
ĠWat ers
Ġ á
Ġ187 7
gu ard
Ġt ales
it i
Ġb ree
Ġb ang
ic ia
ĠG rove
ĠE isen
Ġnot ion
Ġgener a
pr ing
Ġcontin ent
Ġconduct ing
Ġscholars hip
ĠAthlet ic
C ap
Ġw icked
ĠC arn
ov ich
Ġmet ropolitan
Ġfra ud
ĠPrinc eton
T wo
b ul
Ġ ion
Ġfac il
Ġlay ing
ĠSpe ed
Ġfrag ments
G u
Ġb ol
Ġh atch
ater n
Ġdiss olved
ĠWat son
Foot note
Ġcon vert
ĠLe ban
Ġ11 7
g Ã©
Ġa est
ĠR ug
Ġhar bor
ol an
Ġadm it
Ġagre es
Ġrepe at
Ġpow der
Ġamph ib
Ġenc ounters
Ġrul ers
ij ing
Ġlocomot ives
Ġabund ant
Ġcr ust
idd ing
Ġ186 9
Ġextend s
l ake
Ġb ills
ĠM ull
ĠR NA
Ġdes k
Ġland mark
ĠCons erv
Ġmole cular
Ġfung us
Ġorg ans
om ous
iv ision
so on
Ġassoci ate
Ġmechan ics
Ġgall ery
ĠAren a
in qu
ĠR aid
Ġch ances
p arent
Ġs ib
Ġd ock
Ġenl ar
p ic
ĠF landers
Ġout come
Ġsol ve
Ġ187 5
imin ary
Ġdisband ed
re ction
ed ed
Ġsc arc
Ġtrans mission
ĠBulgar ian
pe ople
Ġinv itation
ĠBapt ist
to o
Ġ186 7
Ġcru ise
Ġintern ationally
Ġcollabor ated
ĠHeb rew
ĠGibral tar
ar ians
aur us
Ġ187 1
ĠCraw ford
Ġ ĠĊ
eb e
Ġexerc ises
Ġsole ly
ĠPly mouth
c ore
Ġsc out
Ġ18 30
ĠBe au
Ġfootball er
Ġtouchdown s
ig rated
Ġ( ,
ab i
ĠTh anks
Ġass ured
Ġinaug ural
ĠM ult
ist ence
Ġrem ake
ĠSh ar
Ġdepict ing
Ġscre ens
Ġs oup
ĠK in
Ġ188 3
Ġprin ting
Ġcollect ing
ĠLind a
Ġvac c
Ġref uses
ĠGl ou
rel ated
Ġachieve ment
Ġpull ing
Ġnom ine
ĠGon z
ĠPer haps
ĠColle ction
g as
Ġl amp
Ġg olf
Ġr ational
ĠN ass
ra h
ĠBr id
ĠStr ong
Ġtheat ers
Be fore
Ġloyal ty
ĠMerced es
h ouses
Ġs id
il iation
ĠD od
Ġpre f
uff icient
Ġ186 6
Ġen com
ĠDr ake
Ġfocus ing
Ġcontact ed
May be
Ġp p
Ġcon ced
Ġass ume
ĠSh an
Ġbo om
Ġrad ius
b ian
l ined
Ġh aul
Ġre ef
ĠThe ater
Ġbattle field
ĠRod rig
ĠH ass
ĠIn side
uct ive
ĠStand ard
et e
ich ael
ĠY ard
ĠZ ero
Ġpublic ity
ĠRena issance
Ġp aus
ag ons
ĠCurt is
Ġhypothes is
c i
h ot
he ro
ad al
ĠH ubb
ĠR us
ĠCap ital
ĠChurch ill
ĠS ad
ĠA ub
Ġgood ness
Ġdrop s
Ġperman ently
Ġvolcan o
ĠPhill ips
ĠTw enty
ĠPeters burg
Ġpredomin antly
t ake
Ġd iversity
Ġ0 2
Ġru ins
Ġearn est
Ġfool ish
Ġch ocolate
Ġent r
Ġveget ation
Ġdepos its
Ġassass ination
D r
ie v
Ġsub mer
ĠBe ijing
Ġparticip ating
Ġstrugg ling
ĠDor othy
Ġoblig ed
p se
iz ers
ĠPark s
Ġjud icial
Ġde als
ĠSh adow
Ġview ing
urs day
Ġhorn s
um ping
Ġdis abled
Ġroad way
Ġguar ant
T om
ĠSh ir
Ġkick ed
st age
am o
ats u
ĠTur ks
Ġlog o
ĠBC E
as aki
Ġcomp iled
Ġreg iments
Ġhonor ary
in us
Ġtr ump
Ġph osph
Ġs oci
Ġcol oured
Ġacqu is
Ġrestaur ants
ĠYugosl av
ĠManu el
Ġ187 3
Ġpup ils
Ġfin ance
gr ade
Ġtre asure
ĠEs sex
' .
T otal
ent e
Ġtr ace
er als
Ġm ask
Ġcomp rehens
Ġcontrib ute
Ġpack age
ĠDiam ond
ĠBes ides
o qu
Ë Ĳ
it ches
ass es
ĠAr c
Ġdec isive
ĠAd ela
Ġarm oured
Ġwond ered
Ġhorizon tal
Ġw art
al id
ĠT u
ĠD j
ĠSt arr
Ġoff shore
Ġult imate
Ġment ions
Ġg amb
ĠR ange
ĠMon th
ĠSm ack
Ġprocess ing
Ġ186 8
Ġdiscuss ing
Ġpeace ful
ĠMun ich
Ġmanif est
Ġd ive
op ol
Ġinc idents
Ġsle e
p us
ĠE RA
cl amation
ash ire
ĠTr av
Ġtarget ed
T ell
i ating
Ġc raw
Ġsc ales
Ġwitness ed
Ġiniti ative
ĠR u
ĠBas il
Ġfer til
Ġrefere e
ĠJoy ce
G ener
ĠM oney
oc al
Ġacc us
Ġadd s
ĠNorth west
ĠMy st
Ġad equ
amp ire
Ġfav ored
Ġ188 2
ĠMal ay
Ġbed room
ĠAlb any
ĠMar x
Ġ10 7
Ġep it
ĠB ot
Ġ11 9
Ġpers ec
Ġconqu ered
origin al
b ors
ĠA aron
ig ation
Ġall ied
isp here
Ġst ability
ĠP ent
Ġnorth western
ĠW is
Ã© l
Ġ23 0
Ġsecret ly
Ġtrou bled
r ams
ĠP oe
ĠW ed
ĠGree ks
-------- --------
Ġdisappoint ment
Ġug ly
ĠW ings
ian e
Ġsit com
Ġble w
Ġrot ation
ur ers
Ġce ase
Ġhom eless
ĠLu ft
Ġchalleng ing
Ġf ence
ĠF ood
ĠCo al
ĠComp uter
ĠFerdin and
ag ne
Ġwe ird
ĠTra ff
arth y
Ġ ãĥ
Ġw eren
Ġf uck
om ical
Ġn am
Ġread ily
Ġelig ible
C ar
U R
f ive
er ia
le ted
ĠV ic
ĠGr ound
Ġmut ual
Ġ97 8
o i
Ġp ione
ĠT rent
Ġfre ely
Ġphot ographer
m orrow
Ġt ables
ĠP ine
Ġat oms
ĠFinn ish
ĠPok Ã©mon
Ġgen uine
uzz le
Ġgentle men
ĠGeoff rey
ĠS uff
ĠP and
ĠD ud
Ġcl an
Ġcost umes
Ġble nd
re z
st own
Ġmach inery
Ġintegr ated
Ġs ink
Ġch ron
Ġmind s
ĠDemocr at
Ġhero es
ĠSol ar
Ġsubmar ines
Ġsub tle
Ġrev ived
Ġmount s
Ġrec ruit
Ġupd ated
Ġshar ply
ĠM ills
Ġst ole
ce nding
ĠTr ue
ĠPal mer
mm et
ais y
ĠT ab
ĠC ut
Ġdin osaur
ĠMas ters
ĠB rew
ĠD elta
Ġbl own
Ġcrit ically
Ġtri ps
Ġcook ie
Ġdread n
I ON
st ration
Ġele g
ble m
ĠĠĠĠĠĠĠĠ Ġ
Ġoper as
Ġpri ests
Ġ187 8
t ell
ĠCh ase
Ġcre ates
ĠIs les
Ġmid st
ĠEll is
Ġdelight ed
h n
t w
ĠR osen
ol ith
ĠL on
Ġun anim
Ġdevelop ments
ĠBl ake
g un
or p
ast on
iron ments
ĠLanc ashire
Ġpuzz le
g ive
ĠS aints
ĠF ur
ke ley
be en
aged y
Ġclos ure
Ġexec ut
Ġmist ress
ĠAdvent ure
ĠHubb ard
ĠA gric
" ),
B ill
m ade
ol and
Ġco aches
Ġmar ble
ĠSal v
Ġgal axy
at em
Ġb ug
Ġh oly
ĠR ah
ĠLe ader
Ġsum mar
ĠBuddh ist
g reat
ate ful
ĠM ut
Ġne at
oth s
Ġconf ig
ĠBrown s
Ġflo ors
v ol
ĠR ear
Ġbox es
Ġjournal ists
ĠCommission er
Ġs its
ĠS ierra
Ġit em
ĠL amb
od ied
ĠV enez
Ġpropag anda
Ġexter ior
ĠT ow
Ġsh it
Ġro ok
Ġfort ifications
Ġhabit ats
ĠVen us
d r
w he
Ġcur rency
ĠWood s
Ġfol ks
F l
Ġt iger
Ġd at
Ġgr id
pos ing
Ġmanufact ured
Ġneighbour ing
Î ¹
ou x
le w
om p
Ġr iot
Ġ11 4
Ġj e
Ġ187 2
Ġdisp uted
Ġw ool
is ations
ĠH amb
ĠLou ise
Ġfurn iture
ĠT otal
Ġn odd
ish n
Ġtop ic
ĠForm ation
ar in
ĠT all
ĠM ol
ĠL av
Ġgr am
ĠInt ellig
bird s
fortun ately
Ġsl ower
Ġenv ironments
E n
ĠM ake
Ġcont ents
ĠPr ison
Ġexpl ored
Ġinf in
ĠAss ist
Ġaut hent
Ġlength s
Ġintermedi ate
ĠSchum acher
h art
the se
Ġbr ass
ĠFor mer
ĠCarol ine
Ġcrown ed
Ġdescend ants
Ġoverwhel ming
il ight
ch ard
Ġsk etch
ĠOr ton
Ġcryst al
Ġcomprom ise
ĠAr ctic
Ġreb el
Ġsufficient ly
Ġat op
ĠCap itol
Ġz oo
Ġprevent ing
Ġdeleg ates
m ind
Ġt ick
Ġn ests
ĠCh in
ĠUn iverse
ĠUs ing
M P
o op
Ġhad n
Ġpe cul
Ġrel ating
Ġass ert
Ġrep et
Ġinf ant
ĠSol omon
ias m
Ġbreat hing
Ġachieve ments
Ð ¾
ĠC ris
Ġrem inisc
Ã© r
Ġlist ing
Ġbus h
r ays
Ġb icy
os ity
Ġtr ucks
uc er
Ġappe aled
Ġaccept ance
Ġsymp athy
ĠTr inity
Ġdiv ide
av il
ĠMon roe
Ġdin osaurs
Ġerupt ion
T e
v y
Ġm im
ĠC any
ĠM obile
ĠW ant
Ġover th
Ġcount ed
Ġperform ers
Ġtw entieth
Ġspeak ers
ĠBor ough
Ġdis hes
Ġstr ain
ĠCal gary
Ġhon ored
je ctions
ĠML B
Ġautob iography
il ogy
Ġass ets
Ġimpro ving
ĠAnn ie
I L
ĠP i
ĠJ ur
Ġnear er
Ġkid ney
Ġancest ors
Ġj okes
Ġp ardon
ĠT int
Ġl od
Ġg ig
ph an
Ġinst ruction
fl ow
Ġcompl aints
Ġcommit ment
ĠMcKin ley
ĠG ust
ĠCh ancellor
Ġ15 7
Ġob l
Ġcolle ges
Ġjoin s
Ġrow s
it ars
Ġh ier
ĠS ans
Ġposition ed
Ġadm ired
ĠCat al
Ġphilos oph
H g
Ġp our
ĠC het
ĠR iley
nt y
Ġcl iff
Ġpres um
Ġwar rant
app a
ĠTr uman
19 5
Ġbank rupt
c ience
Ġl ucky
ul us
ĠHe ath
ous ed
Ï ģ
Ġfirm ly
ĠMot or
Ġrecon struction
e ctions
ĠI b
elf th
ator ial
Ġconv iction
ij i
Ġbal let
ĠSmack Down
Ġle agues
Ġab rupt
ĠFl oyd
Ġquant ities
Ġhal ted
Ġnavig ation
ĠT at
Ġgr aphic
Ġact ively
Ġbu ying
ĠCan ucks
ĠCons ervation
ĠHend erson
Ġsevent een
Ġremark s
G od
ed ar
ĠH off
Ġac claimed
ific ent
Ġlyr ical
ĠCard inals
F irst
it ating
ir able
Ġinter ference
gr im
Ġcar n
ĠColumb us
ĠEngine ering
ĠPlan et
ĠHann ah
Ġa ided
or g
ĠH ait
od on
ĠMc N
ĠCry stal
f ielder
ĠB uch
ĠO ber
Ġsh y
ĠAl tern
Ġmus cles
Ġhun ter
igg ins
Ġarchae ological
Ġic on
o j
Ġp ant
ĠS aud
Ġprotect ing
ĠTy phoon
ĠDev on
ĠMicha els
M ost
Â °
ad ition
ĠG iant
Ġres erved
ĠDe cl
ĠMet ac
l on
Ġn erve
ĠM ade
ĠK em
ĠNew man
Ġmet all
Ġexpl oration
Ġaware ness
A p
i ott
v as
ĠD oc
ĠAn at
ĠPic ard
th ree
ĠL ed
Ġemer ging
Ġthr iller
Ġdesper ate
ĠPow ell
ĠS r
ol ars
ĠB ri
ĠB und
Ġship ped
Ġtax on
Ġexpect ations
ĠGer ald
ĠOt to
ĠBerm uda
Ġencom pass
ĠRichard son
ĠGib son
Ġrab bit
Ġb out
Ġunder water
fl ies
Ġest ates
Ġadminister ed
Ġr ally
Ġexplos ive
ĠMaur ice
ch ant
ĠF u
Ġsp ider
Ġ12 8
ĠAngel ou
ĠMach ine
ess a
ĠCh i
Ġsure ly
Ġrefuge es
P res
Ġcolon el
Ġspect ators
Ġreluct ant
6 1
B rien
ri ved
Ġres erves
ĠFr anz
Ġdread ful
Ġb und
ĠM ail
ĠB ody
ĠG lee
od ia
Ġj ungle
get t
ag ged
Ġman ages
Ġafter ward
Ġ13 8
ĠMax well
pent er
ĠMidd les
ĠTas man
d ist
ĠM ick
ĠSt op
Ġfe ast
Ġsm oking
ner y
Ġexhib ited
Ġdisl iked
ĠL S
Ġreve aling
Ġregard less
ĠSing h
f old
Ġg ently
Ġread s
Ġo ath
Ġv ow
ie u
Ġres emble
ĠHar per
Ġmass acre
ĠJenn ifer
ĠCost a
d addy
wh ite
Ġtorped oes
Ġdisturb ed
, âĢĻ
E F
W ait
Ġin eff
act s
Ġspe eches
Ġsepar ately
Ġcoach ing
ĠLeices ter
an th
ĠC N
ĠC ool
ĠUn it
ail and
Ġcoal ition
ĠK ath
Ġsp y
Ġgrand son
Ġgust s
ĠS ylv
Ġch ick
form ed
Ġform ations
ven ues
Ġprior ity
Ġski ing
ĠWelling ton
Ġdecl aration
Ġunsuccess fully
ĠUr ban
Ġm embr
Ġd ining
Ġ12 9
Ġexper ts
Ġâ Ļ
Ġlad der
Ġre h
Ġan k
Ġcoast line
Ġthorough ly
ĠP rop
own ed
com m
ĠArch ae
ĠBosn ia
ĠAdela ide
V ery
Ġst aged
Ġro ster
Ġpop ulated
ĠProd uctions
E r
Ġres on
Ġign or
Ġwart ime
ub a
ĠPhill ies
ĠCl if
ĠAust ro
Ġprim itive
Ġsweet ie
Ġunus ually
á» ĩ
ĠP ack
ĠCl a
Ġgl ance
ĠNe pt
ĠSy rian
Ġre op
ĠN umber
Ġpres ently
Ġmot if
Ġtend ency
ĠJenn ings
ent ric
Ġch ains
ĠV oy
Ġorchest ral
Ġenh anced
Ġ ËĪ
mon ton
ĠGard ens
Ġanch or
ĠParalymp ics
ir rel
Ġplay able
ĠKn ights
Ġninet eenth
on i
Ġn ap
ĠF uture
Ġtour ism
ĠÃ ģ
Ġroll er
Ġelder ly
i ots
ĠH erman
ok a
Ġam endment
nes day
ĠFer gus
Ġdrown ed
ĠM ile
ol ics
Ġv it
Ġend e
Ġpubl ish
Ġvar iant
velop ed
Ġimpro v
is le
ĠT ests
im an
ĠJ NA
op al
Ġvocal ist
ĠInde ed
ĠAdvent ures
Ġm iser
ay ette
ĠG and
Ġshe d
Ġdam aging
ĠNor se
ĠRock y
Ġdepart ments
ĠCub an
Ġsuppor ter
Ġprec ious
Ġven ues
Ġpregn ancy
ĠF ischer
ĠPar ish
ĠBulgar ia
ĠDyn asty
ĠT iger
Ġblock ade
ĠCany on
ĠS old
ĠAd rian
Ġconf ined
Ġdraw s
Ġplant ed
Ġcust oms
oc ene
ĠV as
ach i
ĠWars aw
Ġtherap y
Ġperc ussion
il ian
ĠY OU
erson al
h l
ĠC rom
ut ors
ir s
ish i
Ġleg acy
ĠHol mes
Ġrequire ment
ĠSeb ast
t age
ĠP ont
ĠL af
ĠSqu ad
Ġlocomot ive
l u
r ising
Ġd io
Ġl ined
Ġam bit
Ġacqu ire
ĠFem ale
Ġcruc ial
Ġfru its
Ġin Hg
pt ic
Ġgu itars
Ġsort s
ĠR if
Ġinf ected
ĠPer u
ĠSur rey
Ġpan els
ĠTele graph
Ġsatisfact ion
ĠFr aser
ĠVal ent
in ate
ĠK ot
Ġreb ounds
Ġmeant ime
Ġru ined
ĠL ag
Ġrel ay
Ġconsist ently
ĠWW F
h aus
ograp hed
Ġpost hum
Ġtrad em
Ġz ones
ĠHead quarters
Ġquant ity
Ġcott age
g iving
Ġtrans it
ĠMcC arthy
ovak ia
ĠWend y
z ing
ĠR up
ĠG az
Ġres pected
Ġchar ming
gr ounds
Ġdist ances
Ġblood y
Ġchap ters
Ġcompr ising
ĠLt d
ĠA ur
Ġoper ator
Ġmotor cy
Ġprompt ing
Ġundert ook
Ġsurpass ed
I R
ĠH us
au er
ĠMon ster
Ġbar rier
Ġpriv ately
ĠMarc us
and in
Ġsh oe
Ġpar am
Ġcor ridor
ĠBeaut iful
ct ing
ĠP ra
ĠK um
Ġen able
Ġsy mmet
Ġshould n
ĠSer geant
Ġdig it
Ġthick ness
Ġliber ty
Ġt empt
ĠTh ursday
Ġerr ors
Ġsubmer ged
Ġm ast
Ġthem ed
ission ed
Ġche ek
bro ok
yram id
T unes
ĠB ast
og ical
Ġmiss ile
Ġg auge
ĠC ann
ĠK as
ĠV ern
Ġcomp aring
Ġgr ab
ĠAl pha
ĠEx pl
Ġsole mn
olog ically
Ġ187 9
grad uate
H C
P a
Ġd iving
ĠAd ult
Ġlow ered
kin son
Ġdesp air
N othing
Å ¾
ĠT ucker
Ġv ibr
yl um
Ġcompl ications
ĠMill ennium
Ġwarri ors
ĠBald win
c ried
Ġtr am
ĠCh op
ĠTh ailand
ĠMe yer
Ġphys ic
ĠAv iation
A cc
ĠS N
Ġsub ordin
Ġautom atic
Ġsport ing
Ġf ucking
Ġ. .
Ġin ev
ict ions
ĠNew found
Ġdest ination
ĠIr ving
Ġdiscontin ued
im o
Ġ7 50
ĠPar amount
Ġbow led
Ġske leton
Ġbe et
ĠM C
Ġ( _
Ġar ray
off icial
Ġcivil ization
ĠTint in
Ġr ises
Ġint act
ĠY ok
ĠSe as
pend ing
yl on
ĠRh ode
ĠTri p
Ġmicro phone
M at
Ġb ra
ĠS E
Ġun employ
Ġcontrib uting
ĠBu enos
ĠGab riel
Ġh ug
Ġd orm
ĠPr ice
Ġref use
Ġori ent
Ġcyl inder
Ġwrap ped
Ġfab ric
4 7
4 9
G E
L ife
ĠT ales
ĠS ue
Ġint im
ug u
atter ing
Ġwel com
Ġcompliment ed
Ð ¸
Ġs aint
Ġh aun
Ġal phabet
Ġop ined
Ġtop ics
Ġdem ographic
Ġobject ives
ĠRh ine
Ġmerch ants
ĠH es
Ġsh ining
ĠVer onica
ĠNash ville
Ġcub ic
Ġw elfare
Ġcur ves
Ġreason able
Ġspeak s
Per haps
M C
N ever
ĠP unk
Ġ10 6
Ġinst ructed
Ġadv ocated
Ġdemon stration
Ġmonarch y
Ġambit ious
g s
Ġass ign
ĠMc Donald
ĠShel ley
ĠH il
ass ic
Ġir re
ID S
ĠS ite
Ġn a
Ġsh ocked
Ġup stairs
og le
anc ock
arm s
Ġrout ing
ĠJer emy
Ġtox ic
Ġcust ody
ĠH ale
pl ess
Ġres ur
ĠRe yn
Ġair borne
ĠMe ga
ĠFilm s
Ġfrig ate
r ound
ĠM ine
Ġmag ical
ĠRuss ians
angu age
ĠSoviet s
Ġflood s
Ġelector al
Ġh urricanes
im son
fic ial
udden ly
ĠLanc aster
Ġfest ivals
ĠNewfound land
ĠNew port
Ġdam ages
Ġcamer as
Ġrecon st
ag ain
Ġcomp act
Ġchar m
Ġterm ed
Ġobs erve
Ġdisp atched
ĠId aho
ĠDud ley
im ity
ĠF a
ĠG enesis
Ġcame o
ĠSen ators
Ġcorn ers
ĠSocial ist
Ġw eld
Ġf et
ĠP age
Ġtr ait
Ġint eg
Ġover h
Ġsub mit
Ġelect ro
ĠBel arus
Ġ184 8
Ġsoft ly
p ow
Ġo d
Ġc her
Ġreg ained
ĠSc reen
Ġenthus iasm
Ġevident ly
Ġar bit
Ġair plane
Ġlik ewise
ĠJac ques
Ġdemand ing
Ġproceed ings
Ġdemocr acy
Ġexha ust
Ġmush room
ĠE aster
rim ination
ĠPruss ia
ĠMetac ritic
Ġal ly
ĠD y
ri et
uch i
Ġsex ually
roll ing
Ġwond ering
Ġg rief
ĠB ott
ĠD ob
Ġmon sters
k ward
Ġf og
Ġf ake
Ġte lev
Ġpolit ically
ĠFranc o
ighth ouse
ĠAdmiral ty
Ġpig e
Ġprel iminary
Ġob ey
ĠEn ix
Ġglass es
u cc
Ġd irt
Ġi Tunes
Ġeng aging
Ġrub ber
Ġinhab ited
Ġw ives
Ġc ure
ĠR andy
Ġunder go
Ġfact ion
ĠImp act
ic as
ĠTh ings
ib al
Ġimport ed
Ġsoc cer
Ġmight y
ĠJul ia
Ġproceed s
Ġh ated
ĠS A
ĠS andy
um m
per m
ib l
Ġrel ied
Ġacc ent
ĠJul ie
Ġanx iety
V ID
c alled
Ġr av
ĠAl most
Ġdep iction
ĠArt icle
Ġjack et
Ġm es
Ġout door
ĠLe igh
ĠBr andon
Ġ14 9
ĠDr ama
Ġaccompl ish
d ict
o oh
ĠM ang
ĠGu adal
ĠSte am
unc iation
Ġtrem end
il is
ĠA ires
Ġhe n
Ġreg ist
Ġsk et
Ġant iqu
Ġinterview ed
ĠTim ber
ĠM aid
ĠSt ories
Ġqu e
ĠRe ading
Ġlim bs
Ġca ution
Ġchim ney
j ar
ped ition
ĠEd win
ĠPark way
Ġeditor ial
Ġl an
Ġsend s
Ġkiss ed
S ince
Ġm igration
Ġst all
ĠJ ill
Ġav iation
Ġseem ingly
ĠTo o
Ġlo os
ĠCirc uit
J ack
Ġl aughter
Ġwhe at
qu al
Ġneighbor ing
Ġb unny
Ġp ear
Ġhe ct
Ġsuccess ive
Ġviol in
Ġfunction al
ĠMax im
Ġmathem atical
Ġinqu iry
ĠPrest on
K e
h ole
Ġg rip
Ġreal ised
sw orth
ĠChand ler
Ġal ike
ĠF un
op ular
Ġen rolled
Ġsub urbs
ina e
Ġadv ances
oph one
ĠDomin ican
ĠC ant
Ġst abil
ĠAugust us
Ġelect rons
ĠMad ame
Ġacqu aint
Ġhosp itals
Ġto b
ĠH ook
ĠE y
Ġsec ular
Ġmon ks
let cher
ĠEd monton
ĠArt ist
Ġst y
ĠD uchess
ĠK ub
Ġcons ensus
ĠGu atem
ĠSen ior
ĠUs her
oty pes
Ġexha usted
Ġexecut ives
A nt
Ġed iting
Ġtri angle
ĠAv on
Ġtra its
G S
ĠW inc
sh all
umb ling
ĠLu is
Ġc ents
ro ft
ĠH ip
Ġan throp
oc ese
Ġrep aired
Ġcoll ision
Ġeconom ics
Ġexc use
ĠArmen ia
L RB
Ġf ut
Ġv ault
Ġdiscuss ions
Ġflag s
Ġscarc ely
p ie
ĠS or
Ġg ains
Ġg aming
ĠP end
Ġtro phy
Ġobvious ly
Ġ Ø
Ġl ava
ob s
ĠAll an
ĠMed icine
ĠBer keley
ĠMet al
Ġflu or
Sp ot
ot on
art e
Ġprom ising
rem ember
On ly
ĠSus sex
ĠS our
Ġfre ight
Ġlength y
Ġcontem por
ĠLar ge
Ġcompr ised
ĠCaes ar
y ep
ar u
ry ing
oin ts
ject ed
p ressed
Ġhard ware
S ir
d Ã©
w affe
an an
am ples
ĠK err
Ġspec ulated
Ġfore head
Ġf ib
ĠS ul
ĠI C
Ġy d
Ġcl erk
ues day
Ġcop yright
Ġdi ary
Ġfro zen
Ġaggreg ate
B E
z el
ĠG as
ĠCh oice
Ġdef enses
ĠPer th
s by
Å Ħ
ĠS ed
ĠBel le
Ġir rit
Ġgross ed
rell a
Ġinher it
ĠL ogan
ov o
ĠCl aire
Ġdel icate
Ġtest imony
ios ity
Ġhar vest
Ġqu eer
ĠKe pler
Ġborrow ed
ĠA in
ĠO sw
O ur
Ġt in
Ġa uction
om ys
ely n
ĠSo ft
ĠMichel le
Ġcooper ation
Ġdimens ional
ĠCycl one
ĠWinds or
Ġunve iled
ĠH ancock
Ġun aware
Ġdemonstr ate
Ġwrest ler
Ġcyl ind
ĠG ive
Ġab olished
Ġsl ope
Ġprof ound
Ġqual ify
is ure
ĠM am
Ġspecial ized
Ġtouch ing
ĠHop kins
ĠVerm ont
Ġse ize
Ġun rest
Ġback up
Ġcent res
ĠTr ump
Ġprompt ly
ĠHawai ian
ĠLyn ch
ĠObs erv
ĠN y
ere k
Ġch ord
av o
Ġover d
Ġgener als
Ġmonth ly
Ġreal izes
is ans
ĠC ock
ĠM otion
ĠW ake
Ġr am
ĠG ren
Ġc ater
Ġp ants
ĠBar rett
Ġdom ain
Ġapprec iated
Ġped est
ĠProte ction
Ġc age
Ġb ord
Ġl ibr
Ġre ly
ĠA A
Ġup rising
ph al
Ġlic ensed
ĠPier ce
oca ust
S E
f irst
Ġ187 4
ĠCath olics
Ġlif estyle
Ġbats man
Ġuncom fort
ĠD oll
Ġsp rang
Ġdevelop er
Ġimm une
Ġsevent y
Ġturb ines
necess ary
6 2
z ac
Ġo v
ĠB ened
az y
ĠFl ames
Ġinse ct
ĠEd gar
Ġdisp utes
Ġtend ed
Ġtun nels
Ġexcess ive
Ġnob ility
Ã Ł
ĠSh a
be fore
Ġcontract ed
ĠAg uil
Ġpure ly
ĠGriff in
Ġbe nd
ĠH ors
Ġaver aged
Ġens uing
t z
Ġin ver
ing o
ĠM ale
Ġal umin
ath a
Ġnam ely
ĠB od
ĠRe con
ĠPro s
d an
ĠH anna
Ġcapt ivity
Ġhon ors
Ġstreng then
ingu ished
Ġru in
Ġcontroll ing
l ay
Ġp aved
ir us
ĠK ens
ĠBoy d
ĠHug o
Ġalleg ations
Ġlegit imate
g ins
w y
á ¹
Ġbel ly
Ġpar ad
Ġsoc ieties
ĠSur v
ĠAguil era
ĠW it
Ġland ings
Ġtre mb
Ġdecl aring
ĠMV P
ĠC M
ĠV iew
Ġsp here
aw k
Ġac ids
ĠVar ious
Ġax is
E ng
Ġh ipp
ry s
ott a
ĠCont em
ubb les
Ġham let
ĠLith uan
Ġdynam ic
l ies
al ysis
Ġl ingu
ĠCr ane
Ġhorse power
Ġrevers ed
D A
Ġwh it
ĠP om
ĠE ss
ĠSt ore
ĠCh all
Ġdraw ings
ĠB og
um er
Ġlov ing
l ance
ur u
ĠR ams
ul ars
Ġins ufficient
ĠPl aza
Ġlight ning
Ġprec ise
ĠEll iott
ĠSout heast
Ġh id
Ġbe ast
ab oo
Ġout s
Ġmin eral
Ġmur m
Ġfit ting
Ġbo o
Ġ13 9
ĠWol ver
Ġa ster
ĠM umb
ered ith
Ġmet eor
Ġmother s
Ġnick el
Ġsurf aces
R RB
Ġm bar
Ġcomp ass
ĠLe ad
Ġele venth
gg y
Ġaw kward
Ġphot os
Ġden omin
ĠStan ford
ĠBrig adier
ĠC ave
ĠSp y
Ġemploy ee
Ġstrip ped
Ġeff iciency
Ġsoon er
ĠAddition al
Ġimprison ment
Ġt ensions
ĠH appy
Ġas cend
Ġsp ores
ĠCal vin
ĠAng le
Ġcho osing
Ġdrag ged
Ġlob by
Ġcont ested
Ġ27 0
ĠPort s
Ġmemor able
he nd
Ġw agon
ĠH ig
Ġsle nder
ĠSaud i
Ġm uzzle
Ġor nament
ip el
Ġ21 0
Ġqual ification
Ġpersu ade
Ġfold ed
Ġib n
g ot
it us
iv ier
head ed
ĠBas in
Ġpup pet
Ġenthusi astic
Ġdio xide
h urst
Ġal ert
Ġcl o
ĠEx pedition
Ġboard ing
s uch
ig uel
Ġr age
Ġins cription
ĠAzerbai jan
p ol
ĠS ib
Ġex agger
Ġam pl
er os
ĠT ru
Ġinc ons
Ġvar ieties
Ġwat ches
Ġcommer ce
ĠDaniel s
cour se
Ġassess ment
Ġaccord ance
ol ve
ĠK aren
Ġsp oon
Ġsol itary
Ġintrod ucing
Ġmagn et
Ġmurd ers
Ġdanc er
ĠBroadcast ing
v ae
Ġw are
Ġc roc
ĠC ou
ĠP owers
ĠO g
ĠO st
Ġatt achment
Ġ13 7
bor o
Ġoccup y
Ġathlet ic
P C
t ra
Ġd ome
ĠD ad
Ġext inction
Ġlight ly
ĠGl ass
Ġproject ed
Ġpoll ution
Ġprox imity
Ġb ust
ast ing
Ġcl uster
Ġgu ided
Ġang el
Ġcompar able
f le
u ania
od ing
ĠK le
Ġdecl are
Ġwear s
ĠIndust rial
Ġlem urs
b in
Ġd ried
Ġdet ached
Ġfront ier
Ġcal iber
Ã± a
Ġtact ical
Ġb its
ĠH umph
iv ic
av ity
ick y
Ġ11 3
Ġcho ices
Ġpack ed
R ober
ĠK os
Ġcl ient
ĠCr ime
Ġpecul iar
Ġb unch
Ġend angered
ĠWar wick
Ġlack s
ĠOper ations
Ġs ic
Ġto es
ord e
ĠTr uth
rod uction
af e
Ġmeasure ments
ĠElect ronic
ĠRP G
ac a
ĠI X
ĠK iss
Ġher b
Ġun ity
Ġper ception
Ġesc apes
ĠT ill
Ch ar
ĠGar field
N G
i ast
orm al
Ġdet on
St op
Ġdeterm ination
y ay
Ġf illing
ĠM az
Ġ10 3
ĠMor oc
v ik
Ġd ent
am us
ĠM eredith
ĠO K
Ġun pre
Ġdis k
Ġdist ress
Ġvol unt
Ġcelebr ity
Ġconsequ ently
Ġsan ct
ĠLuft waffe
Ġlet ting
Ġref lection
ĠHamb urg
ic on
ĠK ang
Ġmod es
k ed
er vers
Ġret iring
Ġmet ab
Ġ14 8
Ġmer ger
Wh ile
Ġdress ing
ĠIran ian
Ġpatrol s
ĠLith uania
u ates
Ġcont ing
Ġbus es
ĠBow ie
Ġlect ure
B iography
nd um
Ġd il
se en
ip ping
Ġrest ing
Ġext ract
ĠMore over
ĠGlob al
ĠWed nesday
Ġreminisc ent
6 3
ĠF letcher
ĠE U
ĠId ol
osy stem
Ġp enc
ĠM Ã¼
Ġup s
Ġgener ate
Ġvis itor
ĠBo oth
Ġelimin ate
e ven
m el
ĠF ear
ĠL ear
ĠU B
ĠAp pro
Ġsun shine
Ġinvestig ated
ux ili
ĠDou g
Ġatmosp heric
ĠNaz is
Ġm aj
ĠA w
Ġsong writing
Ġtw elfth
ĠAnt i
Ġpick ing
Ġreal m
Ġprof its
Ġfail s
ĠJes se
i ability
st a
Ġse iz
Ġtr out
ĠGener ation
Ġinstall ation
h ower
ĠY ang
Ġmaneu ver
t op
Ġless on
ĠArab ian
ĠLight ning
Ġille g
ĠTib et
Ġwelcom ed
b ank
ĠSp it
Ġjud ged
Ġload ing
ĠCru z
Ġdemocr atic
ĠMunicip ality
m us
om o
ĠL akes
ge on
ick er
Ġhum id
Ġevolution ary
ĠT yr
st ock
ĠB alk
ons ense
Ġ185 1
ĠSkin ner
Ġb a
Ġall ocated
Ġgr ants
ĠY u
ĠGl enn
Ġcrowd s
Ġmotor way
ĠStock holm
h t
Ġw ages
ist ically
Ġgovern ed
Ġrest r
Ġfem inist
Ġund ers
b i
in tend
Ġm ock
el est
Ġst ake
Ġr ape
ber ger
ĠHay es
Ġtob acco
H ar
c ount
ĠM k
Ġpl ut
ĠSt arting
Ġtr igg
ĠBut ter
Ġste aling
Ġpers isted
Ġ185 9
Ġdial ect
Ġbegg ed
ĠS port
am ous
ĠM aple
ĠH arm
ĠR ice
ĠAp art
Ġgoal keeper
Ġaffect ing
Ġfil ter
Ġtel escope
ĠD re
ĠHe at
Ġcons cience
Ġreg ards
Ġmon uments
Ġfind ings
Ġbas ement
Ġconv inc
Ġbur den
ĠCur rent
Ġprohib ited
1 00
ion ed
ĠP orter
Ġpro ven
ĠSt age
ĠScot ia
Ġdoub les
Ġcitizens hip
ĠC C
ĠW als
Ġevery day
Ġpost pon
Ġbur nt
Ġd ors
ĠP ale
ĠJ ava
ĠK es
Ġfl ame
Ġgovern ing
Ġshort ened
ĠArab ia
Ġdeleg ation
ĠM anning
ĠW ool
qu in
Ġrec kon
Ġwork sh
ĠCl aud
Ġ11 2
ĠWill is
ĠSw an
Ġlim estone
Ġpound er
4 4
Ġmin im
uss y
ĠGame Spot
Ġinstrument ation
Ġpreced ed
Ġteen age
Ġd re
ĠH ast
ĠSt rait
Ġsub urban
ĠSch w
Ġlay out
ĠBer ry
Ġentertain ing
w alk
Ġan at
Ġsp ont
ĠAdv ance
M on
P ersonal
Ġn ic
ĠL omb
ke ep
ose ph
ĠSc andin
sh i
Ġappl ic
ĠBur ger
Ġpig s
Ġaccur acy
ĠSic ily
ĠAnd ers
Ġmer ry
Ġsat ir
Ġstrugg les
ĠBre ak
Ġillust rations
g i
Ġsec uring
Ġinv ention
Ġspread ing
Ġinteract ions
Ġbutter fly
G eor
m ov
Ġe cl
Ġbe e
Ġr abb
ĠCon sequently
Ġmean while
Ġexpect ing
ĠUk rain
b oys
h ist
Ġh ab
ĠM iy
ĠB ess
Ġcomp at
Ġcons umed
ĠSp onge
Ġtrack ing
Ġer osion
look ed
ĠMod el
Ġtort ure
Ġadvoc ate
Ġdimens ions
D es
Ġf usion
ĠA j
im ination
Ġgu id
Ġpartic le
Ġfood s
Ġing red
ĠTreas ury
g reen
Ġsc ope
ĠNe ither
Ġansw ers
ros se
ĠEp is
ĠLeg ion
Ġvolunte er
ĠSn ake
Ġbattlecru isers
n ew
ĠB ever
ov an
ĠR acing
ĠL anka
Ġdec om
ĠBe ing
Ġbo ards
ĠGu ards
Ġpar ade
Ġsum m
Ġscr atch
l en
ar an
ot illa
Ġcon cess
Ġrel iable
ĠBr is
Ġbas ically
cliff e
Ġp ile
Ġan arch
ĠW a
ĠPl ate
ĠMet eor
Ġrang ed
ĠChap man
G ive
w ald
un n
Ġrec all
Ġdec iding
Ġstr ang
ruct ive
Ġcomment ators
ĠHam mer
Ġalleged ly
Ġincom plete
Ġcompens ation
ĠR af
Ġr ats
ĠSh ank
Ġswe ep
ĠCast ro
ĠPubl ishing
Ġconj unction
B et
Ġan th
Ġsl opes
ĠTr in
Ġcommun icate
Ġnit rogen
Ġc ute
Ġcl er
ĠAd ri
Ġgl ory
ĠMan or
ĠCont in
ĠBa iley
Ġsymp athetic
ĠB le
Ġcommand s
ĠSw ord
sm ith
Ġunp opular
Ġcongress ional
ĠFran Ã§
Ġkitt ie
I P
S C
o ids
is bury
ad ian
ĠC ai
Ġr ust
ĠL an
ap or
Ġtr agedy
ĠBe ast
Ġhum our
Ġlaw yers
Ġnat ives
ĠRes ident
ĠNort on
Ġox ide
Ġscen ario
ĠEisen hower
Ġacquis ition
P aul
Ï Ħ
ig u
ĠV ul
oy a
Ġcar b
Ġsuper hero
ĠEug ene
Ġ à
ĠP ath
Ġor al
Ġpl ug
ĠMcC ain
ĠAlexand ria
Ġdrain age
Ġhas n
gr at
ĠPres ley
ĠIntellig ence
A ng
a que
d al
Ġc aut
et ing
Ġrele vant
omet ry
Ġsuccess es
Ġdel ays
ĠSup erman
ĠSer bs
Ġmaintain s
Ġscreen ing
Ġbass ist
ĠReyn olds
ĠMumb ai
L ittle
Ġback wards
umb ent
Ġnucle us
p res
Ġs izes
am bo
Ġas c
ret ion
ĠHistor ical
Ġvirt ue
M art
c os
ing le
ĠH iro
ĠCh ip
Ġass ignment
Ġworld s
Ġmiss iles
ĠSid ney
child ren
ĠA F
ĠTh ank
Ġsomet ime
Ġche eks
aut s
Ġdead ly
ĠNeg ro
Ġredes ign
ain es
Ġsu ck
Ġ28 0
Ġvol ley
Ġresol ve
Ġg orge
ĠAn a
ĠAll music
ĠRug by
Ġc it
ĠD ear
ĠR ot
ell es
Ġspe ar
ĠFl ood
ĠPat ton
ĠDaw son
Ġconstitu ency
ĠV a
ĠWill ie
ĠMon ica
Ġcompet itors
Ġball oon
Ġder iv
Ġpal m
Ġeth an
Ã ī
am y
ĠH aven
ill on
Ġident ification
Ġblow ing
Ġinfer ior
E m
r ice
ope z
On ce
Ġhar ass
Ġforg ive
Ġd ys
ĠAr med
medi ately
an as
ĠC rist
ĠN um
ish na
te gr
Ġinst ances
Ġrece iver
ĠPhil os
Ġincor rect
ĠArch ite
Ġemphas ized
b one
ir med
ĠE urop
ĠSt alin
ĠV iv
ĠLe ft
Ġloc ate
ĠZ e
Ġdetect ive
Ġveter ans
Ġconfron ted
Ġsuspic ion
M al
r ina
ĠC itiz
ĠB om
Ġpre val
Ġred d
Ġmoment um
clus ive
ĠFair y
Ġcom r
Ġch ambers
ade qu
ĠAust en
Ġprom ises
Ġclear ing
Ġden y
ĠTest ament
ĠG av
ĠL il
Ġste ering
ĠHol ocaust
Ġbi ology
ĠSpe aker
How ever
Ġflow ing
Ġveget ables
Ġwis dom
Å Ł
Ġspecial ist
Ġdu et
Ġadapt ations
g ov
out ed
Ġsub stit
Ġart if
Ġ185 7
Ġvac ation
Ġcongreg ation
Ð µ
Ġn ost
ĠG at
ĠL or
ĠJ a
ĠX III
ĠKore ans
Ġninet een
) :
Ġs urn
ĠG Ã¶
ĠIn formation
ĠSp iel
Ġneigh bors
Ġancest ry
Ġscrap ped
ĠCO VID
ĠD awn
reat h
row ing
Ġteam mates
ĠFl ag
ĠJo el
Ġanal og
Ġcrowd ed
Ġlimit ations
ĠÅ ł
Ġproced ures
Ġsoph istic
ĠS ter
Ġhe ated
Th anks
ĠFin als
Ġtur tle
Ġnodd ed
s ong
is ely
ĠH IV
th al
Ġret rie
Ġtrib al
ĠUnder ground
ters hire
Ġac ute
Ġhor rible
or se
ĠS ag
ĠP s
ĠP itt
ĠCh an
Ġrest ed
Ġseg reg
Ġautom atically
Ġunw illing
g ae
m id
Ġb red
Ġrelig ions
ĠFel ix
Ġhe d
Ġdis g
ĠPr adesh
? '
Ġla ura
Ġcatch ing
r imin
as se
Ġm ama
th s
ting ham
Ġdec ent
ĠPh ant
ĠHam mond
Ġsal v
ĠSoph ia
ĠS under
ĠA ch
ĠA IDS
ĠH i
Ġapp rent
ĠMus ical
fe ction
ĠPhilipp ine
Ġrefere ndum
Ġs her
Ġl oses
Ġsh aking
ok en
Ġher ald
ĠRe y
ĠRed s
Ġbes ie
ĠSebast ian
Ġ æ
Ġwh olly
Ġdis pos
ĠSc r
Ġ26 0
Ġprot ested
ĠMount ed
ĠQuar ter
ĠT uesday
Ġper m
Ġcr ay
ĠMir ror
De ath
Ġt u
ĠA then
us ions
Ġr ud
ĠJ unction
Ġph on
yn es
Ġabs urd
Ġmob il
m ir
ĠK om
Ġdiffer ently
Ġorgan ize
ĠMin ogue
Ġopt ed
Ġdischar ge
ĠS z
ĠSp in
ster dam
Ġcollect ive
ĠComb at
Ġtheore tical
Ġenforce ment
ris es
Ġreflect s
Ġresemb les
ĠMort on
Ġles bian
Ġc odes
ĠâĢ ²
Ġam end
ĠSh ore
Will iam
Ġabst ract
Ġb ishops
Ġl ords
Ġcont empt
omet own
Ġrequ ests
Ġsol utions
Ġval ued
ĠWrest le
chang es
Ġal iens
ra its
Ġunder lying
ĠSouth ampton
Ġline up
ĠHer gÃ©
Ġancest or
Ġintent ions
Ġc ement
es ters
Ġg le
id ays
sw ick
Ġbar b
ĠSing le
Ġfant astic
Ġpneum onia
ad ic
cc entric
orn s
Ġno on
Ġcountry side
Ġpat ent
Ġstrengthe ning
ĠS ally
ĠC ret
op us
Ġim ped
Ġday light
Ġeight y
ĠLo is
ĠBah amas
b ands
ri ve
Ġper former
Ġlar vae
Ġpo ets
Ġcour ty
ĠPresident ial
Ġslow ed
ĠGrand e
Ġprotect ive
Ġfat alities
Ġs aves
an ed
ĠH ers
ĠF M
ĠL opez
ĠBrit t
though t
Ġgen et
' ,
an iel
ĠD ol
Ġj ersey
ĠAr ist
Ġdisc rimination
Ġsoul s
l ord
ĠM ing
ĠM ouse
Ġfe es
hem es
Ġ184 5
Ġdefend er
Ã¨ s
Î µ
ul se
ĠL ux
ĠIn g
Ġbl og
Ġmus k
Ġsovere ign
im on
Ġfor ts
Ġgoal tend
igg s
ĠSur vey
Ġsubsid iary
Ġb ure
ĠB L
ĠW H
ĠL ay
Ġex port
Ġreg ulation
Ġadm ission
ym ph
ÅĤ aw
Ġsel dom
Ġsib lings
v ous
Ġsummon ed
" ;
Ġhe y
ow een
Ġacc idents
ĠAngel a
itte es
Ġdisp ers
Ġinvestig ations
g ence
Ġb ast
ent ry
ĠC ore
ĠC ulture
ĠOn line
Ġtour naments
D avid
k an
Ġm ars
id i
Ġdefe ats
ĠKenn y
Ġbot an
Ġstrict ly
Ġprog ression
Ġrook ie
z ens
Ġb inding
Ġp uff
Ġd anced
ĠT ask
ĠH utch
Ġmet aph
ĠPl aces
br ates
ĠPri est
ĠSal isbury
Ġnorthwest ward
ĠBus ch
Ġ ump
Ġs igh
Ġbe aches
un ct
art z
ann i
Ġpres ervation
ĠBe yond
Ġesc al
Ġdoub led
ĠDam age
Ġwhis per
5 00
Ġleg ally
ĠJeff rey
ĠSpiel berg
B ar
ou ped
th y
ĠN E
Ġsp arrow
Ġmed ian
Ġadm iration
Ġsett ings
Ġwebs ites
ĠHind i
Ġdece ased
W ould
Ġg ren
ĠE sp
ĠK or
ĠReg ard
Ġdeploy ment
ĠBright on
r ush
Ġb unk
ĠR Ã©
Ġpresent ing
Ġnational ist
Ġcorrespond ence
M ania
c aster
m are
Ġhe ating
Ġst icks
Ġwh ites
ĠR ip
Ġfort ified
AN D
Ġpun ish
Ġrum ors
ĠâĤ ¬
ar ity
Ġbe es
ur ated
ur red
us ive
Ġst ared
rit z
Ġdig est
Ġsp ray
Ġrock y
Ġuncomfort able
Ġcroc od
- +
l im
m itt
Ġa h
Ġthe or
Ġs inc
Ġf oul
cript ions
Ġroof s
is or
Ġpro long
Ġmat urity
Ġcr ushed
ĠTr ain
Ġcoll ar
ĠTor res
An ne
Ġspect rum
ĠContem porary
B ack
or ters
ot he
ĠD art
ĠN em
ĠE SP
Ġsh adows
man uel
ĠPal m
Ġencour aging
Ġdign ity
Ġd ances
ab ul
Ġle ase
Ġsc orer
Ġaw ake
Ġash amed
Ġupgr ade
ĠColomb ia
Ġd olph
ĠC ly
ist on
ke e
Ġcons erv
ĠAm sterdam
ĠBah rain
Acc ording
Ġal k
ĠR oth
Ġsh irts
by ter
bre v
ĠMah ar
ĠTun nel
Ġh ometown
ĠS my
ĠChap ter
U T
ad oes
ĠP R
ch io
ĠW ord
ra f
Ġback s
who ops
Ġcomprehens ive
r av
it ory
Ġpuzz les
an or
Ġre iss
Ġpos ed
Ġown s
ĠP all
ĠP irates
ĠD erek
Ġex ceeded
Ġrun way
Ġrun ners
Ġens emble
Ġtransform ation
Ġarc ade
ĠRepresent ative
an ne
Ġp orn
Ġst unt
ĠR ather
ĠF i
Ġfr ank
Ġwa ist
c al
o ops
Ġst ance
em ia
ĠJ G
Ġher s
so ver
Ġexp elled
Ġequ ation
ĠCal v
Ġreleg ated
Ġenact ed
Ġtradem ark
Ġtremend ous
Ġp s
Ġm ice
Ġm isc
us a
ĠJ in
ib i
Ġind uced
Ġthird s
Ġ185 4
Ã¨ res
ĠRoberts on
ĠBanks ia
ĠFergus on
Ġdors al
Ġt et
ĠR ank
ĠF ul
ort s
Ġen gr
ah on
Ġfound ations
Ġdesign ers
Ġfact ories
ĠAng els
ĠIm m
Ġsynthes is
Ġs ab
ay ed
ĠW ang
ĠL ions
osp here
Ġscreen writer
ĠLithuan ian
ĠO z
rib ly
Ġ12 4
ĠAll Music
Ġorgan isations
Ġtend s
ĠC reat
Ġnovel ist
ĠCle ment
Ġsen ator
ĠAssist ant
ig nty
ĠE agles
ĠY ale
Ġdevelop s
be it
Ġsn akes
Ġhun ted
An other
Ġprosec ution
Ġadopt ion
ĠJosh ua
Ġendors ed
Ġridic ulous
w ord
Ġh ood
Ġe ccentric
augh ty
Ġpeas ants
W as
ar re
ĠT ampa
Ġass essed
Ġkind ly
Ġter restrial
Ġactiv ists
Ġrespons ibilities
Ġp ic
ew ays
oy le
Ġbarr acks
ĠJ azz
Ġout fit
Ġdef ine
Ġep id
Ġ15 2
Ġcapt ive
Ġenh ance
ass ium
Ġinst inct
ĠMc D
ps y
Ġmist akes
Ġincorpor ates
Ġp sy
ĠD ame
Ġdis cl
Ġshow er
ĠHy d
Ġresour ce
v als
Ġre per
Ġse aled
Ġpe asant
Ġrecord er
ĠIndian apolis
ĠLeban on
Ġa ug
Ġto ile
Ġpass ages
Ġhand ful
Ġdep ress
ĠPar achute
Ġball ot
Ġwood land
Ġhot els
ĠWhit ney
ĠEconom ic
Ġplut onium
Ġguid ance
m al
r ors
ĠF ell
Ġ13 1
Ġstory lines
ĠAir borne
Ġbreak down
ĠLy nd
ĠIv y
ĠSponge Bob
I M
i em
l if
it ational
it ative
am oto
ig on
Ġ18 20
ĠAr d
Ġdec omm
ĠFor bes
tr ans
Ġlect ures
re cted
Ġin adequ
ĠA way
est ock
Ġno bles
ĠAndrew s
Ġre pt
ĠB ag
ĠG ross
ĠL ac
Ġcontin ually
Ġexp enses
writ ten
Ġbutt ons
H el
ĠW id
ĠE yes
Ġmar itime
agon al
isco very
Ġelement ary
Ġreflect ing
ĠEth iop
Gener al
f ar
i ago
ĠF ant
ĠE ighth
Ġch in
Ġcat ches
EN T
ĠB ly
ĠD um
Ġcontem pl
Ġec osystem
Ġpoison ing
N C
c hester
t ail
ĠP or
Ġcomp rises
oot s
Ġcolle ague
ĠNo el
ĠMan ager
Ġincorpor ate
ĠPolit ical
Ġbrig ades
Ġmos que
ĠL odge
Ġgr ateful
Ġsk illed
Ġhom age
o que
en o
us ement
Ġspec ified
ins ky
Ġclean ing
Ġtall est
ĠBol ton
p ets
se nd
ĠAr ms
Ġspec ially
ĠMon ument
ĠDist inguished
ucle ar
Ġnegot iate
Ġb other
ĠÂ µ
Ġconclud es
ĠDur ham
Ġwarri or
ĠG one
ĠK ra
Ġtr aces
ĠBl ock
Ġaccept ing
ĠArt illery
Ġavo iding
Ġb ells
om orph
Ġat om
ĠN L
ĠCh al
ĠBrit ney
Ġtrans mit
ĠDou ble
Ġmanufact urer
ĠSub sequently
Ġmicro sc
uther ford
E rm
b ons
r ise
Ġs ap
it he
ĠM iguel
ĠW ilm
em pl
ĠMar ion
Ġcap abilities
Ġ185 8
ĠEld er
Ġunn amed
U P
at che
Ġg ospel
ock ets
ful ness
ĠQu inn
Ġnation ally
Ġcontinu ously
b ane
Ġtr im
Ġar row
Ġsexual ity
Ġphilosoph ical
Ġtr ilogy
ath on
Ġimp at
Ġph ases
Ġorder ing
Ġpredecess ors
olith ic
ĠSunder land
Ġp and
ay e
ĠO bl
Ġi P
ĠGard ner
Ġincl ined
Ġpaus ed
ibl ical
Ġc ogn
ĠC yn
Ġhe ter
Ġen velop
vers ely
Ġperform s
Ġcomple ment
ĠBar ber
Ġmerch and
ĠPorts mouth
i w
al ie
Ġst un
ĠF alk
Ġaw ait
p ath
he res
ĠS pect
Ġor phan
Ġle ap
ok u
Ġmat ched
ĠMil ton
Ġnomine e
K ing
b en
Ġdo ggie
orm an
vious ly
Ġstat ues
Ġcou pled
ĠF ac
urn ed
Ġimm igration
Ġprop he
ĠPrincip al
Ġoffs pring
uxili ary
ik k
ĠCanad iens
ĠAmb assador
Ġo z
ou fl
ĠS ene
ĠP oor
ĠR id
ĠW ik
ĠJ ak
Ġtr igger
Ġdis ag
ĠY ank
Ġsing ular
Ġ12 00
Ġref r
Ġref usal
ĠSam my
Ġisol ation
ing ham
el ic
ĠM is
ĠD over
ra ught
Ġmod ifications
ĠDan ube
Ġpsych ology
ĠÎ ¼
ab ling
ĠK arn
ren ches
Ġret ros
Ġenlar ged
Ġs or
Ġl amb
Ġam ino
Ġnum er
ĠCo hen
ĠComp an
Ġgrad uation
ĠLind wall
S ure
V A
Ġc ared
id an
Ġch rist
ib e
Ġcor poration
Ġnecess ity
Ġpath s
cles iast
ĠRhodes ia
ĠJam ie
ĠAnim ation
ĠNept une
Ġp hyl
Ġl ament
Ġex pend
Ġint imate
less ness
ĠMin ne
Ġpract iced
Ġexpress ing
W est
ĠN one
Ġcount s
Ġfav oured
ĠDay ton
Ġnegot iated
ĠTurn pike
Ġdiagn osis
Ġspawn ed
E A
o ise
Ġal gor
ĠD ock
ĠBet ter
Ġobserv ing
ĠWhe eler
g ener
ong s
ĠGr ad
ĠMer ry
Ġthrow s
ĠBrun swick
O ld
Ġt ang
ou ble
ific ate
ĠJul iet
Ġdescript ions
Ġrejoin ed
id ad
ok i
land o
anc a
Ġinfl icted
Ġ185 6
Ġdepth s
Ġsymp ath
Ġtack le
Ġgest ure
Ġjuven ile
ĠUkrain ian
in ch
Ġv est
Ġ18 12
Ġcare ers
ĠTr avel
Ġfact ions
Ġcounter att
ĠHaw k
Ġhelicop ters
ĠBened ict
ipel ago
m ist
re ally
ĠS it
ĠR are
ĠF en
av ier
Ġgr im
c use
ĠT ong
ĠW ait
ĠBl oom
ĠAm azon
Ġpract ically
Ġshr ine
Ġhast ily
Ġlux ury
Ġ ell
Ġf iles
Ġm our
Ġex changed
ĠK un
ĠRe id
Ġachie ving
Ġrig id
i Ã³n
ĠS au
ĠD rew
ĠAfter wards
Ġdr inks
Ġpun ct
Ġpurs uing
Ġsubstant ially
Ġaccommod ation
Ġcatal og
ĠRI AA
Ġguarant ee
b red
art a
Ġinc on
Ġsocial ist
Ġkey boards
book s
Ġdies el
Ġencl osed
Ġpian ist
O D
e ur
Ġo t
ĠS ent
ĠW ander
up s
ial s
rib e
ink le
ĠRoad s
Ġ37 0
Ġvan ished
ĠLim ited
V E
z burg
Ġch airs
Ġret aining
Ġwater line
Ġintrod uces
ĠHam pton
Ġclim ax
ĠGal ile
cour t
Ġexclud ed
Ġbicy cle
Ġm asters
if ier
ĠK ann
ĠSchool s
Ġsymb olic
! '
G A
k rit
an other
th ood
Ġpro c
Ġtr aced
ret ched
Ġprob able
ãĥ ¼
ĠSand ers
ĠFerr ari
Ñ Ģ
ĠC arson
Ġnew er
ĠBe a
ĠOut side
Ġcerem onial
Ġcheck ed
ĠWy oming
ĠUlt imate
Ġa ims
in os
Ġo re
ĠS le
ĠW oll
irc raft
id y
im i
av i
Ġad am
Ġbel oved
let te
Ġcrit eria
Ġfavour able
Ġcorrect ly
ĠHend rix
ĠPruss ian
ĠK ids
Ġco ached
ĠPar ad
amb a
Ġhon ours
ĠÃ ĸ
agon ists
Ġuncom mon
ĠMethod ist
Ġh ire
ĠM ats
Ġsc iences
Ġtechn ologies
Ġreun ited
Ġorb its
Ġinnov ative
] ,
m ail
t em
Ġfl ames
Ġsup reme
Ġfin s
Ġfr ames
Ġlands l
Ġdisagre ed
c row
ĠB il
Ġab olition
Ġpre ference
Ġmar ching
Ġdep ot
ĠCan ber
Ġsubject ed
Ġforb idden
GB T
s up
is ible
ĠC ord
ĠLe ip
Ġdeg ener
ropol is
ĠCrit ical
ĠEngine ers
ĠA is
am ic
ĠK ur
Ġus eless
Ġreg ain
ĠCon rad
ĠAle c
umn i
Ġbroadcast ing
ist ani
og ne
oin ting
Ġpain ful
Ġmagn ificent
occ up
ĠP ike
ber to
Ġpl ains
ĠAd olf
Ġfr am
ĠTun is
ĠSylv ia
el ong
Ġsa x
ĠZ oo
ĠHar bour
ĠStr at
ĠWrit ers
s ure
x ter
Ġb ike
as ma
ic z
Ġpre jud
ĠAl am
Ġobject ed
c ame
f ight
Ġal beit
ĠW itch
Ġle aked
Ġdis gr
ĠSh aron
ĠKing ston
Ġmed ic
Ġund e
Ġnarrow ly
Ġnarr ator
f ied
m ake
en ary
os ure
ĠJ ag
if ax
Ġint rig
Ġunder graduate
oss ip
Go vern
Ġterror ist
Ġmanuscript s
ĠJess ica
Ġm all
st ory
Ġwas hing
Ġbe ef
Ġinter face
ĠBro ck
ĠSing er
Ġimm ense
Ġsem if
Ġspin ning
ĠStaff ord
S orry
ĠTh ir
Ġdis in
ib ald
Ġtw ins
Ġrecommend ation
ĠOm aha
ĠShir ley
s it
ĠB iden
Ġor n
Ġsu ed
Ġfun k
Ġmanag ers
Ġexam ine
Ġalt ar
Ġmanufact ure
ĠAsh ley
Ġmaneu vers
ĠAx is
L D
Ġp irates
ĠC oul
ĠV i
Ġren owned
Ġradio active
Ġiron cl
ĠAntar ctic
ĠTimber lake
P ol
i ology
l oo
our t
Ġtr icks
arr ondissement
ĠS omething
ĠF ine
Ġdes erted
ft en
ĠCar roll
Ġfr ustrated
Ġve ctor
iction ary
eld a
ĠVar iety
Ġorb ital
ĠAl ger
Ġcomb ine
Ġwear y
ĠBrad ford
Ġvir uses
Ġconsum er
H i
h arm
k ar
ig ue
ĠR hys
op old
act ical
Ã³ w
Ġconcept ion
ĠRos a
zy me
Ġpublisher s
Ġow l
el o
ĠM ath
Ġpre view
ik er
Ġpitch ing
ĠLess er
ĠStef ani
Ġh alt
Ã© es
Ġsent ences
Ġstat ute
Ġblack s
ĠCong o
Rober t
intend ent
5 5
Ġt ier
ur rent
ĠL ak
ne e
oh l
ĠMar cel
Ġnorth bound
Ġeffect iveness
Ġeight eenth
Ġconcent rate
ĠGre ene
Ġde ity
ib a
Ġsp iders
ĠMar illa
erv ing
Ġsun light
Ġg ases
ĠNew ark
Ġsy ll
Ġent ries
Ġext ant
Ġdam n
Ġ185 5
Ġlog ic
Ġgreet ed
Ġsear ched
l ov
ĠA FC
Ġst amp
ĠW ong
ĠN OK
ĠO N
Ġunder m
Ġ12 1
Ġdet achment
ĠGo eb
Ġobs ervers
Ġcompl aint
ĠPop ular
Ġshel ters
C he
Ġp arl
ĠA hm
Ġcar pet
Ġ14 7
Ġcur iosity
Ġposs essions
Ġfre estyle
can al
Ġcolon ists
ĠLaf ayette
ĠH ear
ĠW ade
aw i
Ġinter rog
ĠGeorg ian
aun ton
Ġtrail s
ĠJen na
Ġadvertis ement
ĠWinc hester
t or
at um
uss els
Ġer up
Ġanal ys
Ġsovere ignty
Ġsupern atural
Ġsulf ur
ĠA U
am ents
Ġle nd
Ġcl usters
ĠCom ic
Ġpop e
ĠTr ack
Ġactiv ated
m aking
r ative
ĠD ana
ul ent
ĠSh ack
Ġavail ability
Ġ184 9
Ġinstall ment
Ġhab its
f ires
ĠB end
air d
Ġmot ivated
Ġsed iment
ĠBird s
or por
al ine
ic ating
Ġst ays
ĠD onna
ĠG ael
ĠL az
Ġab brev
Ġsc hemes
ĠBl aine
Ġexhib its
ĠWrestle Mania
ĠK end
Ġun necessary
Ġ3 20
ax ies
ĠTr adition
rew s
Ġlo vers
Ġadequ ate
z ym
at as
ĠC ay
ĠP ix
Ġse w
iv ided
Ġv eto
Ġseason al
ĠSup porting
Ġang les
ĠUlt imately
Ġrecip ient
ĠM A
ĠH ank
th ia
ĠR ut
ĠG iven
Ġsup press
Ġbre ach
ator ies
ĠMet all
Ġninet y
d ad
ĠT roy
ĠD ry
ĠGet ty
ĠSug ar
ĠPriv ate
Ð ½
st ep
ĠG ould
ĠSh ane
Ġcur ric
ĠPun j
Ġorient ation
J ames
b ably
in ating
Ġst ing
ĠO C
ĠBe hind
Ġwrest lers
ĠPear son
ĠFil ip
Ġcourty ard
er get
Ġw ax
at z
Ġin ability
ĠW orth
op en
gh ai
ĠAssoci ated
Ġimm ort
Ġharm ony
ĠHold en
er ting
ĠP ole
ul ance
Ġref it
Ġenjoy ing
Ġautom obile
Ġintercept ed
u um
u ins
ur ai
Ġman or
Ġmathem atic
Ġcinem at
Ġmillimet res
Ġsupple ment
ĠESP N
4 2
and ra
Ġgu ilt
Ġgener ous
Ġsuggest ions
ĠScient ists
Ġcontroll er
as is
ĠS leep
our g
Ġcomm ended
ĠCom pton
Ġtotal ed
Ġinde x
Ġconclud ing
Ġattrib utes
ĠLegisl ative
ĠI TV
th ink
ĠE ston
Ġinvestig ating
Ġkingdom s
ĠWy att
Ġh orm
" '
Ġpl ag
Ġle isure
red ited
ĠV on
fore st
Ġinv ested
Ġdr ank
ĠItal ians
Ġhun ger
Ġge ographical
ĠChe ss
Ġneighborhood s
avil ion
e a
ĠS yr
ĠHe ights
Ġcl ause
aj i
Ġfur ious
ĠSav age
ĠMcM ahon
Ġaccum ulated
ĠAdri atic
Ġd up
ĠH ollow
Ġdev otion
Ġt ones
ĠC G
ĠH M
ĠR utherford
amp h
Ġsl ot
Ġfresh man
ĠBart on
Ph one
Ġvari ants
Ġredd ish
ĠF iction
bo ats
ĠRich ards
ĠProv idence
Ġmotorcy cle
Ġh ub
Ġn uts
Ġout lets
ĠSp ot
sh adow
Ġref using
ĠEven ing
ĠCanber ra
ĠH undred
ul i
ĠG ret
ens ing
old ing
Ġ185 2
Ġconfig uration
ĠSans krit
k ov
t ree
Ġl ing
Ġwh istle
ab ase
ĠK ol
Ġvalley s
Ġresemb lance
ĠRoc hester
ucking ham
Ġlung s
p ot
Ġn as
ĠB irth
un ks
Ġcon grat
ant i
Ġsh ade
Ġch at
Ġshe ets
Ġpol es
Ġport raits
Ġz inc
Ġimag ined
Ġexplicit ly
ĠGuadal canal
O ver
g one
Ġd ared
Ġv ag
ish a
oe uv
ĠWeb ber
Ġuncertain ty
ĠS K
ĠB j
ace y
iz ards
Ġprec urs
Ġhun ters
Ġlegend ary
ĠLyn n
E P
es ame
ĠP yr
ri o
if a
Ġhigh lights
Ġtown ship
Ġprin ts
ĠArab s
ĠHal ifax
ĠAst ron
Ġrelie ve
s ch
Ġen erget
ĠAnd rÃ©
sh ow
ĠOr lando
Ġlocal ity
Ġrespons es
Ġscript s
Ab out
Ġpromin ence
O P
Ġc ros
Ġl ions
ĠE ye
ĠNorth umb
Ġchemical s
Ġisot opes
9 9
c ap
r ator
s ing
Ġwar n
Ġamb ition
m atic
r ust
Ġp anc
cl air
Ġrel at
ĠGo ogle
ĠAir ways
ĠCo ach
Ġlem ur
ĠCret aceous
ĠAis ne
c ence
Ġo val
Ġan onymous
Ġv ivid
Ġassoci ations
ĠCa uc
op ot
Ġmake up
Ġshort age
Th ree
Ġinf ect
Ġstar ing
Ġcurrent s
Ġpoll s
ĠEvery thing
Ġblank et
ĠDod gers
ĠP ret
ĠF ow
Ġtim ing
Ġteen ager
rit ies
ĠV at
ĠPl ains
Ġjew el
Ġutter ly
ĠVlad imir
st ick
ir ie
ch y
ĠR ook
Ġmed ley
Ġmid fielder
rug u
4 1
Ġb ob
ĠP ool
Ġover time
ph ones
ĠMon ten
ĠJack ie
Ġmater nal
Ġrail ways
Ġhall s
Ġcool er
Ġsurge on
Ġecho ed
ĠHast ings
m aker
in h
re ation
ĠT ina
Ġg ale
Ġcon form
Ġpl acement
we ed
Ġland sc
ĠMer cy
gest ion
Ġreh abil
Ġp agan
ter ing
ĠH od
ĠR aven
Ġco aster
ĠPres byter
Ġcirc us
Ġshoot s
Ġ184 7
Ġcha os
ĠGlou cester
Ġsurn ame
l ia
Ġ ãĤ
Ġt renches
Ġf us
Ġp istol
il us
ĠC ertain
ĠD ew
Ġret ro
be ck
Ġhost ing
Ġdoor way
Ġsupposed ly
Ġvac ant
ĠNap les
Ġdelight ful
Ġnut ri
Ġl av
oc ate
ĠSt rang
Ġno is
gr aded
Ġloc ks
ern s
Ġconst ellation
Ġmor ale
ĠInter ior
Ġpan ic
Ġpir ate
b at
Ġb inary
Ġl ent
ĠB rent
Ġst alk
Ġwh ist
ĠR hy
oc o
Ġatt ain
ĠAmer icas
Ġbow ler
Ġmort ar
Ġgal axies
d og
ĠV augh
Ġapp ar
Ġlaun ching
Ġlink ing
ĠPre fecture
ĠVenez uela
ĠRup ert
Ġoverh aul
Â ²
en stein
Ġp ause
ĠJohn s
ĠCon n
ki en
Ġdram atically
ĠPalest inian
ĠHispan ic
O ut
ĠC IA
Ġsh one
Ġro ss
Ġ185 3
Ġemb ry
ĠIraq i
ĠCzech osl
Ġpip es
ĠP aper
ĠU g
Ġcl ad
Ġover head
Ġover see
Ġsouth bound
Ġfinanc ially
Ġtorn adoes
Ġconvinc ing
ĠMinne apolis
Ġb ind
Ġp ac
ĠG aza
oh an
Ġ... .
unt a
ĠBo hem
Ġdiam onds
Ġquant um
ĠDest iny
ust omed
ĠMag gie
hib ition
Ġ184 6
Ġeleph ants
ĠB uckingham
ĠV ed
Ġcomp elled
Ġqu ot
ĠBr ussels
Ġhel met
ĠPaul o
Ġaffect s
Ġvirt ual
ĠCla ude
ĠC u
ag ara
Ġshe er
Ġappl es
Ġtail s
Ġdomin ance
Ġhero ic
Ġscre ened
ĠCher ry
Ġacceler ated
ĠCh ambers
Ġ3 30
Ġcre pt
gg ed
ric ally
Ġadm its
ĠKnow les
Ġtherm al
fam ily
Ġpresum ably
Ġpostpon ed
Ġg ills
ap l
Ġexcept ional
ĠCec il
ĠDecl aration
S am
r ament
Ġ umb
ou k
ĠM ist
ort on
Ġper ipher
Ġhalf way
ĠMic key
Ġodd s
Ġrecre ational
ĠAngl ican
ut a
ĠH ir
ĠH og
ĠD iet
Ġsu its
Ġind ul
Ġdecl ining
who a
Ġprop eller
bu ilding
m ight
Ġp oured
ĠB Ã©
Ġr h
ĠN S
ĠV ince
ĠTe en
ĠCor on
ounc ill
Ġsun set
ĠNik ol
ĠNon etheless
ĠBeaut y
Ġdecomm issioned
c over
Ġl ighthouse
ĠL ans
ĠN im
ip ur
Ġ5 50
Ġsm ugg
ĠGu err
ĠNe igh
Ġviol ation
ĠThor pe
Ġfare well
ĠMiddles ex
y on
ĠI T
ib les
ĠRe in
Ġhel pless
ĠBy rd
ĠHer ze
Ġlab els
Ġrob ot
Ġble eding
ĠHem ing
ĠHait i
le ctions
iz za
Ġfl ung
Ġsw ear
ett i
Ġarchite cts
haw ks
Ġrect angular
Ġank le
Ġc aves
Ġp ose
Ġth res
ĠCh a
Ġorgan ism
Ã¡ r
Ġaccept able
ES CO
ĠPak istani
Ġcrimin als
Ġabund ance
he arted
ĠC ultural
ĠC razy
ĠP os
ĠL GBT
hold ers
ĠRo vers
ĠHistor ian
Ġpor ch
Ġaffili ated
ĠCai ro
ĠBritt any
Î »
Ġch ased
ĠK re
Ġinter vals
Ġcr us
ĠWe ber
ĠEurope ans
Ġequ ality
Ġnation wide
Ġsand stone
Bl ack
Ġadvertis ements
ĠS Ã£o
Ġn Ã©e
ĠH utton
ĠL og
Ġher d
Ġso b
Ġed itors
Ġcelebr ations
Ġthunderstorm s
Ġmiser able
al us
Ġty r
ĠEx change
ĠKn ox
Ġcontact s
ĠTon ight
Ġcentimet res
i u
ĠG em
ĠL ich
ib an
Ġhel ium
Ġadm iral
Ã¡ s
Ġens ured
Ġfung i
ĠS ang
st ones
Ġbe ard
ord ination
ĠComm odore
Ġtw ist
Ġprin ces
Ã¤ r
M ad
Ġl ith
ĠS eth
Ġre venues
Ġg am
am med
ĠH V
op oly
Ġup right
Ġrec ol
Ġdown ed
Ġmill imeter
lect ric
Ġaver aging
Ġshoot er
AR D
ĠHun ting
c orn
s burg
Ġp ioneer
ĠT ank
ĠB oul
ĠD ata
op ter
Ġv in
ĠZ imb
ĠMy c
Ġexcept ions
Ġ184 4
Ġprec isely
Ġmel ting
ĠMos es
Ġrepubl ic
Ġmant le
s omething
he e
Ġf u
ters on
Ġbreak through
iat us
ĠSant iago
Ġske let
Ph il
Ġsophistic ated
in ia
id ium
ĠF olk
res cent
ĠPat ric
ĠWin ston
Ġ183 2
ubb ing
ĠEngine er
ĠMov ing
Ġpray ers
ĠLeip zig
o ic
Ġ q
an za
Ġn erves
ir ling
Ġas hes
ri ver
ĠK amp
ĠTh irty
ier re
Ġvis uals
Ġvict orious
Ġpay ments
Ġcust omer
ĠVol ume
Ġlisten ers
Ġg ymn
ĠB ret
Ġsound ing
ĠScout ing
Ġliv estock
ã Ģ
et ers
un ion
Ġdeb ts
Ġcomplex ity
Ġapprec iate
ĠObs erver
Ġswift ly
ĠFull er
M ont
ar f
ĠL ing
ond o
Ġwhere ver
uck le
Ġport rays
Ġconf isc
ĠNe ed
Ġgas oline
Ġtrust ed
ĠWeb ster
ĠConc ert
d em
Ġh i
ĠN ig
ĠN ME
ĠV es
Ġ6 50
Ġshort s
c u
Ġp ub
ĠA ven
ad vant
ĠU rugu
Ġdo zens
Ġgr aves
Ġgot ten
Ġchart ing
Ġsett ling
ĠDam asc
Ġpenc il
in as
Ġm ating
Ġover night
anc er
ah an
Ġcor al
ĠRet rieved
Ġdiff ers
Ġcateg or
Ġr er
ĠJ ets
Ġrec apt
Ġfl aw
ĠFl ash
Ġ184 1
ĠVer de
ĠCorn ell
ĠSher iff
Ġbag s
ĠSalv ador
Ġcontempor aries
B rit
Ġt ens
Ġg own
ĠM oor
ĠG ospel
ĠKr ishna
Ġincorpor ating
Ġfeed back
Ġ {
ig uous
ĠU P
Ġab ortion
empt ion
ĠNor wich
Ġwild life
ĠOak land
ĠWes ley
r aged
y p
ic ol
ĠC oy
Ġbe ans
Ġhe ights
ĠO S
Ġdec oration
Ġannoun cing
Ġdev ised
Ġsusp icious
Ġsurround ings
S ometimes
Ġg rie
ĠM iz
ĠN ame
ĠJ enny
iz able
Ġwhere by
oot ing
Ġbox ing
ante ed
Ġremind ed
ĠP red
Ġab n
Ġrel ate
sh ot
Ġsac rific
Ġdisapp ro
Ġconqu er
l ore
Ġm ates
Ġl umin
Ġe ats
Ġg ast
ĠC ul
ut z
ig ion
Ġarch bishop
ĠOp pen
atern ity
b aby
ĠS aid
ĠR S
Ġex empl
ĠDr um
for ward
Ġpress ing
Ġteach ings
aun a
Ġmoder ately
Ġtrigg ered
en za
Ġf als
Ġd umb
ĠB M
ard i
ĠCo ch
Ġimplement ation
Ġprosper ity
k ill
Ġs odium
ĠV ent
gr oup
ĠBel grade
ĠStud ents
Wh ich
ĠGuatem ala
ĠBris bane
Ġd itch
ab we
led on
Ġinvest ors
Ġdispl acement
ĠBra h
ĠNad u
Ġmonitor ing
ĠNiger ia
ĠShan ghai
g age
Ġr isen
gr ave
Ġsl aughter
ins ki
Ġprob ability
ĠArt ists
Ġplat oon
ĠTs ar
u ish
he ard
Ġf ountain
el age
ĠD uck
Ġgr avel
Ġmin ers
Ġinst ruct
ĠVir t
Ġlabel ed
Ġreprod uction
H A
Ġs acked
Ġv iral
ĠSt am
Ġbroad er
Ġmor ality
H en
Ġh ither
Ġg ir
ĠM I
ĠD im
Ġded ication
ĠOsw ald
d el
ĠM ater
ak ov
iv orous
ĠRe be
Ġins urg
ĠBro oke
Ġcult ivated
Ġtail ed
ĠWrit ten
Ġrecover ing
Ġdimin ished
C o
d isc
Ã ¯
Ġb orne
Ġl ou
âĢ İ
Ġres ent
Ġdep ressed
ĠPr ague
Ġcompos ing
Ġportray ing
Ġevac uate
Ġf eder
ĠS ask
ĠM its
ay ing
ig i
ill ion
Ġtr agic
Ġro ses
Ġoper ators
Ġhy mn
ĠHy de
Ġgram mar
Ġst ip
ĠR i
ĠG ore
Ġle ts
Ġsu cc
ĠMar qu
Ġmon keys
Ġtrans mitted
alf ord
Ġtre ason
Ġaccept s
Ġaccount ing
Ġdiss atis
lyn n
Ġinspe ction
ĠHerze gov
Ġto re
ĠD ixon
Ġpro se
ĠK ash
Ġman ual
ĠJul ius
Ġmountain ous
ĠCard inal
Ġrebu ilding
ĠThe od
stad t
Ġincred ible
Ġtelev ised
B L
ĠT ip
ĠT ax
am en
ĠD ow
Ġart ic
Ġview er
ER S
Ġamount ed
Ġbal anced
ĠEle anor
Ġovers aw
Ġfrig ates
p ack
ĠC L
ot er
ag ua
Ġad ul
Ġ12 2
Ġgu err
Ġship ments
Ġspir al
Ġabrupt ly
4 3
Ġh ob
ĠT ud
el ius
ĠR ox
Ġmer cy
Ġpun ished
ĠMir anda
Ġmort ality
Ġsculpt ures
ĠAbd ul
Ġdeterior ated
G reat
Ġh ailed
ĠH im
ĠP oss
ĠR ama
ĠSt ark
ah u
Ġmon k
fortun ate
ĠDamasc us
M ary
or um
Ġout line
ll a
Ġco b
Ġsk irm
Ġnortheast ward
Ġcompar isons
Ġbath room
Ġcalc ium
Ġremn ant
el ed
Ġe ve
ĠM Ã©
ĠR otten
ĠG ob
ĠN ina
Ġcook ies
Ġhat red
ĠGal axy
Ġrecommend ations
Ġinstru ctor
ĠCred its
ĠHoff man
Ġw age
ĠR ican
Ġwe aker
Ġent ity
Ġposs ibilities
Ġce leb
ĠDire ct
Ġsail or
Ġuniform s
ĠValent ine
Ġth irst
Ġbe w
ĠM ons
Ġst ained
Ġr anch
ĠE MI
ĠSe ym
Ġpe ers
Ġinter l
Ġpat ches
ĠNot tingham
Ġfit ness
Ġcook ed
enh agen
f inger
n ar
Ġme als
Ġver dict
writ ers
Ġ183 7
ĠCommun ications
Ġconced ed
Ġinfin ite
Ġ ions
ĠS tern
ĠE gg
ĠE rie
ign y
ĠLe vel
ĠEx amples
bor g
Ġill umin
Ġbroadcast s
Ġ179 0
Ġic onic
ĠVik ing
Ġkidn apped
ĠF o
pl ant
Ġdon ations
ĠĠĠĠĠĠĠĠ ĠĠĠ
ĠX II
Ġprocess ion
Ġmuseum s
Ġsket ches
Ġc ows
al ore
Ġm ould
Ġh ut
ĠM old
Ġas p
ĠN ote
ĠN olan
ĠÃ ħ
ĠGrand father
Ġ183 6
agn etic
ĠVol unte
Ġguar anteed
F R
es y
Ġch op
ĠLe opold
Ġgener ic
Ġsouth ward
Ġreview ing
ĠRand olph
Ġris ks
pow der
Ġh ay
Ġl umber
Ġg a
Ġinc ap
Ġaver ages
ĠCr ash
che v
Ġprem ier
ĠEmp ress
Ġdiscover ing
ĠRem ix
Ġdisag ree
Ġt rench
Ġs ore
ed o
ĠS AS
Ġn onsense
ĠP Ã©
ĠW u
Ġun official
Ġam usement
Ġcap ability
ĠCar penter
Ġinform al
Ġself ish
ĠFore ver
Ġmush rooms
Ġre appe
ĠK aw
Ġcomp ose
Ġgr in
ĠDe e
Ġinc umbent
Ġcomb ining
ĠLouis ville
Ġlog ical
ĠJoe y
ĠKit ty
Ġautob i
Ġassoci ates
Ġtest ified
ĠIm mediately
Ġcand le
ĠMong ol
Ġgran ite
ĠSeym our
Ġ à¤
ly ph
ĠM olly
ud er
ĠV ishn
Ġreg ener
Ġrep orters
Ġpo etic
ĠMy ster
Ġreact or
isher s
Ġapprec iation
Ġthir teenth
an ic
ĠA ircraft
ĠP od
ĠJ ed
ĠBar ack
Ġant agonist
ĠCr an
ien ne
ĠCub s
ĠWarri ors
Ġgamb ling
Ġmembr ane
mov ie
clesiast ical
Ġfram ework
orpor ated
l ot
on ing
ĠG wen
Ġpl ac
Ġbet a
ane y
Ġste als
Ġdefend ant
Ġsens ation
Ġdepos ited
Ġclin ical
Ġaccus ations
Ġceleb rities
at ri
Ġstri ker
Ġcryst all
Ġlean ing
Ġol ive
Ġplum age
c ule
Ġs ack
Ġs perm
Ġf its
gr and
Ġcolle ctor
Ġmag ist
Ġcand y
Ġdoub ts
ĠLo ire
load ed
B el
Ġle v
Ġsa uce
ph is
Ġmin istry
app ers
Ġbroad ly
ĠCap com
Ġaccur ately
g iate
Ġm ol
ĠI B
Ġbl ade
Ġshow c
Ġ13 2
Ġstri pes
Ġmess enger
ĠDi á»ĩ
Ġconvent ions
Ġanch ored
ĠGene va
Ġcam oufl
Ġkilog rams
ĠGael ic
ĠZimb abwe
b ig
c hel
Ġth ief
Ġgr ades
Ġinc arn
Ġla wn
ĠLo ch
Ġrid ges
ĠTel ugu
ĠLex ington
f red
Ġan ten
Ġse ating
Ġind ign
ĠWor cester
ĠJud y
Ġpill ow
ĠBron ze
ĠIsab el
ĠSuff olk
p ole
Ġt ips
Ġb oring
Ġb rows
th ouse
ĠD und
ĠShe n
Ġmill s
Ġtop s
ĠBer gen
Ġemer ge
ĠBuddh ism
D oes
f orth
Ġal oud
ĠK w
Ġtw isted
ĠChrist ine
ĠHall oween
ĠTrans it
Ġinadequ ate
á ½
ĠU ran
ĠV ocal
Ġstri ps
ĠMcC l
Ġreform ed
Ġinterf ere
Bill board
ĠEurop a
ĠHeming way
ĠHerzegov ina
all i
Ġv ine
Ġpe ep
Ġsec rets
Ġdist ract
Ġhapp ily
Ġsand wich
Ġnurs ing
ĠHein rich
Ġaest hetic
Ġphysic ist
) ;
f urt
Ķ Ĥ
st aff
Ġr iots
Ġcl iffs
ĠAr cher
ces tershire
Ġstar ter
ĠEm inem
ĠWork ers
Ġconfront ation
C E
Ġp yramid
Ġn iece
ĠP aw
At l
ĠDar ren
Ġconce aled
ĠVern on
ĠDiá»ĩ m
is se
Ġbe friend
ĠD ot
ĠD ash
Ġsh ale
Ġcl aws
Ġdis rupt
Ġsp elling
ik ing
Ġmin erals
Ġtreat ing
Ġaccount ed
Ġdeliver ing
Ġnest ing
ĠKap oor
Ġloos ely
Ġs addle
Ġd amp
ĠT oad
ent on
ĠH ess
ĠH oney
Ġman ned
ĠLe y
Ġi Phone
Ġdeb ated
Ġsuperv ision
b ased
Ġt ire
at os
an throp
ĠCh am
Ġcons oles
aster ly
ĠQu int
co at
Ġhang ed
Ġfrag ment
ĠAut o
Ġbrut al
M ichael
t elling
Ġthe ology
ar ck
om ans
ĠM oss
ĠL iv
Ġcl own
arl ow
ĠMat ilda
ĠMaur it
ĠLad ies
Ġconven ient
ow l
Ġaddition s
Ġinf ections
Ġtal ented
ĠPers ians
ĠSystem s
Ġcart oons
ĠUN ESCO
ĠNick el
Ġsatisf y
Ġeager ly
Ġhect ares
ĠYank ovic
Ġh airs
Ġpe er
Ġnow here
Ġhum orous
ĠKe ys
Ġquestion ing
ĠCorn er
Ġtribut ary
Ġprolong ed
A ugust
L ou
Ġc uis
Ġup ward
ater nal
ĠRe form
air y
Ġsee ks
ĠPl ain
Ġ183 9
Ġmechan isms
Ne xt
Ġmargin al
Ġsuperst ructure
Ġs ided
ur ry
ĠE b
ĠHe p
rit e
oin ing
ĠAl onso
Ġbl oss
ĠSm art
Ġfarm land
ĠOl ivier
Ġdefin ite
ĠAR IA
Ġposthum ously
Ġregist ration
v ision
Ġb urg
et ed
Ġdef ining
Ġcount ing
Ġem bed
Ġph arm
Ġdel icious
Ġprof itable
Ġcult iv
ipp ers
ĠHard ing
och ond
Ġ177 6
ĠLion el
I m
Ġp ension
ĠV iol
ens en
Ġgovern ors
Ġsw orn
Ġacad emy
Ġresemb ling
Ġfro st
Ġow ed
s ub
il er
ĠL ip
ĠE g
Ġcor pse
ĠAb original
ĠKr ak
Ġstret ching
ĠCinem a
Ġacquaint ance
ĠÂµ m
ul ative
ĠL C
Ġcollect ively
n ant
Ġb ail
oc aly
Ġpres umed
Ġexpl oded
ĠPar agu
Ġsqu irrel
Ġneg lected
ĠLore n
R ich
Ġt ast
Ġb ubble
Ġb achelor
ly ss
Ġst ro
ĠG entle
ĠK ind
Ġen zyme
Ġsp ells
ath i
Ġwill iam
Ġpop ul
Ġconv oys
Al pes
Ġid ol
ĠEnvironment al
Ġpsy ched
d aughter
ĠS pl
th on
ill as
ĠE instein
op a
Ġkn ights
rap h
Ġexpl oring
rod e
ĠAnn ual
Ġpin ned
Ġscar ce
Ġobst acles
ĠMans field
ĠAndre a
ĠP P
Ġsu ite
Ġman oeuv
ĠAn imal
Ġmon soon
ĠFro st
O l
p ill
ĠB ax
Ġdesign ing
ger ald
sc he
Ġyield ed
st ra
ĠP ir
ĠN ay
Ġrit uals
ĠPrim ary
Ġarr ange
ĠS yn
Ġv ampire
Ġpl ots
ke eping
Ġgr ouped
rib ution
Ġcons ort
Ġmat rix
Ġaut o
Ġpers istent
cont inental
Ġconsult ant
agre b
Ġnurs ery
ĠSaf ety
S ec
us p
ĠJ et
ĠJ oker
ign e
Ġpr one
Ġappe als
Ġ15 00
Ġins erted
Ġgl am
Ġpen alties
Ġblock ing
ev o
Ġcool ing
Ġere ct
Ġgoaltend er
e ed
ĠD iane
ĠU tt
rod uced
ĠÂ §
g ren
n othing
z an
Ġf aded
Ġk in
vers ion
Ġ11 6
Ġsimilar ity
udd ing
Ġdev ote
St ar
Ġneighbour hood
Ġreop ened
j ord
Ġw ires
Ġsh ores
ond a
Ġdis orders
Ġsp ans
Ġmin us
Ġinv isible
Ġstr ained
ĠCol ony
Ġel imination
Ġty ing
que z
ĠCorn ish
Ġexped itions
ĠMot ors
ĠLook ing
Fr ank
Ġurg ing
ĠTraff ord
ĠTasman ia
ĠMoroc co
W R
Ġv ague
Ġso ber
orn ed
ĠZ agreb
Ġfac ial
Ġgrad ual
ĠFilm ing
Ġmel anch
ev iÄĩ
Ġrent ed
Ġculmin ated
h un
Ġas pir
ĠD ors
ĠL un
ĠCh ronic
ĠShe ar
ple asant
Ġappro ve
Ġobtain ing
ĠCop enhagen
Ġoxid ation
H a
us an
ĠL Ã¼
Ġgo at
og o
Ġres ume
Ġinter im
Ġwar ming
Ġla uded
Ġste amer
Ġtou ches
Ġquar rel
ĠTre vor
Ġweigh ing
m ass
Ä ±
ous ing
clud ing
ĠSh arp
Ġpat ience
ĠGl ac
Ġple aded
Ġ183 8
Ġcommemor ate
ĠGand hi
f ax
as per
ĠM GM
ĠB un
ĠSouth west
ĠGeor get
Ġinfl ation
Ġbats men
r ics
Ġf anc
Ġin k
al an
ĠS elf
ĠB ard
Ġpl ed
ĠIn spe
ud ge
Ġcl ients
Ġcas em
r s
Ġst ab
ip se
Ġun stable
Ġfound ers
Ġjust ified
Ġke eper
Ġâ ĶĤ
Ġcounter part
Ġsand y
imb ledon
id ian
Ġhe aling
part ement
ĠPant hers
Ġmoist ure
Ġw rist
Ġw rought
ĠT eddy
ĠI g
ĠM are
ĠK iel
Ġop pose
Ġend emic
erm aid
Ġdeterm ining
Ġemb assy
ĠStew ie
Ġcheer ful
ag ram
Ġde ities
au kee
Ġneed le
Ġinfl amm
Ġlo ans
ĠWild life
Ġmarry ing
Re ally
4 6
f its
Ġc ries
Ġp ony
Ġe ch
Ġr ides
ĠInd ivid
Ġmer it
ĠAC C
Ġboil er
f ork
Ġl ac
ch urch
Ġab bey
rit ion
Ġen zym
Ġagre ements
imin al
ĠChief s
Ġopt ical
Ġfilmm akers
r ag
s ed
Ġth umb
ĠB rom
ĠP itch
ĠK Ã¶n
ron gh
ced ented
Ġperiod ic
Ġmel odies
rain ts
Ġske pt
ĠFace book
en ic
Ġper imeter
ĠRe ver
urt les
ĠLaw s
E v
el iness
ĠA us
port ant
Ġappe nd
Ġdiscover ies
Ġintegr ation
Ġinteg ral
ĠPresbyter ian
ent er
ĠF erry
Ġse als
ab lo
ĠK atherine
Ġinv as
Ġtemper ate
Ġprem ise
Ġbeautiful ly
Ġathlet ics
List en
t ically
ul ator
Ġcomm ittees
end ing
aj o
ĠZ elda
fl ower
Ġdem olition
Ġsw ung
ĠGu am
Ġresp ir
ĠMan ila
Ġcreat ors
ĠGreen land
Ġoccup ying
Ġlat itude
Ġpassion ate
Ġmerc ury
R ad
Ġar ches
ĠCol bert
Ġadvant ages
Ġreign ing
Ġglob e
Ġhol idays
Ġobsc ure
oub ted
Ġcros sover
or on
Ġst out
ĠCh amp
Ġlast s
Ġland own
Ġ14 1
Ġsal mon
Ġtrust ees
Ġbetray ed
ĠGaz ette
c ard
u ana
Ġ iv
er ie
ĠM off
ĠH ipp
Ġst al
ĠRe e
Ġgl anced
Ġreal ism
Ġelect rom
ĠPer fect
ĠBeat ty
ĠLaure nce
idel ines
ĠSoph ie
Ġassum ing
ĠOppen heimer
Ñ ģ
Ġt uber
ĠC it
ĠV ij
ĠAs ide
Ġcou ples
ĠAlexand ra
M ore
a ic
Ġb og
ĠD up
ĠL ass
ĠUn c
ĠGu est
Ġprogram mes
AR T
Ġspect acular
ĠLind say
ĠCommer ce
ĠFranÃ§ ois
Ġw olves
Ġl uc
Ġl ively
ĠA chie
id able
ĠW imbledon
ĠPl uto
ĠSl oven
Ġfir ms
Ã¤ n
Ġdom est
ipe g
Ġjum ps
Ġfisher men
Ġtribut aries
Ġhaz ard
ĠUnd ert
ĠRebe cca
ĠA val
Ġg lands
ĠV eter
Ġsw ords
Ġ183 5
Ġguard ed
Ġrow ing
ĠScient ific
Ġunpre cedented
Ġingred ients
re qu
Ġb anner
ro sc
ul atory
Ġcomp uls
Ġloc als
Ġmatch ing
ĠVict ory
Ġcoff in
ogen ic
sk irts
Ġbarrel s
ĠShep herd
ĠFitz gerald
Ġmetaph or
5 7
Ġp amph
Ġto e
em ics
iv or
ĠIn stitution
Ġkind ness
Ġpred ator
ĠClass ical
ĠProfess ional
Ġment or
; /
Ġle ak
Ġdis rupted
Ġsub mission
ows er
Ġinde fin
Ġoccur rence
Ġut ility
ĠFre eway
Ġpup il
ĠShak ira
Ġchlor ide
Ġlun ar
l iest
Ġcom eb
und a
Ġind oor
ĠFr inge
Ġstar board
ĠAg re
ĠTim othy
Ar t
Ġoverl ap
Ġdevast ated
Ġprest igious
ĠObserv atory
R NA
e h
or ers
am orph
ĠB ates
Ġcon ning
Ġpro pose
Ġun ified
Ġj aws
Ġsub stances
ĠZ ep
ĠEx eter
ĠSix th
ĠJohann es
it ia
om es
ater al
ov ny
ans en
Ġbus hes
ĠEm b
ĠMem phis
ĠRel ations
Ġmamm al
x imately
Ê »
Ġst ems
urn al
sh aw
ĠHor ror
ĠBra hm
ĠWork ing
Ġaqu atic
ĠDuch ovny
ĠC edar
ĠR as
ĠN g
Ġde af
Ġch asing
Ġcost ly
mar ine
Ġjoint ly
Ġphenomen a
enz ie
r ano
s ar
re pre
Ġb ored
st ated
Ġg osh
and ro
ĠE ly
ĠGod d
Ġrout ed
Ġadvis or
Ġbankrupt cy
g ression
ed ia
at ches
ĠI P
Ġon set
Ġbl ows
Ġiss uing
Ġreward ed
ĠTrin idad
Ġa uxiliary
ĠB uzz
Ġcon clus
ag her
ĠCom plete
gr ass
ĠBon nie
Ġgrav itational
Ġconsult ed
ĠWes sex
Ġunemploy ment
K O
ĠT ul
ĠL one
oun s
Ġstr icken
Ġtrans ports
ĠPe ak
Ġ184 2
Ġpurch asing
iped ia
ĠVishn u
r and
ĠD O
Ġop ener
Ġinf ilt
Ġcat aly
aret te
Ġresemb led
ĠM ant
ast ically
Ġen abling
Ġappe aling
Ġins ight
ĠOr k
ĠEm erson
Ġobs erver
Ġ183 1
enge ance
Geor ge
Ġenerget ic
repre ne
st reet
Ġde leted
ĠTh ing
Ġres isted
Ġdis qual
ob ody
na i
Ġins criptions
Ġtext ure
Ġpatron age
Ġexceed ing
beat en
k ers
Ġg y
ĠH ack
ap y
Ġcharacter ised
Ġel bow
Ġfund ra
Ġpolic eman
ĠEv a
ĠBad en
Ġparalle ls
Ġflo at
Ġphr ases
Ġlean ed
Ġpromin ently
p m
Ġs ighed
Ġb io
Ġg um
Ġas ylum
ĠG ul
Ġback grounds
ĠGerman ic
Ġgl oves
uff s
Ġpot assium
imet ime
Ġban ana
ĠFern ando
ĠIsab ella
haus en
Ġinev itable
Ġob jections
Ġel ong
Ġide ology
Ġ184 3
Ġneut ron
Ġdrift ed
l ast
Ġt at
Ġp ockets
Ġl ily
el ope
Ġcontin uation
Ġsw amp
ĠGu in
Ġmot to
Ġsurv ives
Ġattract ions
Ġcanc ellation
F S
v re
or is
am ination
ĠB ren
Ġdis ast
Ġsp elled
ĠSh awn
ĠBe aver
Ġins ane
ĠBel ieve
Ġneg lect
Ġver b
Ġmanufact urers
Ġmo ons
Ġlegend s
Ġneighbour s
ĠTechn ical
Ġfron tal
UC N
G erman
s un
É ª
el in
ĠB ism
act ions
oll en
Ġback drop
gr ily
Ġes p
ĠHer cules
Ġpick s
ĠRail ways
ĠNep al
ĠThanks giving
oc ial
Ġout ward
Ġsp arked
Ġdem ons
ĠChar ter
worth y
ĠSin atra
Ġdissip ating
Ġpap al
ĠCrom well
i ator
w aukee
ĠS iber
Ġg raz
Ġman kind
Ġbl essed
Ġexp ired
ĠAp ost
ĠWell es
Ġ182 9
ĠAbb as
ĠGriff ith
Ġpersec ution
Ġsher iff
ĠLux emb
Ġcurric ulum
O ct
b ral
i ya
s ix
Ġwor s
ĠAm azing
ĠMan it
att a
---- --
Ġvac uum
ĠLaure n
Ġdischar ged
Ġcoron ation
Ġm aker
Ġe ternal
ol ation
ĠW ere
ĠPr imetime
Ġdead line
ĠAg ent
Don nell
Ġenter prise
Ġdiplom at
ĠCe lebr
ĠLiter ary
Ġauton omous
ĠSyr ac
h oe
Ġth or
ĠT omb
ĠS ard
Ġout skirts
Ġplay wright
any a
Ġinqu ired
ĠAber de
Ġmetall ic
T E
r il
er ick
Ġd y
Ġhe els
ĠL uz
Ġun ions
Ġconf essed
Ġpost ing
Ġnon etheless
Ġconcent rations
ĠLy on
ĠVen et
ĠAnim als
Ġunexpected ly
b eth
v ara
Ù Ħ
st eps
ĠW ould
Ġr aced
ĠAl ien
ĠDe xter
Ġrep ro
Ġcur se
uff y
ĠCro sby
Ġinherit ance
Ġbord ered
ĠShack leton
8 5
Ġh iatus
ĠF ig
ĠY osh
ĠLe h
Ġdown stairs
Ġche aper
in ished
it aine
Ġst rongh
ch us
ĠW er
ov anni
Ġem issions
aim a
lin ing
Ġdress es
ĠSpec ies
ĠNob ody
Ne ill
Ġreserv oir
ĠCalv ados
Ġt idal
he tt
it ations
ĠS yl
ew all
Ġun av
ĠAll ison
ĠWest on
Ġplant ation
AL L
Ġrend ition
ĠSant os
ĠMatthew s
ĠHumph rey
ĠEpis ode
C omm
i ad
È Ļ
le igh
Ġperson a
Ġdig ging
Ġtight ly
Ġreprod uctive
Tr ans
dÃ© partement
A lex
h ou
l ass
Ġthe ft
ĠI D
ĠP ain
ong o
Ġpl ung
ĠSh annon
Ġgener ating
Ġ30 5
Ġconf ession
Ġpri zes
ĠMet roid
Ġreact ed
Ġmission aries
Ġkilomet re
Ġrebu ild
hard t
ĠClare nce
Ġsurve ys
Ġrevel ation
ĠAgric ulture
I F
S outh
ed e
at ro
le af
ĠH ew
ang o
Ġlater al
ĠAugust ine
Ġsix teenth
aster ed
Ġdest ructive
Ġsleep y
Ġtheat res
olly wood
Ġexplos ives
ĠJane iro
Ġrend ering
ĠWinn ipeg
ĠGust av
Ġdispos al
Q ue
c ip
h alf
Ġb ru
Ġar ise
Ġ18 15
Ġ12 3
Ġcomment ator
Ġsequ els
Ġconstit uted
ĠHel ena
Ġsculpt or
ĠAh med
Ġlibr aries
f ig
ĠH ello
ĠG M
ĠL A
ĠL ines
pl us
ne o
ĠPro gress
Ġcat ast
Ġfort un
Ġutil ized
g re
Ġc ass
ĠA by
oc chio
Ġide als
isc al
Ġbow ed
ĠStud ent
ĠSyrac use
Ġp all
ce ans
ĠDe al
Ġind ication
Ġdef icit
Ġsn ap
ĠRome o
ĠKer ala
Ġeleg ant
O H
T O
or ian
ĠB enson
Ġmission ary
ĠDog gett
Ġverte bra
Ġflex ible
ĠCoal ition
Ġbesie ged
Ġf etch
ĠS M
Ġal pha
field s
ĠRec reation
ĠTom atoes
ĠBay ern
ĠEr in
ĠRhodes ian
ĠSin clair
ĠBomb ay
Ġintim id
Ġmerchand ise
ĠI UCN
ill ance
ĠO wn
ĠCon st
be ing
ĠChrist ina
Ġorgan izing
aff ir
Ġpress ures
Ġfort unes
ĠIm ag
ĠOri ental
9 5
y g
ar ius
ĠT in
st en
ĠH its
ab el
Ġex iled
Ġlong time
Ġins cribed
Ġfail ures
Ġdism ant
Ġess ays
ĠUs ually
Ġspr ings
Gr and
Ġw oke
Ġp add
ĠT win
ĠA ston
ĠE bert
ĠO kay
Ġpol ished
Ġshif ting
Ġcryst als
Ġquad rup
ĠCamb odia
Ġcomeb ack
b ad
ĠH BO
ĠWe e
Ġdet ection
Ġemploy er
Ġpil grim
Ġflat ten
Ġexclud ing
Ġun fortunate
und y
Ġbreat he
Ġadvis ory
stan bul
ĠEc u
ĠNum erous
m ic
ĠT ouch
Ġle ver
Ġle ased
ook s
Ġdis advant
ress es
ek aboo
Al though
Ġpun ch
ĠMiddle ton
ĠSav oy
ĠWeb b
Ġshif ts
f ried
Ġw ishing
Ġto ast
Ġsc are
Ġstr anded
Ġdisapp ointing
ĠDream s
Ġdwell ing
Ġdevast ating
ĠCris is
Ġt ides
Ġb ade
Ġ20 5
ĠY uk
ĠAd vis
arl ane
ĠPh ot
ĠMil ky
Ġdisp ersed
ĠParliament ary
Ġexpress ions
Ġmeasure ment
Ġrif les
Ġupd ate
Ġdeliber ate
ĠPil ot
ĠCly de
a uthor
o ine
ĠC ust
ĠB ie
ĠB elf
ĠSt oke
ous er
Ġcr ater
ĠFin ance
Ġident ifying
Ġprot esters
Ġrespir atory
Ġb ubbles
ĠT oul
ĠH imm
ĠR ib
nt on
ĠV il
Ġcomp elling
Ġdis ability
Ġrec alls
The ir
Ġtax i
umber ing
ĠCart e
agu ar
Ġdisappear ance
ĠAhm ad
E nd
al is
Ġpl aque
ĠK ant
ile m
ail able
Ġqu ote
Ġball ads
oph on
Ġpersonal ities
Ġexperi encing
Ġintegr ity
Ġtra vers
ĠRain bow
Ġsuperior ity
ĠHutch inson
c ats
d ia
Ġ Ì
Ġs op
ro ts
ĠK ee
ach y
hy d
ĠHigh land
ĠLet ter
Ġunf air
ĠBrun o
Ġprofession als
Ġfulf ill
Ġmini ature
R em
w on
ĠT ah
il ated
ĠI F
ĠM ole
pt y
Ġsp ill
ink er
Ġbat t
ĠOl ga
ĠGood man
Ġimpact ed
Ġshel f
ĠNic ole
Ġretreat ing
ĠAppro ximately
Ġerup ted
g ency
y ards
Ġd rought
ĠH ence
ĠW ins
ĠG ott
ĠN u
Ġar rows
Ġi OS
ĠDev ils
Ġthank ed
elest ial
Ġdisg ust
ĠAchie ve
P R
on ed
Ġd arling
est e
ĠSe v
Ġcomm ence
iment al
Ġhop eless
ĠLi u
Ġtiss ues
ĠRand all
M other
Ġl est
ĠI st
ĠF ritz
Ġcomp are
Ġcons on
Ġind ie
ĠBe e
ĠMat hem
ĠBor is
ĠAlb ion
Ġcorrespond ent
ĠLiter ature
in or
le z
Ġl odge
iv ities
Ġtr an
ox ide
Ġadm ir
Ġcampaign ed
Ġinform s
ĠSl ayer
cy cl
Ġwild erness
ĠByzant ines
hr er
ĠAT P
ĠLeaf s
Ġvin yl
Ġf a
il o
il ib
ĠS ons
ĠJ ain
ĠRem ember
Ġspr int
Ġdiff ered
ĠErn st
ĠCov enant
Ġstair case
v ana
ĠT able
ĠB R
Ġapp et
Ġ22 5
Ġheav iest
ĠMunicip al
Ġconsolid ated
Ġm ourn
Ġar che
anc o
Ġrev ision
ĠTr acks
ĠBook er
ĠOtt omans
ĠWat ts
ĠBol she
Ġrecru iting
Ġshout ing
f al
Ġm oss
ĠA B
Ġbe ak
ĠR ough
ap arte
Ġdes erve
Ġsat ire
Ġcirc ulated
Ġcounter parts
Ġunf inished
Ġswall ow
Ġscream ing
Ġtoile t
J im
ĠG ilm
Ġsc ary
Ġdes erved
Ġ12 6
Ġbeh ave
com es
ĠEl se
ĠGl ory
Ġesc aping
Ġmind ed
Ġprem ises
ĠIre ne
Ġrob ust
Ġtermin ated
Ġ178 9
Ġundert ake
Ġcontrad ict
am on
ĠB oh
ĠSh op
ĠCl ose
Ġgl ow
Ġfun nel
ĠPhil harm
don ald
ĠPhill ip
ĠBed ford
ĠArchite ct
ĠGuerr ero
m ere
ĠL anguage
ann ah
ĠMe adows
ape ake
Ġsoc ks
ĠPol icy
ĠWal ton
Ġwire less
oped ia
F rance
Ġo st
Ġb il
Ġwh ip
Ġex otic
Ġover looking
Ġcan e
Ġsp ore
ath am
ank ing
Ġship yard
Th ose
Ġsol ic
Ġlo ft
quar tered
Ġfear ing
avel ength
Ġspons or
Ġrecru its
ĠTol kien
ĠFight ing
in ers
ot hed
Ġpl asma
Ġint ensive
ĠSoc cer
gl ass
ĠMore no
ãĥ ³
Ġbul lets
Ġtal ents
Ġbless ing
Ġpand emic
T w
r ÃŃ
Ġman ners
omet er
Ġauth ored
ĠPer kins
ĠAct s
Ġder ives
ĠKen ya
ĠCart oon
Ġerupt ions
ĠFact ory
Å Ľ
and ie
ĠL ance
ĠBr ady
ĠBar row
Ġmarket ed
Ġcoin ed
Ġkick ing
Ġax e
ĠEver ett
Ġsubordin ate
ĠWals h
ĠAgre ement
ĠT ry
Ġe uro
Ġr uff
ap est
Ġacc ustomed
pr int
ĠCon cer
ĠGr anny
Ġve in
Ġpeak s
Ġlab elled
ĠPers ia
ĠAlb ania
Ġrac ism
Ġreun ion
Ġemotion ally
Ġlan tern
Ġc ough
ĠS abb
Ġ" "
ĠN uclear
ov al
Ġper fection
ĠEm il
ĠAnt illes
Ġconclud e
Ġens ued
ĠSol id
n ance
Ġc rip
ig ma
ir ies
ĠP u
ĠD aisy
iz a
Ġbas al
ĠMil waukee
Ġlif ting
Ġunc overed
Ġrum ours
Ġastron omers
ĠChall enge
ĠKann ada
ĠEcu ador
Ġo mitted
ĠA br
Ġst atic
ĠP D
ĠF ast
ĠO ften
pl ate
ĠSe venth
Ġatt itudes
ĠMar se
ĠSh ut
ĠSc outs
rap er
Ġneg ro
Ġess ence
Ġplate au
ĠBry ant
Ġsimpl icity
ĠAthlet ics
ĠHaz el
g il
Ġo mn
ĠR um
ĠK ell
Ġfe eds
ix ed
Ġexpl orer
Ġdeb ates
Ġbill ed
Ġ180 1
Ġillust ration
Ġmal aria
ĠParalymp ic
g au
el man
ĠI gn
ĠP rec
se ction
ĠK yl
Ġvill ains
ĠThom son
Ġmem oirs
Ġresid ences
ĠHond uras
Ġh ij
Ġl aser
ĠM ales
ur us
Ġan grily
cl er
Ġup wards
Ġmen u
Ġref ined
Ġlight ed
Ġ23 5
Ġsens es
Ġdemonstr ations
ĠUndert aker
u o
ou g
ro le
Ġst ub
ĠF ellow
ĠL Ã©
ĠAl leg
Ġcar c
Ġdisc arded
ounc ing
Ġbott les
ĠStre ets
lyss es
N orm
c ad
Ġdec ree
raw l
Ġcor rupt
Ġtechn ically
Ġenzym es
Ġdisast rous
_ _
am ics
ol ini
Ġst ellar
ĠP ond
Ġy o
ĠF ol
ber ries
Ġme g
Ġwar mer
Ġins ign
Ġgl orious
Ġsol ved
uct s
Ġattract ing
Ġsurvey ed
ĠBed e
ĠVis ual
Ġphyl ogen
c ond
Ġc ope
Ġl os
ĠC age
ĠC unning
ĠH ert
Ġyear ly
ern er
ĠSch olars
Ġdiss olution
Ġcommission er
ĠGar c
Ġinex per
ĠOrk ney
n at
Ġin herent
Ġd uel
Ġg lee
Ġfor k
ĠSil va
Ġrenov ation
ĠHok ies
Ġmetab ol
Ġw avelength
Ġp aired
Ġh are
Ġl ag
ĠA ce
ĠN ES
ag ogue
ĠY o
ull en
erv ille
Ġfact o
Ġrespect s
Ġamb ush
Ġ179 9
ĠMcL aren
u en
Ġat he
ag ar
Ġper f
Ġwest bound
Ġspl its
ĠGar cia
ĠLet ters
ĠWarri or
ĠPhant om
ĠW emb
Ġcan vas
ĠRe x
pr ises
Ġrep uls
ĠWorld s
Ġmark ings
Ġtro t
Ġvill agers
ograph ies
ker chief
ĠReturn ing
Ġcens orship
Ġmour ning
Ġa pt
Ġe man
ant is
ĠCh o
pr ising
ĠCom plex
ĠMe chan
Ġ14 4
bour g
Ġgrant ing
Ġsuspect s
ĠVoy ager
Ġp epper
ĠF ey
em i
Ġun related
ĠAr g
Ġapp lying
ĠRiver a
Ġmurder er
Ġdismiss al
ĠTerr or
ĠAub urn
Ġcomr ades
Ġimpat ient
p ox
ĠS ap
Ġre nder
ak y
ĠU m
anc ial
umb ers
ĠBlack burn
Ġrank ings
Ġdepend ed
Ġtur key
Ġir rig
ĠFre eman
vest on
Ġintention ally
Cap tain
Ġdre amed
Ġst ove
ron es
Ġtrad ers
Ġchief ly
ĠBru ins
Ġtrump et
Ġmim ic
ĠWander ers
P as
S ch
Ġd ose
ĠT uls
Ġn ave
ĠH our
ick ly
aw ak
Ġinter val
Ġem blem
Ġinfl ict
Ġcop ied
Ġmis under
ĠChes apeake
Ġslee ve
ou ched
Ġp ad
ĠA mber
ĠM err
ĠF an
und ers
ĠCl int
ĠEd en
Ġdam s
Ġstat istical
Ġsex es
ĠGib bs
Ġconfron ts
oubted ly
Ġ ~
ĠG ear
ag ements
ip es
Ġshe p
Ġj olly
Ġ18 19
ys c
ĠAtt ack
Ġextr av
Ġfier c
ĠMagn us
ĠMaced onia
Ġartif acts
7 7
Ġc um
al m
ro be
Ġal igned
ub le
Ġbu zz
ful l
ener y
Ġlong ing
app ropri
acher s
Ġ182 1
ĠHy der
Ġec ological
ĠExpress way
Ġconting ent
Ð ²
ĠB agh
ĠG amb
Ġ3 000
Ġad oles
Ġ4 60
ĠAc ross
ij a
ij uana
Ġsevent eenth
ĠMid way
Ġsym ph
Ġimpl ied
ĠStevens on
Ġwand ering
ĠSud an
pic uous
Ġdat abase
S m
Ġ ãĢ
ĠN ell
iv o
Ġentire ty
Ġviol ated
ĠKh rush
ĠDet ective
Ġscr ut
Ġtom bs
ĠAppe als
N T
g io
Ġ u
as ped
ĠS MS
ĠM ow
ĠM ell
ĠM ob
ĠK ad
Ġcl ips
aur a
Ġord in
ĠEv an
ĠBre ck
ĠTow ards
ĠâĻ Ń
ĠGeorget own
Ġp its
om atic
ĠM atch
et tle
ĠG anes
ke f
Ġup side
Ġsp anning
ĠBat tles
Ġcandid acy
eg ro
Ġrej ection
ĠWemb ley
g em
g ang
w al
at ile
Ġwor m
per t
Ġoff ence
Ġfl av
Ġinter fer
Ġstore y
Ġexpress es
Ġstrateg ies
Ġisot ope
Ġmelod ic
ĠWis den
ĠTud or
C ould
Ġb ump
Ġkn ocking
ĠEl vis
Ġhold er
ĠDr am
Ġconv ict
ĠSl am
ux e
Ġment ally
Ġpron unciation
Ġbombard ed
ĠPerson a
Ġcuis ine
F arlane
Ġ ç
ĠS ut
st ill
ĠI ss
id as
ĠM orm
ĠB ene
ĠH itch
Ġr att
ple ase
Ġarch ipelago
Ġdiss ent
Ġcaptain s
ĠField s
ĠPur ple
ĠChile an
Ġassum ption
Ġrehears al
ĠKhrush chev
G O
c up
o os
Ġs way
ĠS uk
Ġout rage
Ġsp ine
Ġob jection
ĠGeor ges
St ill
Ġdiscuss es
ĠCle ar
Ġdang ers
Ġcard inal
Ġsyn th
Ġham pered
ĠGer ard
Ġcoinc ided
Ġaffili ate
== ==
Ġpige on
ĠI ch
ĠI stanbul
ĠH ang
ĠG an
art et
Ġen roll
Ġprov oked
Ġrepl ica
ĠPe ggy
Ġreason ing
Ġcouncil s
Ġdownload able
Ġinnov ation
eli hood
Ġdreadn ought
ĠR ash
ĠJ ourney
ud i
ang es
Ġsp or
Ġrel ates
ĠSp ike
Ġpract ition
Ġvolcan oes
ĠLam bert
Ġflee ing
F ar
c ial
Ġo we
ol in
ĠB rett
ĠR ao
qu el
Ġdis par
ode on
ĠCl ara
Ġhum ble
Ġlim iting
Ġill usion
Ġdivision al
Ġbank ing
Ġell ip
ĠT aft
ĠS as
ĠR E
rib ed
ph ae
ĠAll ah
ĠMan a
Ġbene ficial
bre aking
Ġmis chief
Ġgar bage
ĠPle ase
Ġcock pit
ĠRub y
ĠPhys ics
N orth
h uman
at l
Ġg ut
ol son
ĠF resh
ĠE k
Ġpl aza
ĠFl ower
Ġsw am
ĠEx cell
Ġaccording ly
inn ers
ĠNot re
Ġge ometry
ĠColon ial
Ġcolumn ist
Ġdup l
p ush
Ġf ug
Ġp unt
Ġst ressed
ch ron
ri ft
est ing
Ġch ip
ia z
Ġ18 14
its u
Ġsk ating
ĠPat terson
Ġ179 3
Ġ179 8
ĠGal veston
Ġproduct ive
Ġremix es
abet es
Ġhed ge
ĠAchieve ment
Ġc af
Ġhe x
ĠB f
ĠR az
ĠO kin
ĠMar co
Ġinv ite
ĠPl atinum
Ġfather s
Ġident ifies
ari at
ĠCongress ional
Ġge ological
ĠTw ilight
ĠClay ton
Ġprecurs or
ĠAberde en
C AR
Ġt ense
Ġthe sis
Ġd ough
Ġl azy
Ġg aze
ĠF ew
ĠL ep
ess es
Ġsub str
Ġdown stream
ĠĠĠĠĠĠĠĠ ĠĠ
Ġlog s
ĠSil ent
Ġresist ant
Ġadministr ator
Ġfemin ine
Ġfus elage
ig ator
Ġup stream
Ġ4 10
Ġair ports
ĠMc Le
ĠNe ville
Ġrefer enced
ĠDavid son
Ġaw ak
ĠKr usty
Ġmob ility
Ġoverth row
Ġpreval ent
Ø §
am n
ĠP ill
Ġal umni
if iers
Ġpl ague
Ġgo ose
Ġatt ach
ĠOn o
ĠSam an
bl ue
Con nor
Ġhe red
ĠP av
oc he
ick eter
Ġcelebr ating
Ġmut tered
Ġexerc ised
Ġanticip ation
ĠMoz amb
it ical
ĠM yr
ĠB elt
ĠB achelor
ĠF arr
ĠL ah
ra red
are l
Ġsp un
ĠAr chie
Ġbro ok
ĠZ ach
ĠMe adow
Ġeast bound
ĠMad ras
ĠPer iod
Ã¡ l
Ġrecogn ise
Ġenv ision
Ġsight ed
Ġkiss ing
Ġdownload s
Ġcant ata
Ġbapt ism
ĠPunj ab
Ġ é
Ġto ad
ĠC anton
ĠSt anton
Ġne ur
Ġper ce
Ġ18 10
ĠBr as
Ġvis ibility
Ġtreat ments
Ġimm inent
Ġmort al
Ġexagger ated
: --
p ies
ĠB ree
ĠJ ab
Ġam mon
Ġchar itable
Ġang els
Ġcommercial s
ĠCle m
ĠIll ustrated
Ġ180 9
Ġ179 4
Ġstick y
ĠMalays ian
Every thing
hor se
Ġmasc ot
Ġmasc ul
Ġreconst ructed
ĠA u
ĠR ous
per ors
ĠY ah
ĠHer oes
Ġastron omy
Ġvolunte ered
Ġreluct antly
Ã° r
b ard
m ust
om ac
ac ies
ct ive
ĠL ik
ĠU lysses
ie ur
Ġhead quartered
Ġfr anc
ĠCharl eston
Ġ48 0
Ġrib bon
Ġembr ace
ĠRodrig uez
ĠBri ar
ĠiP ad
B en
g ame
is n
ore sc
ĠCh ak
Ġcl ade
Ġdis like
Ġprop ulsion
Ã¸ r
Ġwheel chair
ĠReview ers
Ġconsult ing
ĠGir onde
Ġauton omy
Ġgrat itude
ĠJur assic
ĠBever ly
Ġretrie ve
Ġh ats
Ġl ust
ĠP ep
ĠR ita
ian c
ĠY uc
ĠSe oul
Ġinc ent
ĠAb ove
Ġdisplay ing
Ġfresh water
Ġcow ard
ĠFeder er
Ġspokes man
b ase
ĠS esame
Ġe go
ĠN WA
ast asia
Ġover looked
ount y
Ġext ras
Ġindivid ually
Ġaddress ing
Ġspend s
sole te
ĠCas ino
Ġbitter ly
Ġalgor ithm
ĠNig el
g ew
an ity
ĠI z
od ont
Ġen forced
ug a
ob ic
Ġteam ed
ĠGr im
ĠMay be
Ġred uces
Ġvis ually
Ġenjoy able
Ġeth ics
Ġ182 5
IS T
ĠLoc ke
Ġhell o
ĠLegisl ature
Ġreleg ation
Ġprest ige
ĠMonth ly
ĠRever end
s chool
at hed
Ġc ivic
Ġb ugs
Ġd od
ĠM E
ĠM ys
ĠH abs
ĠD iscovery
Ġdes cending
Ġcr ude
sh aped
Ġage nda
ĠOff ic
Ġtow ed
Ġcert ificate
Ġconve x
ĠHan over
Ġinnoc ence
Ġsucceed ing
ĠLib ya
Ġsoph om
ĠIb n
Ġb ury
Ġun pleasant
Ġsub pl
Ġinv ade
Ġprov es
Ġsus cept
ĠClark son
Ġsuperv isor
Ġamphib ious
= "
l iness
Ġ ul
Ġt il
re f
le ll
ĠC ald
ĠB rest
Ġup held
Ġins pect
ody nam
arm ing
ĠWe in
Ġclos et
Ġboard ed
Ġprol ific
ĠPitch fork
ĠM ih
ĠH ern
Ġpl aint
ud ing
ov el
Ġbl oom
ĠCl iff
Ġten or
omb at
Ġgrand ma
ĠPicard ie
L and
N ational
b ear
e ze
g ue
ist ice
ĠSt yles
ra il
Ġcoll ided
Ġswe eping
Ġappl ies
Ġec clesiastical
Ġteen agers
Ġembed ded
ĠManit oba
Ġh int
Ġd ucks
ĠT il
ĠS EC
Ġn ude
ĠD res
ĠD ang
ĠR B
her ly
Ġunder going
ĠCom ing
ĠNorth umberland
ert ile
af ia
Ġfif teenth
Ġneck l
ĠCy pr
ĠSound track
Ã± o
Ġtot als
Ġwreck ed
Ġcontinu ity
ĠWik ipedia
ĠMoff at
b ling
Ġp enny
Ġd raught
ad h
Ġr all
ĠG arr
Ġbr icks
ism atic
Ġcritic izing
ĠHaw ks
Ġplanet ary
Ġrot ating
Ġembr aced
ĠBott om
f ell
Ġp ent
ĠS iege
ĠB A
Ġun changed
Ġout post
ical s
Ġgr asp
ru ce
ves ter
Ġour s
Ġgun fire
ey ed
Ġsuper b
ĠTor ch
Ġ183 3
bro ken
ĠGi ovanni
Ġsubsc ript
R es
b ins
ĠC umberland
Ġhe ars
os o
ort ex
ĠK oh
ĠV HS
Ġout n
Ġap ology
Ġcan oe
Ġent reprene
Ġnight cl
Ġhy phae
Ġhost ilities
Ġdomin ate
Ġdial ects
Ġparas ites
F ather
t able
Ġe h
ĠC asc
ĠI w
ĠD ion
ĠJ MA
ĠK ab
Ġequ ations
ĠBat tery
ĠCamp us
ĠBosn ian
J uly
U m
Ġw aving
ad ays
ĠD addy
Ġch ords
ik ovsky
Ġdisc ipl
Ġph ones
ĠBro ken
ĠX IV
Ġexec ute
ĠTw elve
Ġ74 7
Ġastron omer
acc ur
abul ary
ĠInspe ctor
C ube
R h
Ï ĥ
st ed
ĠR ag
ĠE ust
ĠK art
Ġrem atch
Ġpol o
ĠBo one
Ġclim bs
Ġmodel ed
ĠCont est
Ġdecor ative
roph ic
ĠLud wig
Ġtremb ling
Ġware house
ilib rium
9 8
D T
h og
Ġt iles
is i
ĠT aking
ĠF ry
ĠV ale
Ġam alg
Ġsup pressed
Ġret al
Ġgrad uates
Ġburn s
ĠLight foot
Ġtele graph
ĠAdv anced
ĠEmer gency
Ġmit ochond
ĠParad ise
M arch
g ment
Ġf ishes
ĠR ise
Ġex h
Ġcont amin
Ġ8 50
Ġeng agements
Ġche f
ĠHigh lands
reg or
Ġve il
Ġden ounced
Ġhero ine
ĠBark er
GH T
Ġrelax ed
Ġcylind rical
ĠHep burn
u ity
st roke
ĠP ied
ost ic
Ġdec ks
uck ed
Ġcontrib utor
Ġens uring
Ġ182 4
Ġ177 5
him self
Ġsuperv ised
Ġrecre ation
Ġoverwhel med
Ġhomosexual ity
ĠCunning ham
j ack
Ġt apes
an us
es ome
ol ving
ĠB owser
Ġv iolet
ĠK au
ie ves
ĠAr row
Ġcomb ines
af i
Ġsum mers
Ġtreat ies
Ã¼ hrer
Ġfair ies
Ġcert ification
ĠMerc ia
ĠMetall ica
R ob
et us
ĠG am
Ġrec ycl
Ġform ats
over e
Ġhelp ful
ĠCatholic ism
Ġimpact s
Ġtun es
Ġrob bery
Ġur ine
Ġsimpl er
Ġsurf aced
Ġexcav ated
R ed
ing en
Ġp od
le en
ĠT ate
ĠA e
ĠH app
ĠP ere
Ġun beaten
az i
Ġmod ification
Ġsen ators
Ġ38 0
Ġ179 5
stone craft
ĠBudd ha
ĠLev ine
Ã¢ te
ĠPay ne
ĠMeteor ological
9 7
w aters
ĠA V
res ist
ĠK any
Ġab e
clud ed
Ġdes ires
az ar
Ġmar riages
Ġvol tage
Ġcult ivation
Ġ179 2
ĠNic ar
Ġcann ons
Ġconce al
Ġrefr iger
ĠNickel odeon
im us
ur able
ok o
Ġass ure
Ġlim b
Ġintens ification
ĠCole man
ĠHem isphere
ĠDart mouth
ĠHabs burg
D OT
s im
Ġw ipe
ĠS alford
Ġhe al
ĠB aja
Ġwh oles
ĠN om
Ġch icks
Ġar d
enc ia
Ġjust ify
Ġappl aud
Ġphil anthrop
ĠMarl borough
Ġbund le
Ġtast es
ĠBism arck
Ġf iscal
ĠR anch
ĠL ut
ĠL uk
ĠTh ous
Ġback ward
ĠMin isters
Ġfr amed
ĠCal iph
ĠSer ge
ĠKe ep
road s
Ġsatisf ying
Ġproport ions
Ġconstruct ing
Ġsurve illance
M ark
Ġt ut
ĠH E
Ġint est
Ġdis reg
ĠAl c
Ġfin ishes
ĠX L
ĠDiv isions
Ġstation ary
Ġmot ive
Ġwall ed
Ġfulf illed
Ġdisgu ise
3 00
S omething
on ce
ĠD A
Ġde eds
our ces
Ġbr ains
Ġsl ate
app le
sh ima
ĠGo ing
ĠSch u
Ġacqu iring
Ġexam ining
AF TA
ĠNob le
Ġsan ction
Char les
he ed
at aka
Ġl ately
ĠP hel
ĠP epper
ĠD avy
ĠN ile
Ġch ips
ip le
ll er
Ġfin ed
Ġob ed
ĠGr aves
ĠMart y
Ġchief s
mans hip
Ġfacil itate
ĠSoft ware
ĠWoll stonecraft
; &
I tal
S al
ir ch
ĠD iss
ĠL ob
av is
Ġag gression
man y
ĠRe bell
ley s
ĠSch war
ids hips
fe ated
ĠMcC lell
Ġload s
ĠAlb anian
Ġfashion able
Ġaddress es
Ġconcur rency
ĠVat ican
ĠP oul
ĠR BI
ĠL if
Ġv om
Ġpl ural
Ġair play
Ġhon oured
asc al
Ġdisagre ement
Ġchore ography
mid t
Î ¼
Ġc u
Ġl one
Ġn an
ĠM itch
ĠR ings
cc ane
ull ah
ĠBy ron
Ġ21 5
ĠChe v
with out
ici ary
D er
Ġs aints
ĠM uss
ĠP ry
ĠJ ungle
ĠO dd
Ġv ener
ind y
iz arre
Ġfl ock
Ġacc ession
ĠZ en
Ġcr ush
uk u
Ġbroad side
ĠGold man
Ġge ography
ĠVol t
ĠRod gers
ĠMaria h
Ġinvent or
ĠLis bon
ĠPhilharm onic
ĠC otton
ĠM s
ĠN ice
ak o
Ġsc ent
Ġfl uct
Ġob solete
Ġturn pike
ĠCar ne
Ġrow ed
ĠWild e
Ġplain ly
ĠStri ke
Ġsumm ary
Ġderiv ative
ĠCauc as
i ard
Ġs ar
ĠP M
ĠF on
ĠL augh
ĠL akers
Ġwhere in
fl in
fact ion
Ġaltern ating
ĠPot omac
Ġfolk lore
ĠPo et
Ġcous ins
ĠComb ined
Ġlegit im
Ġanth ology
p oints
Ñ Ĥ
Ġw ed
Ġl ig
ĠM ets
ĠM CC
ĠL ily
ĠN O
art en
Ġout right
aw ks
Ġground ed
Ġbad ge
Ġamb ulance
ĠBas se
Ġpup py
ester ly
Ġprospect s
Ġvolley ball
T oday
or an
Ġc ables
ĠH ole
Ġr het
Ġrob in
ĠWhe el
ĠMarian ne
Ġmelanch oly
P at
l as
m aid
Ï ħ
Ġa fore
Ġp iv
ĠT otten
ĠI OC
ĠR ising
Ġsp at
hes is
ĠBat ista
Ġdeal er
Ġ183 4
Ġescort ing
Ġexplo it
Ġaudition ed
Ġprivile ge
ĠCase y
chw ader
M ic
a illes
p rom
ĠS ure
Ġg erm
ĠF lynn
ave ment
Ġout flow
ne g
Ġpe ac
Ġass erts
ty pe
fl o
ĠPr att
ĠCount ess
ĠNo ah
ĠMac Donald
Ġprec ision
Ġemerg ence
ĠBund es
ĠKum ar
hist oric
Ġt ires
ad le
et erm
ĠH ipper
ĠCh ange
Ġj un
ang s
Ġsp ared
Ġam idships
Ġchar ging
Ġsex y
Ġrepe ating
Ġge ographic
Ġabd omen
Ġglac iers
Ġprivile ges
Ġineff ective
Ġvolunt ary
ĠLuxemb ourg
P oor
Ġh ail
ĠS ister
et r
ĠD arling
ĠCh ick
Ġfin anced
Ġbr ack
ten stein
Ġfr ustration
Ġpar an
ĠPe ck
Ġbar red
Ġcal ib
Ġang ular
Ġdefend ants
Ġcompar atively
ĠId a
ĠUSS R
ĠGarc ÃŃa
y ears
ĠR ide
ĠG aming
if erous
ia o
Ġ17 3
ĠWar ning
Ġamb itions
Ġmel ted
Ġinaug uration
ĠCypr us
D R
Ġt am
Ġw agons
Ġd usk
ĠT orn
ot le
ĠB ella
ĠK Ã¶
Ġsup erm
Ġend ured
ĠSal zburg
ĠCarl o
Ġsick ness
Ġastron omical
ĠBeck y
Ã´ ne
Ġdiver ted
Ġdim ension
imp se
Ġalleg iance
P ut
U nder
ct ica
ĠW ash
um ing
est a
Ġpres cribed
hy ll
Ġinv alid
ĠInd o
Ġcompet itor
Ġter ribly
ĠPaul ine
Ġmaster piece
Ã¨ ne
Ġfault s
Ġpretend ing
Ġende av
ĠSabb ath
A ct
S w
t ures
Ġf raction
ĠT art
ĠC ors
ak in
ĠO uter
ough ts
pl ied
Ġ13 3
Ġref urb
ĠMon k
Ġsun ny
Ġtarget ing
Ġimpl ies
e ous
f ol
Ġb ows
os ome
ĠG aul
ĠV in
ĠV ett
ĠZ ack
Ġmot iv
Ġaim ing
ĠChap lin
Ġdepict ions
Ġconsum ers
Ġcamoufl age
N E
W E
m ie
ĠB row
ĠL oyal
Ġtr uce
Ġout law
ĠY ar
ph ant
Ġdown ward
Ġgovernment al
Ġhost age
Ġprem ature
Ġdigit ally
Ġmathematic ian
S er
y ah
it ivity
ol er
ur ities
Ġep onymous
ĠUS AF
Ġpresent er
Ġconfirm ation
Ġspont aneous
8 7
S ay
U p
v ia
Ġd ump
ĠP ist
ĠD ix
Ġne o
ĠTh orn
Ġfe as
Ġunder way
Ġbl unt
Ġcent red
ĠCon v
Ġlik ened
Ġ29 0
Ġve ins
Ġwid ened
Ġtrain er
ba um
ĠBor neo
Ġmole cule
Ġreprod uce
Ġtoler ance
Ġbattlecru iser
U D
g ard
ĠT ale
ĠM R
ĠF uj
ĠE cho
pe i
Ġsup rem
ĠWh ig
ady s
Ġdel ic
Ġgun powder
Ġdest ined
Ġcou ch
Ġprofession ally
ĠFow ler
Ġt ab
Ġd ip
Ġbe asts
ĠB acon
Ġr ack
Ġgr ape
ars ity
Ġhel m
ĠSy nd
Ġpain ters
Ġphot ographed
ĠHaw kins
ĠLiber ation
Ġadj usted
athan iel
Ġdepos it
ĠLev i
Se ptember
Ġelectron ics
] .
re a
Ġb ald
Ġd unge
ĠM uk
ĠR C
ĠW r
ĠW on
ĠW ick
um bo
Ġcom et
ĠK i
ĠTh ur
Ġpass ive
inc orporated
ĠAm anda
ĠFin ancial
Ġbomb ed
Ġdi abetes
Ġang ered
Ġcoin age
ĠRon nie
uras ian
V al
ad der
all a
Ġsh iver
ian ces
off s
ĠHam let
Ġ180 5
Ġsad ly
Ġignor ance
ĠCzechosl ovakia
ĠH ogan
ĠL ars
ĠHe ather
pl ain
oun ge
Ġcar riages
ĠBr aves
Ġhard est
ĠConfeder ation
Ġmillimet ers
ĠSac rament
ĠKle in
Ġd aring
ĠS ounds
oc hem
ĠK ah
ĠV it
Ġj elly
ĠUn fortunately
Ġbr ace
Ġdr ill
ĠBy r
ĠGl oria
ĠKe ynes
Ġlear nt
ĠConc ord
Ã©n Ã©es
Ġrepet itive
ĠClif ton
Eng lish
Ġclo ak
ĠMozamb ique
B ig
it ism
Ġf ertile
ĠH ag
un al
ĠL ill
Ġch ant
Ġcomb inations
ĠSch ne
ele ction
Ġbure auc
Ġenvelop e
Ġumb rella
Ġanten na
ĠS ale
ĠP L
ul in
ĠG C
ĠG iro
ĠJ em
ount s
to ire
ps il
Ġproblem atic
ĠDick inson
Ġprev ailed
ĠSour ce
Ġthres hold
S uper
c roft
Ġb itch
ĠS isters
Ġst alled
ĠR ica
Ġv iable
Ġch alk
og ene
ĠY or
Ġair lines
Ġadv iser
ĠMin aj
com be
ĠHar riet
ara oh
Ġsepar ating
Ġwood ed
ĠSl ant
ĠSal em
Ġ180 4
Ġ180 6
Ġdistinct ly
Ġcinem atic
Ġadvis ories
ĠYuc at
Ġa pe
en ance
Ġl am
Ġg ossip
ĠB ollywood
if ference
Ġtr unc
are z
Ġcr icketer
Ġkind a
Ġâ Ĩ
Ġthreat en
Ġhall uc
Ġinterse cting
ĠEle ctor
Ġlic ence
Ġpsyched elic
ĠDors et
Ġn aima
ĠSt ones
Ġnumber ing
Ġadd iction
Ġgu ides
Ġdet ained
20 10
Ġmot ives
Ġtechn ological
Ġbow lers
ĠJac qu
ĠGill ian
ĠRap ids
Ġnom i
ĠLen in
Ġtheore m
ĠCornwall is
B ro
I E
I ts
S an
n ia
ĠC ous
ĠD odd
ific ant
Ġdisc retion
ĠÂ ±
ĠÂ ½
ĠHar ald
ĠGod win
Ġinstit ute
Ġconvers ations
Ġcustom ary
Ġpier cing
Ġaston ished
ĠMaurit ius
j m
w ife
à ¦
Ġnot orious
Ġdis organ
Ġfour teenth
ĠRock ets
Ġcry pt
Ġ182 8
ĠEle ven
Ġelev ator
Ġelimin ating
Ġcoordin ated
Ġculmin ating
Ġappar atus
ĠPatric ia
S up
s il
Ġwas ted
ĠE rik
Ġex ting
ĠCo ff
ĠSal am
ĠJer ome
Ġpreced ent
Ġtort ured
ĠInn oc
bet ween
ĠAI F
Ġweld ing
f an
ri ka
ond heim
Ġro ar
Ġso ils
che t
Ġhar ness
Ġalcoh olic
Ġwand ered
Ġredes igned
Ġvacc ine
Ġmurm ured
A gain
F O
w orm
Ġs arah
Ġw oo
Ġrel inqu
Ġcre m
Ġgl oss
ĠAm ph
Ġunanim ous
Ġinver te
ĠUtt ar
ĠHimm ler
C r
L ater
al ach
ĠC A
be e
Ġ14 6
ĠBar oque
Ġinvest ments
Ġcup s
Ġcatal ogue
ĠNorthumb ria
Ġp eng
Ġg i
ch in
ĠG R
ĠRe formation
ink led
ĠFl int
Ġpen is
rel s
ĠStep han
ih an
Ġcorpor ations
Ġconcurrent ly
ĠKem p
ĠSurv ivor
Ġaster oid
atche wan
I LL
n ice
Ġm akers
ĠIn str
Ġam ass
ĠPl anning
Ġche w
Ġmount ing
Ġrespect able
Ġdepart ing
ĠStr ange
ĠBu ild
ĠPrin z
Ġmart yr
ĠRoc kef
Ġpossess es
Ġswing ing
Ð »
ĠB oss
ra ul
Ġsl im
Ġ14 2
Ġsk ysc
br ush
ĠMin h
Ġren umbering
ĠSat an
Ġancest ral
bra him
ĠMik h
ĠWilm ington
Ġc avity
Ġp aternal
Ġh aste
ĠL uck
ĠN ir
ĠN os
Ġ15 1
Ġcy t
ĠMy ers
ĠBer ger
Ġraid ing
Ġfilmm aker
Ġauthent ic
B es
b anks
f aced
l oe
Ġm elt
st idia
ĠL ands
ll i
ne v
Ġgr apes
Ġdist racted
Ġprov ing
not es
Ġsn apped
ĠCarl isle
Ġtra uma
ĠShank ar
ĠUrugu ay
at ops
Ġr oman
ĠN HC
ĠE urasian
ru ff
ĠWh atever
Ġconst raints
ĠOr ion
Ġcoast s
Ġneg atively
Ġ34 0
ĠProd ucer
ĠRel ief
Ġeval uation
ĠNass au
Ġcounteratt ack
ĠGlac ier
J une
i enced
ĠT R
ould er
ĠGod s
ĠHol t
ĠVik ings
ar oo
Ġg azed
ch anted
ĠL ocated
ich o
ool s
ĠEd ith
Ġ27 5
gu y
Ġphilosopher s
Ġinterven e
ĠFell ows
ar ios
Ġm oor
ĠAm bro
Ġfig ured
Ġpur se
Ġlif elong
ĠMa o
ĠDen is
ĠJud ith
Ġabsor b
De cember
Ġfeud al
ĠDuch y
Ġcompat ible
w ent
ĠT z
ĠS ales
Ġse ct
ab outs
ĠK urd
ia e
Ġam using
Ġcons ume
Ġrest oring
Ġfore most
Ġcommun ists
Ġ179 7
ĠLand ing
Ġspect ral
Ġcontest ants
Ġid le
Ġexcav ations
count ry
r ide
w ic
on al
nd ez
ar ium
Ġin accur
Ġg ill
Ġg room
im ar
Ġse ab
Ġde ed
ĠK ron
ĠSt yle
Ġpart ed
Ġhand kerchief
ĠZ ion
ĠHel m
ĠBon o
Ã´ te
Ġmand atory
ĠSom me
ĠSpart a
Ġcompens ate
ĠSuz uki
Ġseiz ure
ĠBelf ast
d ated
it ious
al am
ĠT ac
ĠV ander
ĠMar ina
Ġinter ception
ĠCl an
Ġopen ings
ĠCanad ians
Ġra ided
iol a
Ġrail s
ĠEvery body
ĠFem ales
U L
t re
es a
Ġh Pa
th ms
ĠR OK
Ġex its
ĠK erry
Ġstr angers
Ġbuild s
over ing
Ġbar ometric
ĠWil kinson
Ġcho oses
ĠBre nd
ĠLes ter
Ġrac ist
Ġcomed ic
ĠJen kins
ĠBuch anan
Oct ober
W ar
Y et
v ich
Ġre work
ĠM au
Ġar ter
Ġ18 16
Ġ17 80
Ġswe at
gl ades
Ġprogress es
Ġtun ed
Ġjew els
Ġw iped
Ġb ou
Ġm ound
ĠR umble
her ical
ĠIn ner
ĠTh ink
ĠRe ad
ric ate
ĠFl ow
Ġgun nery
ĠHer r
Ġprot agonists
Ġsplit ting
Ġresear cher
ĠSask atchewan
ĠRebell ion
s ometimes
ĠC ary
ĠV end
Ġser mon
Ġpre tended
ĠBl ind
Ġpool s
ĠEug en
Ġpic nic
J anuary
b oth
b irth
o ge
Ġl ads
est ab
ge nder
ect or
ĠDe er
Ġbre w
Ġey eb
Ġplant ations
ĠFle m
ĠSecond ary
cul osis
ĠHor ace
Ġcontest ant
Ġalter ations
ĠSlav ic
Ġsty led
ĠMonten egro
m ination
en i
ĠA very
Ġbe ams
ĠW ise
Ġpl aster
ik ini
Ġport al
ĠMon aco
Ġste alth
ĠAir bus
ĠQu ick
ĠMill ion
Ġclean ed
Ġtrail ing
Ġkiss es
Ġinterpret ations
Ġsupple mented
ĠNass er
ĠCN N
Mart in
Que en
I nt
Ġp apa
ĠH uff
ĠD olph
Ġr aven
ĠJ ob
Ġfl anks
Ġfl avor
Ġins ists
ĠPol es
Ġbar gain
ĠGar rett
ĠConfeder acy
ĠHart ford
Ġabsor ption
Ġacknow ledge
ĠAqu itaine
Ð º
Ġc unning
Ġp awn
Ġl ens
ac ements
iv ores
Ġsh o
qu it
ĠV id
ĠAl berto
Ġstre aming
ĠSan ct
ĠAnt io
tt es
ĠNot able
Ġproceed ing
ĠWhe ther
ĠCart man
Ġvig orous
ĠSold ier
ĠKarn ataka
Ġf oster
Ġg or
ĠR iv
ĠW i
ĠF iji
ĠG ert
Ġam p
ĠRe vel
Ġbr av
Ġbo iling
Ġanim ators
ĠGo es
Ġdecre asing
Ġdesper ately
Ġunanim ously
Ġarbit r
ĠRockef eller
Ġst aging
ĠSh im
enn ess
Ġintens ify
Ġconstit ute
Ġmemorial s
ĠBud apest
ĠAby ss
Ġc ouncill
ĠA G
ĠC ould
ĠR anger
ĠR KO
Ġr ude
Ġdo o
Ġret ains
uck land
Ġcompos ite
rown ed
Ġvarious ly
Ġemploy ing
ĠOld ham
Ġacqu ainted
ĠNord ic
Ġpenet rate
Ġantib iot
ĠHass ett
ĠChop ra
Ġalumin ium
Ġsanct uary
Hen ry
J ean
N ovember
ĠS uccess
ĠP ie
ine as
Ġap ost
Ġdiffer ing
che z
ĠCirc us
Ġdecor ations
Ġtrend s
Ġvig il
ĠÏ Ģ
osom es
Ġcompass ion
occup ied
P re
Ġt urtles
ar as
Ġin ert
ing ed
Ġh iring
Ġn od
im ated
ĠK iller
Ġsub way
Ġhand ic
Ġdisc s
isc opal
Ġ31 0
Ġeconom ically
Ġlif es
Ġdream ing
Ġmis fort
Ġflower ing
Ġsav age
ĠUl ster
ĠNi agara
Ġdreadn oughts
Ġnutri ents
Ġenvision ed
R el
S il
c op
al om
ĠL ana
ĠE state
Ġwe pt
Ġday time
ren ched
Ġsever ity
Ġgl impse
Ġsoc ially
Ġdi ocese
Ġturb ine
g rove
in ement
ĠG olf
Ġnot ices
Ġcl ash
Ġ18 18
ĠCon an
ĠCon versely
Ġest e
Ġpar rot
ĠEn s
Ġaw a
ĠMcC oy
ĠNort heast
ĠReview s
ĠEver glades
ĠGro ves
ĠOd ys
ĠSpart an
Ġvertebra e
f u
es is
Ġbr id
ident ified
Ġpres idents
Ġgu essed
ĠCl aus
Ġpar ap
Ġpost season
ĠDav en
ĠInter active
ĠRev ival
Ġimag in
Ġtall er
Ġwarm th
ĠDub ai
ĠDres den
l ater
v ie
Ġb ounded
ĠS earch
Ġ20 3
Ġ20 6
ĠY a
Ġfl ute
Ġdon key
ĠÂ ²
Ġbar ons
Ġtele gram
Ġspect acle
Ġpseud onym
ĠVul can
Ġelong ated
b ler
t is
ĠT aunton
ĠM aking
ĠL ives
ag asy
ĠK od
ĠTh ai
act ivity
anc el
Ġqu ack
Ġem ission
Ġstart led
Ġaddition ally
ĠStud y
ĠTown send
Ġexhib itions
Ġign ore
Ġexplos ions
ĠIndust ries
|||| ||||
role um
ĠOkin awa
Ġsophom ore
E s
J ul
Ġp aced
ĠW et
Ġr iff
Ġcon gestion
ber n
ual a
Ġsur plus
Ġmar vel
Ġsystem atic
Ġequ ilibrium
ĠÃ ł
ĠSar awak
Ġsym phony
Ġvir gin
Ġscr amb
ĠMort al
ĠKit chen
Ġtack les
Ġhaun ted
Ġsatir ical
A pril
S I
e i
Ġw ow
ĠB O
art ments
Ġj ar
ons on
ĠSh ock
ĠBe ech
ĠPl ans
Ġgl owing
Ġreal izing
Ġcampaign ing
isl aus
ĠHun ters
Ġupgr ades
Ġrept iles
F rench
ar ine
ĠF ra
Ġ( ),
ans on
ĠAr j
Ġnomin al
ĠOff ensive
Ġtraff icking
Ġroll s
Ġdescend ant
Ġcraft s
D em
g ne
ĠB arlow
ĠK ok
ĠMar vin
Ġass im
ĠPr ide
Ġhit ter
ĠMac beth
Ġliber ation
ĠCoast al
Ġcriticism s
Ġloud ly
Ġsurprising ly
ĠConserv atives
ĠTrav is
Ġimprov ised
Mat ters
ĠLomb ard
R uss
c ross
Ġm ason
ĠC ell
ur ia
ĠF erm
ĠL ark
Ġde posed
ĠIn ch
ult s
Ġev angel
ĠBr ain
Ġcr ane
ĠEd dy
Ġshort est
Ġtri angular
ourn als
Ġpot ato
ĠFort une
Ġwing ed
ĠVol can
ĠRom antic
ĠÎ ±
ĠFilip ino
ĠTotten ham
en b
Ġin appropri
am el
ĠC ory
ot ism
ow itz
ĠB E
ĠR ule
ĠW izard
um en
ood y
Ġfl op
Ġmon etary
Ġpost ers
ĠBel ize
ĠDire ction
Ġadj oining
ĠProv incial
ĠSum mit
Ġprev ents
ĠRav ens
Ġindirect ly
Ġflatten ed
ĠHyder abad
U M
x es
Ġt ug
Ġm ath
ĠB urt
pl an
Ġme adow
ĠAr gy
Ġexp on
idd y
Ġbar riers
Ġcycl es
ĠPet erson
Ġscript ed
Ġincred ibly
Ġump ire
m oon
Ġc ites
Ġm oll
ess el
Ġend uring
ĠWh ale
ĠCal der
ĠHam mers
Ġviol ently
ĠBarb ados
ĠNic ol
Ġgro ove
ĠTal bot
Ġinaug urated
Ġtrunk line
ĠAntar ctica
Ġpsychiat ric
Ġbree ze
ĠAltern ative
Ġreper toire
ĠCyn thia
b uck
k as
ĠB ac
Ġun incorporated
ide a
Ġwor ms
Ġad verse
Ġser geant
arr ang
Ġdem ise
ĠCor inth
Ġpot tery
ĠPat ty
Ġguard ian
Ġapart ments
Ġadvert ised
Ġearthqu akes
Ġsatisfact ory
Ġsegreg ation
V ER
c s
Ġ ze
Ġp ays
ĠG if
ag in
ĠCh rys
Ġsc enery
Ġrec k
Ġpop ulous
ĠCon stance
ĠZ eus
ĠGl ad
att i
Ġund oubtedly
Ġunivers ally
Ġwars hip
Ġhem isphere
Rich ard
Ġextrav ag
C ont
T R
f ind
k u
Ġc ares
Ġcon e
Ġse ctors
um per
Ġpro pon
Ġ13 4
Ġref res
oon er
Ġexpl ores
ĠWe aver
ĠHam m
light en
ĠEll iot
ĠEp stein
ĠWhe at
ĠXX X
ĠTob y
ĠVaugh an
k iss
Ġb ounce
ĠT iber
Ġal armed
ĠF oss
ge bra
ous ers
old ed
Ġac et
Ġdet ention
Ġhum ili
Ġdest inations
sequ ent
Ġmer ge
ĠCr iminal
ĠÃ ĵ
---- "
ĠCam den
Ġeth ical
Ġrend ez
ĠBuff y
ĠExt ra
cha ikovsky
Ġintend ing
Ġrehabil itation
" :
f ellow
h ang
Ġb row
ĠS ave
ĠA uckland
ĠM und
ĠB Y
ĠH ak
ĠF OR
oc ide
Ġsu nd
Ġtr aps
ĠSc ream
Ġemploy s
Ġstep ping
Ġtor ch
Ġdoll s
ĠTy p
n on
ĠC anning
ĠI M
ĠH ed
Ġan ter
Ġk its
Ġdes irable
ĠSh Åį
ĠQ ing
Ġed it
ĠWe iss
Ġwind ing
Ġrock ets
Ġfree zing
ha er
ĠGar land
ĠDun n
Ġveget able
Ġrailroad s
Pl ot
Ġsacrif ices
Ġvig or
ĠHig her
Ġdolph ins
F e
Ġw ander
Ġb izarre
ĠT ae
Ġn i
ĠM ud
Ġr uth
Ġ15 6
ĠCol ts
ĠCal ais
Th omas
sc ill
Ġinf ring
ey es
go vern
ĠMed ieval
che on
ĠArch ibald
Ġsynt hetic
Ġdeleg ate
ĠVick ers
Ġnois y
Ġl id
ĠM W
ĠN avig
rit t
uc us
Ġsec re
orth y
Ġinter changes
ĠInd ex
ĠEuro vision
ĠWilliam son
Ġnatural ist
ĠMic he
Ġillust rate
Ġrehears als
Ġin und
Ġre int
ĠB ury
ri ous
Ġno ct
Ġreal ise
ĠBet a
Wh ite
Ġ179 6
Ġdefin itive
ĠBon aparte
ĠRaj a
ĠChem ical
Ġt rop
Ġd azz
ĠT i
ĠS F
ĠC rete
ĠB ash
Ġpro claim
Ġdis ple
ĠRe leased
Ġstory telling
Ġsent iments
Ġhard core
Ġmax im
Ġfat igue
ĠSol o
ĠBeat rice
Ġfashion ed
5 8
Ġw aved
ĠB ound
ĠThe ory
ĠH ib
ĠP ig
ĠE z
ĠV ision
gr ims
Ġke el
ĠDr ag
Ġsil ently
ĠSup port
Ġemploy ers
Ġfix ture
ĠTra vers
ĠWater loo
Ġscr ub
idel ity
Ġhier archy
Ġworksh op
ĠKany e
ĠMikh ail
ĠDaven port
e ight
f i
re hend
Ġre jo
ĠC ove
ĠL ic
ber ht
Ġex ported
Ġcr ab
Ġhy ster
Ġschol arly
ĠYanke e
ĠâĨ Ĵ
en ne
ĠD ug
ĠW hed
Ġcl utch
Ġout lined
Ġreg ulated
ck i
Ġsmall pox
Ġfr ust
ĠGram mar
ĠÎ¼ m
Ġconclus ions
Ġas cent
ĠF anny
ĠN D
Ġv apor
ment ioned
ob il
Ġbr anded
Ġmon itors
Ġmed ication
Ġdiv iding
Ġdisturb ing
Ġrenov ated
ĠPyr Ã©nÃ©es
Ġelectrom agnetic
P D
Ġf iber
ĠR he
ĠG P
ĠN iss
op ers
oc ative
Ġex ports
cl osed
Ġgl o
Ġconf using
uk es
Ġz ool
Ġassist ing
look s
ĠFort ress
Ġast rol
ĠNic olas
Ex cuse
Ġcere al
Ġkilog ram
ĠContin uing
g uez
v ine
Ġh ides
ĠW ine
ap ur
Ġim pending
end ers
ĠComp et
ĠWrit er
ĠMP s
commun es
Ġurg ent
Ġvow el
Norm andie
ĠSchwar z
F in
Î º
Ġd ot
ĠF av
Ġro pes
ib ia
ĠFor rest
Ġkill ings
Ġrain bow
ĠGame Cube
Ġimm unity
Ġswim mer
Ġconvin ces
Ġshield s
Ġchick ens
ĠPom pe
ĠRook ie
Ġsop rano
W S
en as
Ġf el
ĠC ON
ĠH iggins
Ġr ans
ass is
Ġag gress
Ġtrans f
ops y
Ġmot ors
Ġbi as
Ġfinanc ing
ĠGro ening
Ġpuzz led
ĠNear ly
Ġcalcul ations
Ġdisgu ised
G ot
L es
N obody
W orld
l ob
p resent
ĠS overe
Ġfor wards
Ġpro jection
act ly
ĠAnd roid
ĠPro per
Ġla ure
ĠEl inor
ĠHung arians
Re illy
Ġliqu or
Ã« l
Brit ish
f rey
Ġcomp ares
Ġ6 10
Ġbr ighter
Ġbu oy
na eus
Ġexp ans
Ġinf rared
ĠMal vern
Ġmem oir
stitution al
ĠPop Matters
ĠRick y
Ġswitch ing
ĠTitan ic
ĠAmbro se
L uc
b id
ar ious
Ġd uke
ĠC ott
Ġal ign
ag us
pl anes
ink a
Ġgu idelines
Ġsol ving
ĠPol ly
Ġmot ivation
ĠMal agasy
Ġver bal
Ġrat ified
Ġforeign ers
ĠHere ford
Ġdestro ys
Ġrepubl ican
Ke ep
ĠParagu ay
Ġm un
Ġg aps
Ġst ain
ĠK ip
Ġad vers
Ġmus cular
pr ints
Ġ16 3
ĠQ ual
Ġ13 6
ĠDiv ine
ĠHol iday
het amine
ĠKh al
ĠKn own
Ġstrike outs
Ġremix ed
Ġprev ailing
ĠRegard ing
Ġlav ish
Ġbew ild
Atl ant
ĠA th
ĠB AFTA
ĠH are
Ġst o
ĠD ante
ĠL ap
ĠN est
Ġch uck
Ġam ended
Ġass umes
Ġshort ages
ĠMon key
Ġdest iny
ĠSm ash
Ġbroad caster
ĠLo op
Ġstret ches
Ġearn ings
Ġfurn ished
ĠCrow ley
Ġawait ing
m uch
ĠT S
ĠB res
ĠD oyle
ace ans
ĠAt ari
Ġ15 3
ĠCl air
Ġrev ive
oss a
Ġshut tle
Ġchor al
ĠRow land
ĠZh ang
ĠAppe al
Ġcogn itive
r ac
Ġin gen
ĠA bs
ot us
Ġst am
ĠG ur
Ġcomm issions
Ġchar iot
Ġpres ided
Ġline age
Ġequ als
ĠBar ney
Ġter rific
Ġcycl ing
Ġeth n
Ġtim id
ĠFal con
Ġrib s
Ġpip eline
ĠToy ota
Ġcig arette
fle et
Ġethan ol
F ebruary
M c
ĠS affir
Ġn mi
Ġon ward
ĠB P
ul ing
ĠK ombat
Ġover run
Ġcan opy
Ġcons picuous
ĠRe yes
com b
uff le
uk ov
ĠBer k
Ġhom eland
Ġconver ting
ĠRou ge
ĠEC W
h oun
it imate
ĠS ina
ĠD ul
ĠJ ol
ĠE h
Ġcan als
other apy
Ġsur g
sc reen
ĠDr agons
ĠPaul a
Ġring ing
Ġ179 1
Ġhyd raul
Ġdecre ases
Ġappoint ments
ĠAbb ott
ĠExper ience
ĠClif ford
Ġnumer ical
shadow ed
c onscious
ä ¸
ĠD ong
ĠD irty
ĠG os
ĠL j
est ead
uc ational
Ġform idable
Ġrece ip
Ġattack ers
Ġstruct ured
Ġprop elled
Ġencour agement
Ġ182 7
ĠRom ance
izz ard
ĠFact or
Ġcontend er
Ġretros pective
rÃŃ guez
Ġbureauc r
A ss
is ner
Ġf ried
ĠI ro
ĠW enger
ĠV iolet
we ek
Ġgood bye
ĠPr ayer
Ġgl oom
pec ial
Ġ29 5
Ġrain y
Ġimm un
iser ies
Ġdism ay
ĠAri el
ĠHerman n
Ġod or
Ġorn ith
ĠPix ar
c ony
t Ã©
er un
Ġf res
ĠD ust
ĠN ights
ĠJ ub
ĠIn st
Ġun to
ĠCom et
Ġrepl ay
Ġdoc ks
Ġmis ery
uther land
Ġovert urned
ĠPriv y
ĠKub rick
Ġdisgr ace
U s
f ree
h orn
à ¥
Ġn u
ac cept
ĠP iper
Ġy og
ĠR ules
ain ty
ĠY as
ĠPh ase
Ġinf ants
Ġpriv acy
Ġtail or
Ġhun ts
Ġassault ed
Ġoblig ations
Ġprohib ition
Ġrepr inted
ĠCitiz ens
Ġconfisc ated
ĠCarne gie
t el
ĠP ound
ĠP iet
ist ance
res pect
ell an
ĠK ai
Ġcl over
Ġsuccess ors
ĠPh on
ĠEl iot
hold er
Ġsell s
ĠHav ana
Ġconcess ion
Ġpled ged
ĠSaman tha
ĠLik ewise
M a
r one
Ġw ield
Ġb idding
ĠC ic
ĠC av
ĠC oin
ĠE u
Ġsh rie
Ġdo ve
Ġrec ur
Ġshow case
get s
ĠPres idency
Ġsuff rage
ĠKh mer
Ġconfl u
Ġcontrast ed
Ġharm ful
Ġcollect ors
Ġmir acle
Ġsimpl ified
Ġignor ant
Ġbeet les
ĠRecon struction
ĠObl ast
ĠBax ter
5 6
e xt
i ative
ĠH imal
ĠR oland
op ath
Ġch oo
Ġover ly
Ġoff ended
Ġpre tt
Ġinter mitt
eb ra
ĠQ ur
Ġwin ters
Ġequ ity
Ġsuff ers
ĠFrank furt
Ġprop het
Ġmonaster ies
aston bury
Ġlandsc apes
ĠNicar agua
ĠPhel ps
s n
Ä ĳ
Ġa irst
it ness
ĠT ara
ĠR w
ĠG le
ĠJ ude
ĠK ru
Ġle mon
Ġrel ics
ĠBrit ann
Ġche cks
ĠPenn y
Ġmut iny
ĠRod rÃŃguez
Ġcontain er
Ġcondem n
Ġglac ial
h ound
l ash
Ġ ×
Ġin mates
al one
Ġh ards
ĠS W
ĠS idd
ĠB ug
th ings
um ont
Ġsa fer
ĠBrit ten
Ġdist orted
Ġed ible
ĠMil k
ĠAv atar
Ġinstit uted
Ġmyth s
Ġspons orship
Ġanaly zed
Ġexplo itation
Ġredesign ated
Ġunde feated
ĠPret ty
C or
g el
m ire
Ġp onies
Ġd ess
le ading
ĠI o
Ġhe el
ab is
ĠV ie
ne z
ink y
ĠCl ap
Ġaut ism
Ġpot atoes
Ġjournal ism
pro fit
Å¡ iÄĩ
Ġimmigr ant
ĠRest oration
ĠAthen ian
f o
Ġd op
ut nant
ĠH enson
Ġr hin
ĠF R
oll s
Ġam az
ubl ic
ĠRe qu
Ġadv ise
ĠPlay ing
Ġtransl ations
ĠHon our
Ġmoon light
ĠEver ton
ĠCob b
Ġconven ed
ĠEnt ry
Ġcad ets
Ġstir red
C arl
l og
r ane
or ical
Ġc alf
Ġf ission
ĠC ities
ĠI A
ĠI de
ĠP asha
od or
ĠJ al
ĠIn to
Ġsqu ares
Ġdecl ares
Ġcompl ain
Ġtor rent
AN T
ĠEgypt ians
ĠOs aka
lig a
Ġ73 7
Ġrede velopment
ĠPhilos ophy
ĠMcClell an
C al
Ġw retched
ĠC F
ĠB ian
ĠH aj
Ġst int
ch amp
ĠR ocks
ĠW o
Ġpro be
Ġkn ot
iss on
Ġdef ines
ĠX en
Ġpar a
Ġcommun ism
ĠCongress man
Ġcommission ers
writ e
Ġ182 6
Ġrequest ing
ĠLow e
ĠNapole onic
ĠShel by
Atlant iques
V I
ĠS of
ĠM og
ĠM IT
ĠB S
ĠIn sp
Ġinto x
Ġty res
Ġvis ions
com p
Ġz omb
ĠRes erv
ĠAtl antis
Ġnucle i
ĠSacrament o
h on
l av
w old
Ġc yn
Ġc elestial
Ġf auna
ar ound
Ġm um
ĠC ope
ay ana
Ġ18 13
aken ing
Ġrecogn izes
ĠGreen wich
gl i
Ġhar p
uts ch
Ġcoordin ate
ĠStra its
ĠThan h
ĠMaid en
ĠKyl ie
Ġ ^
Ġc ush
ĠA be
ĠM ate
Ġkn e
ĠAl z
let ter
ĠMe gan
ĠGl astonbury
cent ury
do ors
ĠRes olution
ĠBen ch
Ġharm on
Ġmap le
Ġvel vet
Ġweigh s
Ġannex ed
ĠScandin avian
ĠEston ia
ĠChronic les
j in
m il
er i
ĠC oke
ĠR O
ĠG DP
all ow
ĠK ry
cl ed
ign on
are th
Ġgr ains
Ġfin ances
Ġbr isk
tain ing
Ġsl ogan
ĠAnd r
Ġcor rected
Ġhear ings
ĠEv angel
ĠSpe aking
bl ack
Ġ180 3
oz oic
ĠDark ness
ĠAnim ated
Ġbarr age
song writer
L ong
k ie
n ick
Ġp inn
ĠS ands
ent in
ĠM ode
ĠH els
and ers
ĠN it
ĠJ ump
Ġag ing
Ġte aches
ft s
ĠRe venge
Ġ16 00
Ġmar gins
ĠAugust a
Ġ14 3
Ġer otic
Ġbreak away
Ġtax ation
ĠBur ma
Ġwild ly
Ġpack s
Ġstick ing
Ġassass inated
ĠFrances co
Ġric hest
ĠRaid ers
b els
it ud
Ġin ward
Ġp izza
ĠS ikh
if iable
Ġall oy
Ġ18 17
Ġsl ain
ĠCon way
ĠZ ur
Ġaccess ed
Ġminor ities
Ġtow el
Ġsal vation
ĠDam on
ĠCru ise
Ġbenef ited
Ġdiscour aged
Ġaristocr acy
ĠMoz art
Ġanat omy
ĠHiro shima
Ġsubstit uted
Ġtuber culosis
Ġd ash
ĠS I
Ġg land
Ġfor aging
Ġst ump
ĠR ac
pe z
ĠSt rip
ĠCh at
Ġen erg
Ġsp inal
Ġev id
ĠAn s
Ġpar achute
ĠArm oured
Ġconsum ing
Ġexception ally
ĠLaure nt
Ġrhythm ic
Ġadvoc ates
Ġexcav ation
opot am
Ġhered itary
P ort
X X
f ess
Ġo un
ĠC i
ĠF ut
Ġup ro
Ġey ed
Ġ64 0
Ġagree ing
Ġexplo ited
Ġairfield s
Ġsear ches
Ġá ¼
Ġautobi ographical
Ġcasem ates
ĠSchne ider
ĠYucat Ã¡n
F our
N S
O ff
S uch
S tr
in ely
Ġth igh
ĠS ob
ĠS utherland
Ġn ails
Ġbe nding
ĠP resent
ĠD ictionary
Ġsc orn
Ġlit ter
Ġpol ite
ĠMe h
Ġhold ers
Ġcomplex es
ĠBu ilt
ãĥ «
Ġbutter flies
Ġpill ars
ĠDest roy
Ġhes itated
pel in
ĠSche er
ambo o
Ġamend ments
Ġappet ite
Ã¢te au
H ER
ad ay
Ġfor c
ĠD ora
ĠR abb
ĠW augh
ĠF ruit
ĠO mar
ĠAl pine
Ġsl ipper
ĠTr an
ĠMac donald
het ics
bl ood
ES T
ĠLiber als
Ġ182 3
quis ite
Ġannoy ed
Ġincons istent
ĠAlam os
ĠVett el
Ġs ire
ĠT chaikovsky
ĠS is
Ġn em
im ming
et to
ay ne
ĠD ahl
ĠG O
ort ic
Ġj ournals
Ġsa ils
ru ctions
ĠAn j
ĠWe h
Ġclear ance
ĠAct ors
Ġbul b
iter ated
ĠEle mentary
Ġundert aking
ĠLow ell
Ġfasc inating
ĠPeng uins
Ġepit het
Ġaug mented
L ove
Ġh ilar
ad vert
ĠD ifferent
Ġso fa
Ġdep rived
ung a
Ġprote ctor
ĠThat cher
ĠCour se
ĠÃ İ
Ġenjoy s
ĠEr lew
ĠArch d
Ġcas ino
Ġgall eries
ĠSa igon
ĠNich olson
Ġreson ance
ĠEthiop ia
ĠErlew ine
Ġs led
it as
ĠS aga
Ġst amps
og ram
ob ia
Ġam used
unk er
Ġoccup ies
fact ory
rif ying
Ġsurviv or
Ġinnov ations
ĠVers ailles
Ġfierc ely
ĠHitch cock
e at
p est
Ġt ally
Ġin ception
Ġd ro
Ġst ocks
Ġpro w
ĠK och
Ġgo ats
ren s
Ġdeep est
Ġpit ches
Ġcatch y
ĠUr s
Ġcommit ting
Ġtoss ed
Ġpilgrim age
ĠBreck in
A ir
l ove
Ġh ath
ic ates
le a
el come
st re
ĠH ut
ĠW igan
em ann
ri ar
Ġex empt
ĠCh u
Ġper il
ĠBr ill
Ġsk irt
Ġmark er
ĠGu ang
Ġnational ism
Ġinflu enza
ĠSl ow
ĠMer it
Ġcaptain ed
Ġmouth s
Ġaccident al
ĠLand mark
Ġgall ons
ĠRow ling
asm us
Every body
Ġsentiment al
ĠCurrent ly
Ġprejud ice
Ġimmort al
h our
ĠC ult
ur ious
ĠG ale
Ġtr ash
Ġrem astered
Ġmill ennium
Ġbirth place
Ġflo ated
run ner
chw itz
Ġunre leased
ĠWolver ines
ĠVenet ian
Ġoutn umbered
J o
N or
l est
he ar
Ġp a
ĠR CA
Ġr amps
iv isions
Ġim pe
ĠAl ps
ĠGr ass
Ġaff l
Ġauthor ised
Ġstraight forward
ĠEp iscopal
ĠRun ning
Ġcompr ise
Ġspo il
Ġspokes person
Ġsab ot
Ġepid emic
E ach
G C
fer ences
Ġem igrated
ĠBr am
cept ions
Ġmar ijuana
Ġview ership
Ġquick er
Ġdi aper
Ġdistrib ute
Ġadop ting
Ġpropos es
Ġ44 0
Ġcart ridge
abb ing
Ġcooper ative
Ġghost s
ĠNAS CAR
ĠVeter ans
Ġstrongh old
E uro
r ines
Ġs ins
Ġg em
ut ory
ru z
Ġpe nding
Ġsever ed
Ġequ ator
ush i
ĠEn cycl
hys ical
Ġnomin ate
Ġaw oke
ĠSub sequent
ĠJer icho
Ġimpl ications
ĠJar rett
ĠStef an
Ġpedest rian
Ġneckl ace
Î ·
ad in
Ġe jected
ĠP iano
ĠU mb
Ġun rel
Ġwho ever
Ġdef ault
Ġsl am
ĠAnd ri
ĠReg ina
Ġhost ility
ĠSl ovakia
Ġsens ible
ĠCharl ton
Ġgrass es
ĠShep ard
A ust
A dd
an j
ĠS ki
Ġg ly
Ġst ew
ĠO din
ast ics
ĠSt ur
Ġun sc
Ġdis position
emb rance
ĠFl otilla
ĠEx hibition
ĠBo er
ĠWood y
Ġchem ist
Ġ180 8
Ġactress es
Ġexperiment ed
Ġ177 7
ĠStand ing
ĠSax ony
P op
ĠR ory
ĠE ra
Ġher ds
oll ah
Ġstr at
Ġcr acked
inc ible
Ġprocess ed
Ġcourt esy
Ġtransfer ring
Ġremark ably
ĠDi ocese
Ġemphas ize
ĠHo oper
Ġdisin tegr
7 8
f elt
z t
ĠB iz
Ġsh attered
Ġsp herical
ĠAt omic
Ġ16 1
Ġmusic ally
ĠCar bon
Ġfr iction
Ġprem ium
ĠSuper ior
ĠTim or
sp ace
Ġut tered
Ġexpect ation
Ġinteract ive
ĠDal mat
Ġexplan ations
Ġpref ers
Ġcater pill
ĠAven gers
ĠStam ford
ĠC rew
ĠL E
.. ."
row th
Ġmet ro
Ġold s
Ġsupport ive
ops is
Ġgen ome
Ġdri p
uff ed
Ġple a
Ġge ology
ĠFre ud
Ne il
Î¿ ÏĤ
Ġcalm ly
Ġdrown ing
ĠChes hire
ĠBagh dad
u ve
Ġo ven
Ġb acon
Ġf ist
ĠT ao
ĠC ot
ĠB uc
Ġas ym
ĠW C
ĠW S
ew ood
Ġno ises
ret to
Ġclass ics
ĠNorth western
Ġcor rel
ĠDo es
ĠHistor ically
ĠCrit ic
Ġhal ft
ĠOri ent
ĠMyst ery
Ġcaut ious
Ġcompuls ory
ĠWhed on
? âĢĻ
D ear
c asters
or os
Ġn arc
Ġg az
ĠH ab
un i
ĠL al
Ġv oid
ĠIn qu
ĠSh ould
Ġsk ate
ham mer
ĠRep orter
19 0
Ġbi ographical
Ġcommission ing
Ġemb roid
Ġmechan ic
Ġrhy thms
Ġunl ock
ĠBra un
ĠAz te
ĠNich ols
Ġpoison ous
Ġmand ate
Ġpenet rated
H z
ĠC AP
Ġhe ap
ĠM ansion
ĠB ung
ĠThe me
Ġv iv
our se
ment al
Ġag round
Ġsc utt
Ġco ordination
Ġtrans parent
wh ose
Ġtotal ing
ĠMac Farlane
hold ing
ĠSher idan
Ġobserv es
ĠLeon ardo
ĠEst her
Ġreorgan ized
Ġpump kin
G old
s u
Ä Ļ
or ie
and el
ul ously
Ġde ception
Ġor chard
Ġcont ention
Ġpre season
Ġco ats
ĠCon nie
Ġbus iest
ĠAm elia
Ġmid way
ĠCr imson
Ġinsp iring
Ġcomfort ably
inder ella
Ġreserv ations
p ard
Ġo ceans
ĠI ber
ĠM ugh
ĠB oot
ĠN K
Ġbl ades
ĠRe gin
aj an
Ġdisc rimin
Ġbeh old
ĠBar th
Ġquar ry
Ġbal cony
ĠOt ter
Ġber ries
ĠElse where
ĠByr ne
H D
T ime
u ously
w ords
Ġre lying
ĠA ccess
ĠB order
Ġan te
ĠW en
ĠJ ut
ary a
Ġun tr
Ġen qu
Ġpre historic
ĠShe t
Ġinst ability
olog ne
omin al
ald o
Ġcell ar
ĠMcC orm
Ġrhy me
Ġprovision al
Ġdivers ion
Ġantib odies
Ġgorge ous
T y
Ġs ul
Ġc akes
Ġm asts
ĠH urricanes
ĠD rug
Ġar id
ĠLe one
Ġsur m
Ġins ert
fall s
Ġcoc aine
ĠLot us
parent s
ĠMult iple
ĠRaf ael
rews bury
Ġgraz ing
Ġfortun ate
l it
Ġf oli
ĠT ic
ĠT ub
Ġst anza
ning ton
ĠSp ani
Ġfire arms
Ġlik ing
Ġhuman itarian
ĠAg nes
Ġthreat ens
Ġsn out
Ġ39 0
ĠMid night
Ġgrav ely
Ġprosper ous
Ġtreas ures
Pres ident
H F
Ġg azing
ĠM ersey
Ġar rog
ah i
Ġimp ulse
ĠHer od
ĠBel ow
ĠNor ris
ĠJackson ville
Ġfunction ing
Ġhur ts
Un ited
ĠBeng ali
ĠKens ington
Ġparad ox
Ġrabb its
ĠGalile o
Ġtyr ann
ĠJed i
he us
ĠS hat
ĠA ver
ĠL up
up pe
Ġpro clamation
ĠK ahn
Ġtr ousers
Ġinc ub
Ġins istence
Ġgovern ance
Ġsk ins
ĠMel issa
Ġemb ark
ĠSund ays
ĠLy rically
ĠBab a
Ġterror ism
m or
s ville
is ors
ĠS ieg
ĠE ur
ĠSh i
Ġport able
ĠPar ade
Ġra ises
Ġcertain ty
Ġphys icians
ĠDem i
Ġpul p
ĠPle asant
Ġmorph ology
Ġmotif s
Ġaccomplish ments
Ġantiqu ity
ĠPlate au
cip ation
Ä ĵ
ĠT osh
Ġl il
ĠS we
ĠC um
un ts
ĠW AS
Ġr ushes
ĠN ike
Ġse am
ld on
Ġab used
ĠUn a
erm o
Ġdr ained
ĠLeg acy
ĠHans en
Ġpoison ed
Ġrevol ves
ĠInvest igation
ĠM Äģ
ĠP ays
Ġal pine
ĠL it
em aker
Ġk ins
ĠU b
Ġcl ashed
og enesis
ĠCom pos
Ġmin t
Ġmon opoly
ĠMc E
eth oven
ĠBo om
ĠLy dia
ĠMid land
ĠAz ores
ãģ ®
Ġdict ator
ĠMong ols
Ġjuven iles
n is
Ġb ask
ĠC oc
ĠW edd
art y
Ġout c
ile e
Ġext racted
Ġarg u
Ġ178 3
Ġvul gar
ĠPin occhio
Ġdict ators
ĠTerm inal
Ġprophe cy
u ya
Ġ è
Ġb ays
Ġb iblical
al ter
ĠT anz
Ġl amps
ĠB har
ĠF arn
ĠG ol
Ġor ch
Ġpe e
sh aven
Ġbest owed
stit utes
Ġcat cher
ĠRock et
ĠRob son
Ġamb ient
Ġ180 2
Ġcoordin ator
Ġcod en
Bes ides
c ot
re ne
Ġb iting
Ġwith stand
Ġy er
em ing
ag raph
ĠLe aves
Ġdown graded
ĠWh ich
Ġ30 1
ĠNe o
Ġste amed
ĠCor por
ĠVir gil
Ġtravel ers
aun ted
Ġfranch ises
Ġsymmet ry
Ġanalys es
Ġsuscept ible
c ke
n h
ak on
Ġv ass
ĠCh ance
ition al
Ġend ure
ĠSh ot
âĢĿ .
Ġfun n
osp ace
Ġfle ets
ĠGall agher
Ġid iot
ĠBie ber
B oth
Ġf ooth
Ġp avilion
ant ine
ight ed
Ġim posing
Ġem perors
ĠMay er
ĠUS C
ĠAm in
cent ral
ĠQu ater
ĠPat rol
ĠMass a
sp oken
Ġpale ont
acer b
Ġinfect ious
ĠLoren zo
ĠSloven ia
Ġinappropri ate
W orks
ign ant
ach a
ru k
Ġfl aws
Ġstr and
Ġsum s
mon ary
ES S
Ġcontrast ing
Ġsimultane ous
Ġcommemor ated
Ġcommemor ative
Ġnurs es
Ġconflu ence
! âĢĻ
d orf
Ġm as
Ġr idden
ĠF res
ĠG ut
Ġex ert
ip oli
Ġun m
Ġsc al
ĠCom ment
ĠSh rewsbury
Ġcr ashes
Ġbest s
ĠCor al
Ġviol ations
[...]
