{"<s>":0,"<pad>":1,"</s>":2,"<mask>":3,"!":4,"\"":5,"#":6,"$":7,"%":8,"&":9,"'":10,"(":11,")":12,"*":13,"+":14,",":15,"-":16,".":17,"/":18,"0":19,"1":20,"2":21,"3":22,"4":23,"5":24,"6":25,"7":26,"8":27,"9":28,":":29,";":30,"<":31,"=":32,">":33,"?":34,"@":35,"A":36,"B":37,"C":38,"D":39,"E":40,"F":41,"G":42,"H":43,"I":44,"J":45,"K":46,"L":47,"M":48,"N":49,"O":50,"P":51,"Q":52,"R":53,"S":54,"T":55,"U":56,"V":57,"W":58,"X":59,"Y":60,"Z":61,"[":62,"\\":63,"]":64,"^":65,"_":66,"`":67,"a":68,"b":69,"c":70,"d":71,"e":72,"f":73,"g":74,"h":75,"i":76,"j":77,"k":78,"l":79,"m":80,"n":81,"o":82,"p":83,"q":84,"r":85,"s":86,"t":87,"u":88,"v":89,"w":90,"x":91,"y":92,"z":93,"{":94,"|":95,"}":96,"~":97,"¡":98,"¢":99,"£":100,"¤":101,"¥":102,"¦":103,"§":104,"¨":105,"©":106,"ª":107,"«":108,"¬":109,"®":110,"¯":111,"°":112,"±":113,"²":114,"³":115,"´":116,"µ":117,"¶":118,"·":119,"¸":120,"¹":121,"º":122,"»":123,"¼":124,"½":125,"¾":126,"¿":127,"À":128,"Á":129,"Â":130,"Ã":131,"Ä":132,"Å":133,"Æ":134,"Ç":135,"È":136,"É":137,"Ê":138,"Ë":139,"Ì":140,"Í":141,"Î":142,"Ï":143,"Ð":144,"Ñ":145,"Ò":146,"Ó":147,"Ô":148,"Õ":149,"Ö":150,"×":151,"Ø":152,"Ù":153,"Ú":154,"Û":155,"Ü":156,"Ý":157,"Þ":158,"ß":159,"à":160,"á":161,"â":162,"ã":163,"ä":164,"å":165,"æ":166,"ç":167,"è":168,"é":169,"ê":170,"ë":171,"ì":172,"í":173,"î":174,"ï":175,"ð":176,"ñ":177,"ò":178,"ó":179,"ô":180,"õ":181,"ö":182,"÷":183,"ø":184,"ù":185,"ú":186,"û":187,"ü":188,"ý":189,"þ":190,"ÿ":191,"Ā":192,"ā":193,"Ă":194,"ă":195,"Ą":196,"ą":197,"Ć":198,"ć":199,"Ĉ":200,"ĉ":201,"Ċ":202,"ċ":203,"Č":204,"č":205,"Ď":206,"ď":207,"Đ":208,"đ":209,"Ē":210,"ē":211,"Ĕ":212,"ĕ":213,"Ė":214,"ė":215,"Ę":216,"ę":217,"Ě":218,"ě":219,"Ĝ":220,"ĝ":221,"Ğ":222,"ğ":223,"Ġ":224,"ġ":225,"Ģ":226,"ģ":227,"Ĥ":228,"ĥ":229,"Ħ":230,"ħ":231,"Ĩ":232,"ĩ":233,"Ī":234,"ī":235,"Ĭ":236,"ĭ":237,"Į":238,"į":239,"İ":240,"ı":241,"Ĳ":242,"ĳ":243,"Ĵ":244,"ĵ":245,"Ķ":246,"ķ":247,"ĸ":248,"Ĺ":249,"ĺ":250,"Ļ":251,"ļ":252,"Ľ":253,"ľ":254,"Ŀ":255,"ŀ":256,"Ł":257,"ł":258,"Ń":259,"Ġt":260,"he":261,"Ġa":262,"in":263,"Ġthe":264,"er":265,"on":266,"re":267,"Ġs":268,"Ġw":269,"Ġo":270,"ed":271,"nd":272,"Ġ,":273,"at":274,"is":275,"it":276,"or":277,"Ġc":278,"en":279,"Ġb":280,"Ġf":281,"Ġ.":282,"an":283,"es":284,"ar":285,"Ġof":286,"Ġin":287,"ou":288,"ing":289,"al":290,"as":291,"Ġp":292,"Ġand":293,"Ġm":294,"Ġto":295,"Ġh":296,"Ġd":297,"ic":298,"le":299,"om":300,"ion":301,"Ġth":302,"ĠT":303,"il":304,"Ġl":305,"ĠS":306,"Ġre":307,"Ġn":308,"ent":309,"el":310,"st":311,"ĠA":312,"ro":313,"ĠĊ":314,"ad":315,"Ġ1":316,"Ġe":317,"Ġg":318,"Ġwas":319,"am":320,"Ġ\"":321,"ĠC":322,"ac":323,"ĠI":324,"Ġon":325,"Ġbe":326,"id":327,"ly":328,"Ġhe":329,"ĠM":330,"ot":331,"im":332,"ow":333,"ut":334,"ol":335,"et":336,"ur":337,"ĠB":338,"ay":339,"ig":340,"Ġfor":341,"ir":342,"ver":343,"ve":344,"ĠThe":345,"Ġ@":346,"us":347,"Ġ'":348,"ter":349,"Ġthat":350,"ĠH":351,"Ġis":352,"Ġas":353,"ct":354,"ith":355,"Ġst":356,"Ġwith":357,"Ġwh":358,"ce":359,"Ġ2":360,"Ġit":361,"ĠP":362,"ch":363,"un":364,"-@":365,"Ġ@-@":366,"ation":367,"Ġal":368,"Ġy":369,"th":370,"ĠD":371,"ĠR":372,"and":373,"Ġan":374,"ul":375,"Ġat":376,"ĠW":377,"her":378,"Ġby":379,"Ġr":380,"ĠF":381,"os":382,"ain":383,"Ġ(":384,"ĠG":385,"ĠL":386,"Ġhis":387,"em":388,"ri":389,"ĠN":390,"Ġcon":391,"Ġse":392,"ag":393,"Ġ19":394,"rom":395,"ld":396,"um":397,"od":398,"est":399,"ers":400,"ĠJ":401,"ill":402,"Ġde":403,"igh":404,"if":405,"ap":406,"ĠE":407,"00":408,"Ġfrom":409,"op":410,"Ġ)":411,"ist":412,"Ġcom":413,"Ġyou":414,"ore":415,"ak":416,"ĠO":417,"all":418,"ere":419,"up":420,"âĢ":421,"art":422,"se":423,"pe":424,"Ġk":425,"ant":426,"iv":427,"res":428,"ard":429,"Ġpro":430,"Ġv":431,"ĠĠ":432,"ab":433,"ew":434,"gh":435,"ich":436,"ber":437,"Ġsh":438,"ies":439,"Ġwere":440,"Ġor":441,"Ġhad":442,"ort":443,"ate":444,"qu":445,"Ġch":446,"ess":447,"Ġare":448,"ong":449,"ight":450,"Ġnot":451,"Ġpl":452,"oc":453,"ave":454,"ame":455,"ĠIn":456,"Ġex":457,"ud":458,"ell":459,"our":460,"ity":461,"ĠK":462,"ough":463,"Ġle":464,"ust":465,"ip":466,"ive":467,"ast":468,"ack":469,"ould":470,"av":471,"ĠU":472,"ated":473,"ok":474,"ge":475,"Ġwhich":476,"red":477,"ment":478,"Ġsu":479,"Ġher":480,"out":481,"ound":482,"ian":483,"ĠSt":484,"ear":485,"Ġtr":486,"'s":487,"ost":488,"ally":489,"Ġ?":490,"ĠâĢ":491,"ie":492,"ia":493,"Ġbut":494,"Ġhave":495,"Ġwhe":496,"ord":497,"ome":498,"nt":499,"ine":500,"Ġar":501,"ary":502,"ther":503,"ĠHe":504,"Ġgo":505,"ous":506,"Ġun":507,"Ġab":508,"Ġ20":509,"pt":510,"ish":511,"Ġone":512,"Ġthis":513,"rit":514,"ide":515,"cl":516,"ĠCh":517,"Ġall":518,"Ġint":519,"so":520,"fter":521,"Ġus":522,"Ġ3":523,"irst":524,"ke":525,"ra":526,"ure":527,"ry":528,"ff":529,"ĠIt":530,"Ġthey":531,"Ġtheir":532,"Ġshe":533,"Ġup":534,"ĠV":535,"Ġj":536,"own":537,"Ġcl":538,"Ġwe":539,"ction":540,"pl":541,"Ġme":542,"ial":543,"Ġhim":544,"Ġdo":545,"wo":546,"cc":547,"Ġwho":548,"Ġ200":549,"te":550,"ub":551,"ass":552,"ue":553,"Ġwor":554,"mer":555,"Ġfirst":556,"ime":557,"ond":558,"hed":559,"Ġout":560,"age":561,"Ġalso":562,"og":563,"ater":564,"Ġits":565,"ire":566,"Ġhas":567,"Ġcomp":568,"per":569,"ind":570,"Ġcont":571,"one":572,"Ġman":573,"ov":574,"uc":575,"ign":576,"ice":577,"Ġad":578,"ical":579,"Ġag":580,"Ġne":581,"ĠTh":582,"Ġ;":583,"ree":584,"ans":585,"ition":586,"Ġbeen":587,"Ġkn":588,"are":589,"Ġbec":590,"Ġro":591,"Ġsa":592,"ance":593,"ace":594,"orm":595,"und":596,"port":597,"Ġ201":598,"ll":599,"Ġsc":600,"Ġtwo":601,"ile":602,"Ġte":603,"Ġso":604,"Ġover":605,"Ġap":606,"Ġwould":607,"Ġpart":608,"ne":609,"Ġper":610,"ount":611,"ence":612,"act":613,"Ġres":614,"iz":615,"Ġplay":616,"Ġother":617,"ook":618,"Ġgr":619,"ade":620,"Ġen":621,"ĠâĢĵ":622,"ach":623,"Ġcan":624,"ake":625,"ru":626,"ely":627,"wn":628,"Ġ4":629,"ick":630,"Ġoff":631,"ang":632,"ite":633,"oll":634,"Ġdis":635,"ult":636,"Ġ18":637,"Ġyear":638,"Ġafter":639,"ng":640,"Ġ5":641,"ĠY":642,"ose":643,"Ġrec":644,"Ġ:":645,"Ġtime":646,"ark":647,"Ġinto":648,"ib":649,"Ġser":650,"ory":651,"land":652,"Ġthem":653,"The":654,"ĠĠĠĠ":655,"Ġsp":656,"Ġthere":657,"very":658,"Ġwhen":659,"we":660,"uring":661,"ress":662,"ep":663,"Ġim":664,"Ġmore":665,"man":666,"ied":667,"ens":668,"urn":669,"Ġabout":670,"ations":671,"ions":672,"way":673,"ike":674,"old":675,"ĠUn":676,"ict":677,"clud":678,"Ġdes":679,"oy":680,"Ġev":681,"ates":682,"able":683,"'t":684,"aus":685,"Ġpre":686,"ove":687,"ings":688,"ect":689,"ild":690,"amp":691,"ward":692,".@":693,"Ġ@.@":694,"tle":695,"ail":696,"ited":697,"reat":698,"vers":699,"oin":700,"Ġwork":701,"rough":702,"Ġspe":703,"orn":704,"ĠSe":705,"les":706,",@":707,"Ġ@,@":708,"Ġinclud":709,"Ġcomm":710,"Ġpe":711,"ase":712,"ons":713,"Ġsaid":714,"ood":715,"ft":716,"Ġbet":717,"ased":718,"Ġfe":719,"iss":720,"ors":721,"oh":722,"Ġthan":723,"anc":724,"Ġagain":725,"ted":726,"Ġsome":727,"Ġno":728,"Ġqu":729,"Ġatt":730,"ered":731,"Ġfl":732,"tern":733,"ious":734,"ah":735,"Ġ6":736,"Ġnew":737,"ved":738,"Ġonly":739,"ican":740,"fer":741,"fore":742,"ĠAr":743,"under":744,"Ġdid":745,"Ġsec":746,"ath":747,"ĠMar":748,"Ġco":749,"Ġmost":750,"ĠAl":751,"Ġrem":752,"ks":753,"gan":754,"oth":755,"..":756,"ug":757,"Ġ7":758,"aw":759,"hat":760,"form":761,"end":762,"ts":763,"Ġpr":764,"Ġlike":765,"Ġwhat":766,"Ġmade":767,"vel":768,"ilm":769,"Ġmy":770,"ob":771,"Ġwhere":772,"Ġunder":773,"ix":774,"Ġday":775,"Ġear":776,"Ġop":777,"ational":778,"ss":779,"Ġbl":780,"Ġ199":781,"ents":782,"rib":783,"Ġam":784,"als":785,"Ġthen":786,"Ġ8":787,"Ġsup":788,"ubl":789,"ph":790,"ween":791,"other":792,"orth":793,"Ġcall":794,"ĠAmer":795,"ople":796,"Ġthrough":797,"--":798,"cted":799,"ren":800,"Ġcons":801,"hip":802,"ollow":803,"Ġinter":804,"ĠRe":805,"Ġcould":806,"ason":807,"Ġthree":808,"outh":809,"ĠDe":810,"Ġany":811,"ink":812,"ause":813,"Ġduring":814,"elf":815,"ĠNew":816,"the":817,"Ġfin":818,"Ġbr":819,"Ġret":820,"Ġ9":821,"Ġbetween":822,"Ġbefore":823,"Ġback":824,"Ġcent":825,"Ġend":826,"Ġfilm":827,"Ġchar":828,"ĠOn":829,"Ġact":830,"Ġwill":831,"ars":832,"ton":833,"air":834,"ock":835,"Ġprod":836,"Ġsuch":837,"Ġgame":838,"Ġwhile":839,"ics":840,"Ġnum":841,"ron":842,"Ġlater":843,"ather":844,"ember":845,"Ġrel":846,"Ġsong":847,"Ġreg":848,"ife":849,"ily":850,"hes":851,"Ġbu":852,"ool":853,"ĠShe":854,"Ġrele":855,"ters":856,"ĠLe":857,"Ġpos":858,"ful":859,"enc":860,"ener":861,"Ġif":862,"Ġpeople":863,"Ġused":864,"ever":865,"ating":866,"Ġacc":867,"ince":868,"ĠThis":869,"Ġind":870,"Ġele":871,"ular":872,"ten":873,"ral":874,"ank":875,"ann":876,"Ġyears":877,"Ġsub":878,"Ġac":879,"mber":880,"Ġfound":881,"ames":882,"hen":883,"au":884,"Ġlong":885,"ished":886,"ident":887,"ting":888,"Ġform":889,"Ġwell":890,"Ġsecond":891,"iew":892,"Ġass":893,"io":894,"Ġwrit":895,"Ġmus":896,"ision":897,"Ġyour":898,"Ġlit":899,"Ġfour":900,"ped":901,"tain":902,"Ġfollow":903,"ty":904,"Ġdown":905,"000":906,"Ġcol":907,"Ġmany":908,"Ġlar":909,"Ġknow":910,"iel":911,"Ġbeing":912,"ouse":913,"pr":914,"son":915,"ise":916,"Ġhow":917,"Ġshow":918,"Ġinc":919,"ĠAs":920,"row":921,"Ġsy":922,"Ġdef":923,"ual":924,"ale":925,"pos":926,"Ġsm":927,"ĠUnited":928,"ĠCom":929,"Ġsee":930,"Ġspec":931,"bum":932,"gr":933,"Ġdec":934,"Ġjust":935,"Ġent":936,"Ġsur":937,"Ġteam":938,"Ġvery":939,"Ġget":940,"oup":941,"ĠSh":942,"led":943,"Ġapp":944,"uch":945,"rop":946,"Ġrecord":947,"hing":948,"ower":949,"Ġpres":950,"Ġthough":951,"ived":952,"Ġset":953,"oun":954,"ik":955,"ific":956,"erm":957,"Ġ10":958,"Ġbecame":959,"ĠAn":960,"Ġcar":961,"my":962,"iver":963,"ury":964,"ier":965,"ven":966,"aj":967,"Ġappe":968,"oot":969,"vern":970,"Ġagainst":971,"Ġknown":972,"Ġmin":973,"Ġbro":974,"Ġhigh":975,"Ġcalled":976,"Ġseason":977,"Ġsing":978,"ork":979,"Ġ198":980,"Ġpubl":981,"Ġmov":982,"ĠAt":983,"hy":984,"Ġnow":985,"Ġalbum":986,"Ġinv":987,"az":988,"Ġstr":989,"ared":990,"Ġwant":991,"Ġep":992,"iet":993,"Ġright":994,"Ġdif":995,"ning":996,"Ġnumber":997,"ode":998,"Ġmon":999,"ĠAmerican":1000,"Ġloc":1001,"Ġsay":1002,"Ġ17":1003,"Ġcap":1004,"der":1005,"Ġmay":1006,"Ġcount":1007,"Ġpol":1008,"ired":1009,"any":1010,"ird":1011,"ĠBe":1012,"Ġadd":1013,"ĠEng":1014,"Ġboth":1015,"ĠFr":1016,"Ġthese":1017,"ober":1018,"its":1019,"Ġown":1020,"Ġmat":1021,"ures":1022,"ines":1023,"Ġsever":1024,"aking":1025,"Ġlook":1026,"Ġbel":1027,"une":1028,"Ġ000":1029,"ually":1030,"ĠBrit":1031,"ised":1032,"omet":1033,"Ġbecause":1034,"Ġlead":1035,"imes":1036,"Ġmet":1037,"ley":1038,"ohn":1039,"ained":1040,"Ġcre":1041,"til":1042,"Ġlittle":1043,"ross":1044,"ject":1045,"Ġpop":1046,"velop":1047,"chool":1048,"Ġem":1049,"ĠSc":1050,"Ġstud":1051,"Ġcharac":1052,"ities":1053,"Ġ197":1054,"Ġsl":1055,"Ġmain":1056,"Ġ15":1057,"Ġdist":1058,"ĠThey":1059,"ried":1060,"igin":1061,"Ġdire":1062,"Ġwar":1063,"Ġ/":1064,"ange":1065,"Ġinst":1066,"Ġ194":1067,"ull":1068,"self":1069,"ĠInd":1070,"Ġseries":1071,"Ġepis":1072,"Ġob":1073,"Ġair":1074,"ĠAfter":1075,"Ġ12":1076,"ck":1077,"Ġold":1078,"Ġway":1079,"Ġrece":1080,"Ġuntil":1081,"ative":1082,"Ġfam":1083,"erson":1084,"ĠJohn":1085,"Ġincluding":1086,"olog":1087,"Ġgood":1088,"Ġ196":1089,"ivers":1090,"ĠCon":1091,"Ġbegan":1092,"Ġ0":1093,"Ġgu":1094,"app":1095,"xt":1096,"ced":1097,"Ġship":1098,"ĠStates":1099,"Ġnear":1100,"ield":1101,"ins":1102,"Ġhead":1103,"ern":1104,"iam":1105,"get":1106,"ble":1107,"Ġpass":1108,"ened":1109,"Ġmake":1110,"Ġstart":1111,"ĠBr":1112,"ĠGr":1113,"Ġrun":1114,"Ġsame":1115,"Ġperform":1116,"Ġmuch":1117,"âĢĿ":1118,"Ã©":1119,"ism":1120,"Ġ16":1121,"Ġmill":1122,"Ġhand":1123,"ments":1124,"ĠCl":1125,"Ġdevelop":1126,"Ġ!":1127,"Ġbat":1128,"Ġmusic":1129,"ĠZ":1130,"Ġseveral":1131,"Ġcontin":1132,"na":1133,"Ġreturn":1134,"ĠAust":1135,"Ġrep":1136,"ces":1137,"erman":1138,"ĠâĢĶ":1139,"Ġart":1140,"let":1141,"Ġorigin":1142,"though":1143,"ists":1144,"ĠWh":1145,"Ġuse":1146,"gg":1147,"Ġsign":1148,"ner":1149,"eb":1150,"ible":1151,"ric":1152,"ĠMay":1153,"ĠHow":1154,"emb":1155,"ided":1156,"fl":1157,"Ġprov":1158,"ĠBl":1159,"Ġke":1160,"ized":1161,"uck":1162,"Ġ11":1163,"Ġlast":1164,"Ġcity":1165,"cept":1166,"Ġdon":1167,"Ġtook":1168,"Ġtrans":1169,"Ġreleased":1170,"Ġbo":1171,"ued":1172,"Ġhel":1173,"Ġdisc":1174,"ution":1175,"ĠSp":1176,"Ġgener":1177,"amed":1178,"Ġmar":1179,"Ġcame":1180,"``":1181,"here":1182,"Ġaround":1183,"Ġthink":1184,"ĠWar":1185,"Ġ''":1186,"stem":1187,"Ġchild":1188,"alk":1189,"Ġalong":1190,"ane":1191,"aving":1192,"Ġhere":1193,"Ġlife":1194,"Ġgroup":1195,"ccess":1196,"Ġland":1197,"Ġeff":1198,"ĠWor":1199,"Ġdep":1200,"Ġworld":1201,"Ġearly":1202,"Ġpoin":1203,"Ġmil":1204,"Ġeven":1205,"vent":1206,"ax":1207,"Ġcr":1208,"Ġturn":1209,"Ġgreat":1210,"Ġest":1211,"Ġname":1212,"Ġins":1213,"ially":1214,"Ġepisode":1215,"Ġgovern":1216,"ody":1217,"els":1218,"Ġsim":1219,"Ġevery":1220,"ret":1221,"Ġdesign":1222,"ured":1223,"enn":1224,"Ġpo":1225,"ĠIs":1226,"Ġrev":1227,"ĠFor":1228,"rap":1229,"Ġsmall":1230,"ium":1231,"Ġoffic":1232,"cess":1233,"ugust":1234,"Ġeach":1235,"uss":1236,"Ġdesc":1237,"ĠBritish":1238,"Ġimp":1239,"ains":1240,"ĠCol":1241,"ctor":1242,"Ġmod":1243,"Ġ195":1244,"ĠGerman":1245,"ĠAnd":1246,"Ġfeat":1247,"ptember":1248,"Ġput":1249,"ĠAugust":1250,"Ġhome":1251,"wards":1252,"Ġbook":1253,"erv":1254,"Ġdiffer":1255,"ĠMe":1256,"Ġplace":1257,"Ġstate":1258,"ene":1259,"ĠQ":1260,"augh":1261,"Ġ13":1262,"ger":1263,"be":1264,"to":1265,"ady":1266,"ina":1267,"ĠSeptember":1268,"tend":1269,"ash":1270,"Ġanother":1271,"ĠJu":1272,"Ġleft":1273,"you":1274,"oman":1275,"Ġwent":1276,"Ġed":1277,"ives":1278,"Ġtake":1279,"Ġmillion":1280,"ĠUS":1281,"ĠWorld":1282,"ĠKing":1283,"ajor":1284,"Ġcare":1285,"Ġserv":1286,"ĠAll":1287,"ĠĠĠĠĠĠĠĠ":1288,"ĠAd":1289,"Ġshould":1290,"Ġwon":1291,"uth":1292,"aced":1293,"ute":1294,"what":1295,"Ġstill":1296,"arl":1297,"ient":1298,"uced":1299,"ants":1300,"ĠPr":1301,"anu":1302,"gin":1303,"Ġwin":1304,"ĠOct":1305,"Ġcrit":1306,"Ġthose":1307,".\"":1308,"Ġnorth":1309,"Ġwee":1310,"Ġ193":1311,"Ġnever":1312,"Ġsix":1313,"Ġsuccess":1314,"ement":1315,"Ġocc":1316,"ness":1317,"'re":1318,"Ġplayed":1319,"Ġhist":1320,"ues":1321,"Ġattack":1322,"Ġ14":1323,"ison":1324,"Ġdr":1325,"Ġcour":1326,"Ġprodu":1327,"ĠTr":1328,"Ġsince":1329,"Ġmen":1330,"riend":1331,"Ġoper":1332,"ĠOctober":1333,"Ġrest":1334,"Ġsomet":1335,"Ġbuild":1336,"ĠTe":1337,"Ġsystem":1338,"Ġschool":1339,"Ġ$":1340,"ball":1341,"âĢĻ":1342,"ets":1343,"lish":1344,"by":1345,"Ġtoo":1346,"Ġarea":1347,"rist":1348,"Ġfive":1349,"Ġcharacter":1350,"hern":1351,"Ġgot":1352,"Ġprom":1353,"Ġconst":1354,"pect":1355,"Ġred":1356,"Ġresult":1357,"ĠJune":1358,"urch":1359,"Ġwater":1360,"sh":1361,"Ġext":1362,"Ġconsid":1363,"Ġexp":1364,"ĠAustral":1365,"med":1366,"Ġbre":1367,"Ġdescrib":1368,"Ġclass":1369,"Ġlet":1370,"ately":1371,"ians":1372,"arr":1373,"uro":1374,"Ġi":1375,"Ġperson":1376,"alf":1377,"Ġfollowing":1378,"Ġbest":1379,"ĠMarch":1380,"ovember":1381,"Ġsupport":1382,"ling":1383,"ister":1384,"ĠEd":1385,"Ġann":1386,"ĠHowever":1387,"ĠJuly":1388,"pril":1389,"ĠNorth":1390,"tal":1391,"Ġref":1392,"anuary":1393,"apan":1394,"ĠPro":1395,"Ġmed":1396,"Ġaway":1397,"ĠNovember":1398,"over":1399,"oss":1400,"Ġvar":1401,"Ġcome":1402,"ility":1403,"Ġkill":1404,"Ġband":1405,"Ġpartic":1406,"ĠApril":1407,"Ġreceived":1408,"ĠThere":1409,"Ġcomple":1410,"ĠJanuary":1411,"Ġlarge":1412,"Ġgoing":1413,"He":1414,"akes":1415,"ored":1416,"ĠCan":1417,"iving":1418,"ĠJapan":1419,"ĠYork":1420,"Ġph":1421,"Ġ191":1422,"Ġel":1423,"ital":1424,"raft":1425,"rew":1426,"ica":1427,"Ġcentury":1428,"hest":1429,"ĠPl":1430,"Ġhouse":1431,"Ġbelie":1432,"ilt":1433,"ional":1434,"aid":1435,"eter":1436,"Ġneed":1437,"cember":1438,"ney":1439,"Ġpublic":1440,"ched":1441,"ural":1442,"It":1443,"Ġ[":1444,"aim":1445,"ages":1446,"ves":1447,"ague":1448,"ony":1449,"Ġdeath":1450,"ĠSouth":1451,"ĠWill":1452,"eng":1453,"Ġfamily":1454,"aining":1455,"ĠBy":1456,"You":1457,"ĠDecember":1458,"Ġcontro":1459,"reen":1460,"Ġconc":1461,"Ġgl":1462,"Ġtop":1463,"ently":1464,"ung":1465,"Ġdoes":1466,"Ġshort":1467,"Ġallow":1468,"Ġnext":1469,"ience":1470,"ĠWhen":1471,"Ġsingle":1472,"Ġmajor":1473,"ats":1474,"ording":1475,"ined":1476,"ĠHis":1477,"Ġreport":1478,"iversity":1479,"ission":1480,"ĠComm":1481,"Ġtown":1482,"Ġcur":1483,"ĠGe":1484,"Ġkm":1485,"irl":1486,"ctions":1487,"Ġstory":1488,"eah":1489,"oon":1490,"ales":1491,"ĠPh":1492,"Ġsouth":1493,"ract":1494,"Ġthought":1495,"Ġfind":1496,"Ġ192":1497,"Ġline":1498,"idge":1499,"Ġpower":1500,"Ġadv":1501,"Ġmonth":1502,"rote":1503,"ple":1504,"arm":1505,"ott":1506,"Ġexpl":1507,"por":1508,"ĠBro":1509,"inc":1510,"Ġty":1511,"Ġ30":1512,"Ġdied":1513,"ĠWe":1514,"Ġdifferent":1515,"Ġopen":1516,"Ġtw":1517,"Ġsk":1518,"Ġcond":1519,"ively":1520,"Ġposs":1521,"Ġgovernment":1522,"Ġthird":1523,"||":1524,"ides":1525,"avy":1526,"ĠOr":1527,"Ġvis":1528,"Ġdet":1529,"Ġreal":1530,"Ġ25":1531,"Ġfew":1532,"br":1533,"Ġpolit":1534,"ĠYou":1535,"ically":1536,"Ġnamed":1537,"rench":1538,"ĠMc":1539,"ified":1540,"aster":1541,"aged":1542,"ĠEuro":1543,"Ġfriend":1544,"empt":1545,"ebru":1546,"Ġwrote":1547,"pend":1548,"vious":1549,"ert":1550,"Ġyoung":1551,"ebruary":1552,"ĠCount":1553,"Ġbased":1554,"ying":1555,"ox":1556,"mp":1557,"Ġstand":1558,"Ġrepl":1559,"ograp":1560,"Ġside":1561,"Ġwind":1562,"Ġ]":1563,"ĠChrist":1564,"Ġmust":1565,"Ġcolle":1566,"omen":1567,"ĠII":1568,"Ġhum":1569,"ature":1570,"me":1571,"Ġoften":1572,"ached":1573,"ĠFebruary":1574,"Ġdays":1575,"Ġwithout":1576,"Ġappro":1577,"day":1578,"atch":1579,"ĠFl":1580,"Ġtell":1581,"Ġcamp":1582,"ged":1583,"Ġleg":1584,"Ġevent":1585,"'ll":1586,"Ġeng":1587,"iven":1588,"Ġhimself":1589,"Ġfoot":1590,"Ġour":1591,"Ġvers":1592,"con":1593,"Ġes":1594,"elt":1595,"In":1596,"omin":1597,"Ġlist":1598,"less":1599,"Ġnight":1600,"Ġincre":1601,"Ġdue":1602,"'m":1603,"riv":1604,"Ġtit":1605,"Ġbeh":1606,"Ġterm":1607,"Ġfinal":1608,"Ġheld":1609,"Ġhapp":1610,"ulation":1611,"ĠDuring":1612,"Ġstre":1613,"ps":1614,"Ġport":1615,"Ġorgan":1616,"Ġled":1617,"Ġ2010":1618,"of":1619,"oad":1620,"Ġask":1621,"Ġdem":1622,"yl":1623,"And":1624,"Ġsw":1625,"Ġformer":1626,"lev":1627,"ense":1628,"Ġ%":1629,"embers":1630,"ec":1631,"ĠFrench":1632,"aff":1633,"Ġposition":1634,"ĠEurope":1635,"Ġappear":1636,"Ġ...":1637,"Ġlight":1638,"idd":1639,"ĠNational":1640,"Ġjoin":1641,"Ġdel":1642,"Ġincluded":1643,"Ġmark":1644,"ese":1645,"Ġgun":1646,"Ġrequ":1647,"Ġconf":1648,"ways":1649,"Ġhalf":1650,"ĠMin":1651,"side":1652,"Ġsold":1653,"iod":1654,"ĠMr":1655,"Ġtrack":1656,"Ġsent":1657,"Ġsit":1658,"Ġborn":1659,"ĠGu":1660,"arn":1661,"Ġbus":1662,"ior":1663,"ards":1664,"Ġtri":1665,"Ġche":1666,"ĠâĢľ":1667,"Ġfather":1668,"ances":1669,"Ġresp":1670,"Ġdiv":1671,"aken":1672,"ilar":1673,"Ġgave":1674,"Ġlaw":1675,"Ġey":1676,"ys":1677,"that":1678,"Ġpresent":1679,"ideo":1680,"ĠEnglish":1681,"ĠHer":1682,"Ġexper":1683,"Ġword":1684,"urther":1685,"ĠNo":1686,"Ġbuilt":1687,"Ġmove":1688,"Ġfore":1689,"ĠMon":1690,"Ġwithin":1691,"Ġeffect":1692,"oci":1693,"Ġcaus":1694,",\"":1695,"ery":1696,"...":1697,"Ġamong":1698,"Ġgames":1699,"Ġlate":1700,"oney":1701,"ai":1702,"Ġspecies":1703,"rod":1704,"ĠBut":1705,"arch":1706,"Ġcountry":1707,"Ġsound":1708,"ĠĠĠ":1709,"Ġhelp":1710,"ĠX":1711,"gy":1712,"Ġtour":1713,"ms":1714,"Ġhaving":1715,"ences":1716,"Ġfact":1717,"Ġdam":1718,"ices":1719,"Ġmembers":1720,"onna":1721,"Ġupon":1722,"ĠAm":1723,"ator":1724,"iness":1725,"Ġview":1726,"ĠMus":1727,"ots":1728,"Ġprevious":1729,"Ġcommand":1730,"ĠCar":1731,"Ġchildren":1732,"Ġsaw":1733,"ald":1734,"Ġreview":1735,"Ġhowever":1736,"Ġdescribed":1737,"Ġimport":1738,"Ġattempt":1739,"âĢľ":1740,"Ġ21":1741,"Ġperiod":1742,"ĠWest":1743,"atic":1744,"ops":1745,"Ġdest":1746,"ering":1747,"Ġfr":1748,"ead":1749,"posed":1750,"Ġcle":1751,"ĠGeor":1752,"ape":1753,"urr":1754,"Ġequ":1755,"ham":1756,"ĠEngland":1757,"\".":1758,"Ġplayer":1759,"ones":1760,"bo":1761,"Ġinfl":1762,"Ġless":1763,"ither":1764,"Ġide":1765,"Ġiss":1766,"ertain":1767,"ĠBat":1768,"Ġpar":1769,"Ġ100":1770,"Ġoriginal":1771,"Ġgiven":1772,"Ġbecome":1773,"Ġ24":1774,"Ġav":1775,"ably":1776,"ĠÂ":1777,"com":1778,"uted":1779,"ize":1780,"ask":1781,"ama":1782,"raw":1783,"thing":1784,"Ġmag":1785,"ches":1786,"ĠWilliam":1787,"ole":1788,"Ġaddition":1789,"ĠCounty":1790,"Ġfun":1791,"most":1792,"estern":1793,"ĠMan":1794,"Ġprof":1795,"rict":1796,"ĠUniversity":1797,"ĠOne":1798,"Ġhour":1799,"Ġalthough":1800,"Ġrole":1801,"ested":1802,"ĠCity":1803,"gram":1804,"Ġseen":1805,"Ġonce":1806,"Ġla":1807,"Ġtimes":1808,"ĠCal":1809,"Ġroad":1810,"par":1811,"Ġcor":1812,"itary":1813,"ront":1814,"Ġfire":1815,"Ġmoved":1816,"Ġmatch":1817,"ruct":1818,"ĠEl":1819,"Ġchang":1820,"Ġcover":1821,"Ġaff":1822,"que":1823,"Ġfre":1824,"Ġdeb":1825,"Ġever":1826,"Ġestab":1827,"Ġsoc":1828,"Ġstorm":1829,"ternational":1830,"resent":1831,"Ġbig":1832,"Ġstrong":1833,"ope":1834,"Ġ2011":1835,"Ġanim":1836,"ondon":1837,"ief":1838,"Ġpost":1839,"ampions":1840,"ler":1841,"Ġorder":1842,"Ġlocal":1843,"Ġ22":1844,"Ġpoint":1845,"eth":1846,"wh":1847,"Ġclub":1848,"urs":1849,"Ġvideo":1850,"rent":1851,"Ġauth":1852,"Ġ2009":1853,"ille":1854,"Ġwritten":1855,"Ġ2008":1856,"Ġmight":1857,"Ġcommun":1858,"Ġstat":1859,"Ġread":1860,"Ġlost":1861,"ford":1862,"ries":1863,"Ġclos":1864,"Ġ&":1865,"ĠSw":1866,").":1867,"ĠLondon":1868,"Ġmean":1869,"Ġsimilar":1870,"Ġcontinued":1871,"ae":1872,"err":1873,"Ġcommon":1874,"Ġpat":1875,"bs":1876,"Ġmother":1877,"Ġboy":1878,"ĠMich":1879,"ĠCent":1880,"rest":1881,"ology":1882,"levision":1883,"ention":1884,"Ġmaking":1885,"Ġlevel":1886,"ĠHar":1887,"Ġeas":1888,"Ġage":1889,"Ġsomething":1890,"oute":1891,"Ġadm":1892,"Ġgive":1893,"Ġcareer":1894,"Ġseem":1895,"iety":1896,"irc":1897,"Ġtem":1898,"ĠAng":1899,"ĠCanad":1900,"ories":1901,"isc":1902,"ĠDav":1903,"Ġcast":1904,"ropical":1905,"ival":1906,"Ġclaim":1907,"Ġcompany":1908,"Ġson":1909,"Ġnational":1910,"ows":1911,"oe":1912,"oice":1913,"Ġrelease":1914,"Ġfurther":1915,"aut":1916,"ases":1917,"Ġconsidered":1918,"Ġinit":1919,"Ġstarted":1920,"ĠPark":1921,"Ġ23":1922,"Ġeast":1923,"Ġwest":1924,"But":1925,"Ġ2007":1926,"pec":1927,"gether":1928,"Ġtogether":1929,"ality":1930,"Ġlow":1931,"yr":1932,"aul":1933,"ĠFrance":1934,"yn":1935,"ĠRiver":1936,"Ġhig":1937,"Ġ2012":1938,"Ġgirl":1939,"ĠPres":1940,"aces":1941,"ising":1942,"ges":1943,"Ġtre":1944,"ĠBar":1945,"ĠGo":1946,"Ġwhite":1947,"ĠThese":1948,"Ġround":1949,"Ġreturned":1950,"Ġtrad":1951,"osp":1952,"Ġsugg":1953,"Ġblack":1954,"Th":1955,"now":1956,"Ġfar":1957,"ĠNe":1958,"Ġmom":1959,"ush":1960,"Ġfelt":1961,"Ġweek":1962,"Ġrad":1963,"Ġannoun":1964,"Ġthings":1965,"ruction":1966,"Ġhard":1967,"ĠWith":1968,"Ġfell":1969,"Ġten":1970,"Ġinflu":1971,"Ġfull":1972,"aur":1973,"Ġord":1974,"ze":1975,"Ġtold":1976,"ĠAf":1977,"iment":1978,"Ġbetter":1979,"Ġroom":1980,"Ġlarg":1981,"20":1982,"Ġprote":1983,"pite":1984,"Ġant":1985,"Ġ190":1986,"Ġhold":1987,"Ġinclude":1988,"Ġsol":1989,"alth":1990,"Ġinvol":1991,"Ġfail":1992,"ĠPar":1993,"Ġlive":1994,"Ġprogram":1995,"Ġground":1996,"line":1997,"ript":1998,"aps":1999,"ests":2000,"Ġcompet":2001,"Ġpopular":2002,"yle":2003,"Ġrefer":2004,"Ġlove":2005,"Ġversion":2006,"used":2007,"chn":2008,"ĠJack":2009,"Ġste":2010,"Ġhistory":2011,"itions":2012,"ressed":2013,"ays":2014,"omb":2015,"craft":2016,"Ġeight":2017,"ĠAb":2018,"Ġkeep":2019,"Ġcontrol":2020,"Ġbuilding":2021,"ĠSm":2022,"Ġacross":2023,"Ġproduction":2024,"Ġpublished":2025,"Ġsqu":2026,"aint":2027,"Ġproduced":2028,"Ġusing":2029,"Ġcomb":2030,"dom":2031,"ĠGener":2032,"af":2033,"ĠAir":2034,"Ġkind":2035,"Ġparticular":2036,"Ġval":2037,"ait":2038,"Ġsum":2039,"Ġfeel":2040,"Ġbody":2041,"Ġreally":2042,"Ġtotal":2043,"no":2044,"Ġwomen":2045,"rie":2046,"Ġtelevision":2047,"Ġ27":2048,"sc":2049,"Ġmember":2050,"rought":2051,"Ġsoon":2052,"utes":2053,"Ġ28":2054,"Ġauthor":2055,"roy":2056,"Ġdecl":2057,"eder":2058,"Ġplan":2059,"ĠRuss":2060,"Ġtaken":2061,"ument":2062,"Ġvict":2063,"Ġ2013":2064,"ĠAlthough":2065,"ĠAcc":2066,"umb":2067,"lands":2068,"fic":2069,"Ġinf":2070,"Ġ2006":2071,"ĠPol":2072,"ampionship":2073,"ĠRep":2074,"alt":2075,"Ġdefe":2076,"Ġcross":2077,"okay":2078,"ĠHigh":2079,"ĠEx":2080,"Ġsuff":2081,"Ġmeet":2082,"Ġ26":2083,"Ġimportant":2084,"angu":2085,"Ġgen":2086,"Ġfall":2087,"Ġelect":2088,"Ġnort":2089,"artment":2090,"Ġdri":2091,"ency":2092,"ĠDes":2093,"ote":2094,"Ġable":2095,"reet":2096,"ĠAss":2097,"Ġalmost":2098,"uff":2099,"Ġcompos":2100,"sequ":2101,"Ġenough":2102,"Ġlim":2103,"aves":2104,"ĠState":2105,"Ġalways":2106,"Ġgrow":2107,"),":2108,"Ġcreated":2109,"Ġdone":2110,"Ġfeet":2111,"hel":2112,"Ġfield":2113,"Ġbegin":2114,"ĠLeague":2115,"urg":2116,"Ġservice":2117,"Ġbrother":2118,"Ġrepresent":2119,"Ġreached":2120,"ĠPe":2121,"ĠEn":2122,"ream":2123,"Ġfight":2124,"ĠDr":2125,"ration":2126,"What":2127,"Ġface":2128,"ster":2129,"Ġwanted":2130,"Ġmonths":2131,"ĠCo":2132,"ĠAustralia":2133,"ĠWhile":2134,"Ġlik":2135,"Ġmovie":2136,"Ġking":2137,"Ġkilled":2138,"\",":2139,"arent":2140,"oyal":2141,"Ġball":2142,"outhern":2143,"Ġstop":2144,"ana":2145,"Ġbehind":2146,"itive":2147,"ample":2148,"Ġcut":2149,"Ġmilitary":2150,"ression":2151,"ĠJapanese":2152,"ael":2153,"Ġdirect":2154,"Ġproduc":2155,"Ġ2014":2156,"ploy":2157,"Ġ50":2158,"ĠAmerica":2159,"Ġarm":2160,"Ġsil":2161,"ĠSec":2162,"itted":2163,"Ġasked":2164,"for":2165,"Ġtalk":2166,"Ġsongs":2167,"Ġfav":2168,"Ġpopulation":2169,"Ġreported":2170,"ara":2171,"ĠDiv":2172,"Ġbattle":2173,"ĠJames":2174,"ĠSte":2175,"ned":2176,"Ġinde":2177,"Ġpress":2178,"ĠCor":2179,"Ġrecorded":2180,"Ġtrav":2181,"head":2182,"Ġcapt":2183,"Ġregion":2184,"iber":2185,"Ġwife":2186,"uk":2187,"ought":2188,"oor":2189,"Ġrather":2190,"aign":2191,"Ġforces":2192,"Ġstation":2193,"ey":2194,"Ġfront":2195,"udd":2196,"ĠGl":2197,"Ġothers":2198,"Ġbrought":2199,"Ġserved":2200,"men":2201,"ĠGeneral":2202,"Ġhor":2203,"Ġmid":2204,"Ġfollowed":2205,"Ġer":2206,"Ġstar":2207,"isted":2208,"uh":2209,"ĠEm":2210,"Ġforce":2211,"Ġrock":2212,"ĠPart":2213,"Ġ189":2214,"Ġspecial":2215,"ĠItal":2216,"lect":2217,"Ġstated":2218,"ination":2219,"ĠTo":2220,"ĠAccording":2221,"19":2222,"rown":2223,"Ġships":2224,"ensive":2225,"ĠSy":2226,"Ġtitle":2227,"Ġheart":2228,"Ġgeneral":2229,"Ġtro":2230,"Ġappeared":2231,"Ġ40":2232,"ĠPhil":2233,"Ġmer":2234,"reg":2235,"atter":2236,"Ġofficial":2237,"Ġclose":2238,"Ġremained":2239,"Ġproject":2240,"Ġseven":2241,"bor":2242,"Ġpolitical":2243,"ĠArmy":2244,"ĠMad":2245,"Ġdeveloped":2246,"Ġvill":2247,"olution":2248,"well":2249,"Ġintrod":2250,"where":2251,"emy":2252,"Ġhit":2253,"read":2254,"ĠFin":2255,"Ġ29":2256,"Ġproble":2257,"Ġvol":2258,"urrican":2259,"Ġeyes":2260,"Ġmoney":2261,"aper":2262,"ĠGeorge":2263,"Ġcritic":2264,"Ġhy":2265,"Ġhistor":2266,"Ġdevelopment":2267,"oke":2268,"Ġsat":2269,"Ġturned":2270,"ĠEast":2271,"idence":2272,"ization":2273,"Ġfle":2274,"Ġcase":2275,"ĠSup":2276,"can":2277,"ping":2278,"ĠChar":2279,"Ġbusiness":2280,"Ġannounced":2281,"ĠPer":2282,"Ġra":2283,"ivil":2284,"Ġcult":2285,"Ġcost":2286,"ino":2287,"ĠPresident":2288,"Ġfem":2289,"iers":2290,"sel":2291,"Ġprocess":2292,"field":2293,"ius":2294,"Ġrelations":2295,"Ġthing":2296,"ett":2297,"Ġcharacters":2298,"sw":2299,"Ġplaying":2300,"Ġlangu":2301,"Ġleast":2302,"Ġaircraft":2303,"Ġhuman":2304,"nder":2305,"iron":2306,"Ġvarious":2307,"Ġwoman":2308,"Ġparty":2309,"abor":2310,"Ġcirc":2311,"unk":2312,"Ġmot":2313,"ĠSome":2314,"Ġworked":2315,"aughter":2316,"Ġple":2317,"Ġcop":2318,"Ġpie":2319,"Ġ2005":2320,"stand":2321,"ĠSim":2322,"Ġmount":2323,"ĠHouse":2324,"go":2325,"acy":2326,"hys":2327,"Ġsuccessful":2328,"Ġquick":2329,"off":2330,"ĠIndian":2331,"ended":2332,"Ġareas":2333,"ny":2334,"ĠRober":2335,"Ġve":2336,"ounc":2337,"int":2338,"Ġbecom":2339,"amb":2340,"We":2341,"Ġstri":2342,".âĢĿ":2343,"ogn":2344,"Ġprofess":2345,"ĠSer":2346,"Ġperformance":2347,"ashing":2348,"play":2349,"Ġdecided":2350,"ĠHen":2351,"Ġdou":2352,"Ġentire":2353,"Ġ-":2354,"Ġmiles":2355,"work":2356,"Ġexample":2357,"Ġobs":2358,"ament":2359,"conom":2360,"'ve":2361,"Ġ--":2362,"Ġaver":2363,"ude":2364,"Ġcaused":2365,"ĠGod":2366,"Ġchart":2367,"Ġinstead":2368,"Ġopened":2369,"Ġfootball":2370,"Ġbar":2371,"Ġnon":2372,"ĠMor":2373,"Ġcampaign":2374,"Ġadded":2375,"Ġbas":2376,"Ġdoing":2377,"Ġbroad":2378,"oud":2379,"cent":2380,"view":2381,"tended":2382,"Ġbreak":2383,"Ġprim":2384,"Ġeither":2385,"ula":2386,"Ġgonna":2387,"Ġearl":2388,"Ġdestroy":2389,"ee":2390,"urb":2391,"Ġagre":2392,"Ġhon":2393,"ĠStreet":2394,"iddle":2395,"Ġmiss":2396,"ivid":2397,"key":2398,"ĠQu":2399,"Ġsignific":2400,"Ġfree":2401,"Ġter":2402,"oul":2403,"right":2404,"Ġcourse":2405,"Ġpra":2406,"Ġ2015":2407,"unt":2408,"ready":2409,"ming":2410,"stit":2411,"ont":2412,"Ġwriting":2413,"cast":2414,"Ġesc":2415,"Ġnews":2416,"ata":2417,"ceed":2418,"Ġperformed":2419,"Ġpri":2420,"ĠRich":2421,"reek":2422,"Ġrace":2423,"Ã¡":2424,"ficult":2425,"Ġplayers":2426,"Ġcurrent":2427,"Ġinterest":2428,"Ġmodern":2429,"Ġsaying":2430,"orning":2431,"lished":2432,"Ġactiv":2433,"Ġdev":2434,"ĠMed":2435,"Ġaud":2436,"yeah":2437,"ĠSch":2438,"Ġfif":2439,"anch":2440,"urricane":2441,"ris":2442,"Ġtechn":2443,"ades":2444,"Ġaward":2445,"She":2446,"Ġquest":2447,"Ġworks":2448,"ĠDivision":2449,"Ġcoast":2450,"ĠReg":2451,"elling":2452,"Ġformed":2453,"ĠThom":2454,"ĠComp":2455,"Ġnov":2456,"ids":2457,"Ġlocated":2458,"de":2459,"ĠBill":2460,"Ġcy":2461,"Ġcertain":2462,"Ġident":2463,"itch":2464,"ĠQue":2465,"Ġpoor":2466,"ĠBlack":2467,"Ġarch":2468,"ĠDavid":2469,"Ġft":2470,"Ġdifficult":2471,"wood":2472,"enced":2473,"ĠSchool":2474,"Ġnoted":2475,"Ġworking":2476,"Ġconne":2477,"Ġstyle":2478,"Ġyet":2479,"ule":2480,"ĠThat":2481,"anks":2482,"Ġpract":2483,"Ġcoll":2484,"ĠMy":2485,"Ġinform":2486,"ĠRed":2487,"Ġmanag":2488,"Ġestablished":2489,"Ġdrop":2490,"ĠPort":2491,"Ġenc":2492,"Ġthroughout":2493,"Ġmix":2494,"bert":2495,"ĠRoad":2496,"Ġpoints":2497,"att":2498,"imately":2499,"Ġpain":2500,"iding":2501,"Ġimpro":2502,"not":2503,"ĠâĢĻ":2504,"ators":2505,"Ġgold":2506,"Ġstage":2507,"Ġfig":2508,"iol":2509,"Ġmater":2510,"Ġhost":2511,"ĠIf":2512,"ĠAustralian":2513,"ĠBo":2514,"?\"":2515,"Ġ31":2516,"lin":2517,"Ġchange":2518,"ĠCap":2519,"Ġheavy":2520,"do":2521,"iff":2522,"Ġcreat":2523,"ring":2524,"Ġstruct":2525,"ills":2526,"odes":2527,"Ġtropical":2528,"ma":2529,"add":2530,"cle":2531,"ĠAp":2532,"Ġ188":2533,"anna":2534,"Ġaction":2535,"itar":2536,"Ġproper":2537,"So":2538,"Ġusually":2539,"Ġlived":2540,"Ġpast":2541,"Ġdidn":2542,"Ġsepar":2543,"Ġrange":2544,"Ġarg":2545,"Ġsea":2546,"ouncil":2547,"Ġill":2548,"medi":2549,"Ġfood":2550,"Ġ2004":2551,"airs":2552,"ĠAle":2553,"aval":2554,"Ġtowards":2555,"Ġengine":2556,"ĠRoyal":2557,"oved":2558,"Ġpresident":2559,",âĢĿ":2560,"Ġwall":2561,"Ġoffice":2562,"ĠRepubl":2563,"ĠPaul":2564,"Ġidea":2565,"board":2566,"ĠEar":2567,"Ġfeatures":2568,"ĠBel":2569,"Ġz":2570,"Ġpossible":2571,"Ġ186":2572,"Ġvoice":2573,"Ġrul":2574,"Ġcat":2575,"Ġrespect":2576,"ĠCup":2577,"ĠSan":2578,"Ġinj":2579,"ĠPeter":2580,"ky":2581,"Ġpassed":2582,"Ġwhole":2583,"Ġsignificant":2584,"Ġarri":2585,"oted":2586,"Ġstay":2587,"Ġce":2588,"Ġtyp":2589,"ĠMary":2590,"Ġaccept":2591,"Ġnothing":2592,"ength":2593,"Ġmm":2594,"ply":2595,"Ġalready":2596,"rem":2597,"hic":2598,"ĠVir":2599,"overed":2600,"Ġbase":2601,"istic":2602,"ĠNor":2603,"ago":2604,"No":2605,"Ġabove":2606,"Ġweeks":2607,"rey":2608,"Ġmarried":2609,"iting":2610,"Ġmind":2611,"Ġ2000":2612,"Ġsurv":2613,"ĠMichael":2614,"Ġdark":2615,"Ġ_":2616,"Ġtou":2617,"Ġallowed":2618,"Ġsex":2619,"ĠMiss":2620,"Ġshall":2621,"Ġlargest":2622,"ĠRoman":2623,"iforn":2624,"Ġbird":2625,"ocr":2626,"Ġrecogn":2627,"Ġeventually":2628,"Ġclear":2629,"Ġfac":2630,"asing":2631,"tr":2632,"ĠGermany":2633,"Ġisland":2634,"ump":2635,"Ġminutes":2636,"Ġhours":2637,"Ġnat":2638,"ĠKe":2639,"Ġsometimes":2640,"Ġindivid":2641,"Ġmass":2642,"Ġprob":2643,"Ġfriends":2644,"antic":2645,"Ġreach":2646,"ashington":2647,"Ġjoined":2648,"born":2649,"Ġlay":2650,"Ġhands":2651,"Ġeconom":2652,"Ġwood":2653,"ĠSqu":2654,"ĠRec":2655,"Ġpay":2656,"selves":2657,"oo":2658,"ville":2659,"ico":2660,"Ġtaking":2661,"Ġrank":2662,"Ġcrew":2663,"Ġsays":2664,"Ġpur":2665,"Ġassoci":2666,"Oh":2667,"Ġoutside":2668,"ĠCour":2669,"Ġ|":2670,"Ġdead":2671,"Ġroute":2672,"Ġfinished":2673,"ĠCr":2674,"Ġindust":2675,"Ġaccom":2676,"Ġarmy":2677,"uel":2678,"Ġexc":2679,"ĠWashington":2680,"igned":2681,"ĠTom":2682,"iled":2683,"ĠCaliforn":2684,"Ġmult":2685,"Ġmorning":2686,"Ġrail":2687,"Ġleave":2688,"west":2689,"ĠLou":2690,"iction":2691,"ĠHenry":2692,"pected":2693,"ĠLa":2694,"rog":2695,"Ġbring":2696,"anish":2697,"Ġsle":2698,"Ġmaterial":2699,"Ġsite":2700,"Ġtradition":2701,"Ġlooked":2702,"Ġloss":2703,"Ġpred":2704,"Ġneg":2705,"ourn":2706,"Ġaut":2707,"ams":2708,"Ġbad":2709,"Ġappoin":2710,"Ġmeans":2711,"Ġrelig":2712,"Ġfourth":2713,"Ġeffort":2714,"Ġconv":2715,"Ġchurch":2716,"ĠCalifornia":2717,"ĠAct":2718,"Ġcourt":2719,"ĠGreat":2720,"Ġplaced":2721,"ĠBest":2722,"Ġcompleted":2723,"St":2724,"Ġ187":2725,"erous":2726,"oph":2727,"Ġelse":2728,"Ġheard":2729,"ĠRobert":2730,"ĠColle":2731,"ĠÃ":2732,"rian":2733,"Ġquite":2734,"That":2735,"Ġleading":2736,"ĠEuropean":2737,"Ġguns":2738,"Ġinvest":2739,"irth":2740,"Ġaverage":2741,"Ġlack":2742,"Ġshot":2743,"ving":2744,"Ġoriginally":2745,"Ġlength":2746,"Ġrelationship":2747,"Ġbur":2748,"cher":2749,"ĠAngel":2750,"Ġwid":2751,"itz":2752,"inist":2753,"ander":2754,"Ġliving":2755,"Ġbelieved":2756,"Ġwhom":2757,"There":2758,"Ġgoal":2759,"Ġnomin":2760,"50":2761,"Ġabs":2762,"Ġsocial":2763,"ĠJe":2764,"ĠMil":2765,"Ġscene":2766,"Ġoccur":2767,"Ġknew":2768,"uct":2769,"face":2770,"val":2771,"Ġ2003":2772,"Ġparts":2773,"ĠIndia":2774,"urt":2775,"ĠDon":2776,"ĠHall":2777,"ishing":2778,"imin":2779,"Ġvoc":2780,"Ġhear":2781,"aby":2782,"ĠChampionship":2783,"rang":2784,"enty":2785,"Ġsour":2786,"Ġlo":2787,"ĠBer":2788,"Ġexec":2789,"ray":2790,"Ġwalk":2791,"Ġdaughter":2792,"Ġitself":2793,"Ġeduc":2794,"Ġphys":2795,"aker":2796,"Ġprot":2797,"Ġreb":2798,"itor":2799,"ĠAnt":2800,"Ġdraw":2801,"Ġcal":2802,"ĠIr":2803,"ounter":2804,"Ġdirected":2805,"ĠFrom":2806,"asion":2807,"ipp":2808,"Ġavail":2809,"Ġcomment":2810,"ĠMal":2811,"Ġpriv":2812,"ĠMart":2813,"azine":2814,"che":2815,"Ġwhose":2816,"ĠChurch":2817,"Ġplann":2818,"ords":2819,"Ġreve":2820,"Ġlaun":2821,"ĠOther":2822,"ights":2823,"ĠGovern":2824,"Ġdamage":2825,"ha":2826,"Ġgrad":2827,"Ġlot":2828,"II":2829,"ĠVal":2830,"agon":2831,"Ġbit":2832,"edy":2833,"Ġtreat":2834,"Ġwhy":2835,"Ġevents":2836,"Ġwat":2837,"Ġhom":2838,"Ġexist":2839,"Ġdirector":2840,"ological":2841,"aled":2842,"Ġscored":2843,"Ġgenerally":2844,"ential":2845,"Ġriver":2846,"ĠHam":2847,"ĠKingdom":2848,"body":2849,"Ġcontract":2850,"Ġpers":2851,"ands":2852,"Ġprovided":2853,"ex":2854,"Ġpeak":2855,"mb":2856,"Ġtroops":2857,"itte":2858,"Ġanything":2859,"Ġsubject":2860,"chie":2861,"Ġ2001":2862,"Ġwords":2863,"Ġquar":2864,"ĠAg":2865,"Ġruns":2866,"ĠWhite":2867,"Ġtest":2868,"ĠĠĠĠĠĠĠĠĠĠĠĠĠĠĠĠ":2869,"ĠSl":2870,"icip":2871,"Ġended":2872,"rup":2873,"Ġemploy":2874,"Ġdeal":2875,"Ġpark":2876,"ki":2877,"kay":2878,"Ġsuper":2879,"Ġfoc":2880,"Ġdoor":2881,"ĠCanada":2882,"Ġsele":2883,"Ġmeas":2884,"Ġconstruction":2885,"Ġpot":2886,"raz":2887,"ĠPat":2888,"Ġâ":2889,"Ġhighest":2890,"ĠPal":2891,"ĠVirgin":2892,"ĠDo":2893,"Ġexcept":2894,"ĠSam":2895,"Ġreplaced":2896,"icated":2897,"ios":2898,"uture":2899,"BC":2900,"ek":2901,"Ġlanguage":2902,"ification":2903,"amer":2904,"ĠUnion":2905,"Ġregard":2906,"pon":2907,"Ġsubsequ":2908,"elled":2909,"ĠCharles":2910,"hm":2911,"owers":2912,"ĠAward":2913,"aught":2914,"Ġestim":2915,"ĠMac":2916,"Ġslow":2917,"co":2918,"iation":2919,"ĠScott":2920,"Ġdesigned":2921,"Ġfeatured":2922,"Ġmem":2923,"str":2924,"Ġobject":2925,"ĠTwo":2926,"Ġthreat":2927,"Ġparticip":2928,"Ġregular":2929,"Ġsouthern":2930,"ida":2931,"ĠSen":2932,"ĠWil":2933,"Ġbill":2934,"Ġthemselves":2935,"fall":2936,"pecially":2937,"Ġinvolved":2938,"Ġlearn":2939,"sy":2940,"Ġver":2941,"Ġsure":2942,"Ġrese":2943,"enes":2944,"Ġindepend":2945,"Ġdeep":2946,"Ġviol":2947,"Ġaw":2948,"Ġansw":2949,"Ġrain":2950,"Ġ500":2951,"Ġcritics":2952,"Ġfund":2953,"ĠRes":2954,"ume":2955,"Ġbeginning":2956,"gress":2957,"ounds":2958,"Ġstudio":2959,"aven":2960,"Ġdistrict":2961,"ĠAtl":2962,"ĠHol":2963,"Ġimmedi":2964,"Ġran":2965,"ĠChristian":2966,"!\"":2967,"Ġeat":2968,"ĠMag":2969,"Ġrespons":2970,"Ġnovel":2971,"ores":2972,"ĠMex":2973,"Ġopening":2974,"ography":2975,"Ġnorthern":2976,"Ġforced":2977,"ĠIsland":2978,"Ġ2002":2979,"ĠDep":2980,"Ġmakes":2981,"Ġtype":2982,"cts":2983,"ift":2984,"uation":2985,"ĠPlay":2986,"Ġquickly":2987,"Ġren":2988,"Ġrap":2989,"ĠInternational":2990,"ĠDem":2991,"Ġstates":2992,"Ġclim":2993,"Ġaccount":2994,"This":2995,"ĠFirst":2996,"utive":2997,"atin":2998,"Ġmoment":2999,"hib":3000,"Ġbed":3001,"ston":3002,"Ġbox":3003,"ĠParty":3004,"Ġinsp":3005,"tt":3006,"Ġlonger":3007,"ounded":3008,"Ġmi":3009,"pose":3010,"ises":3011,"ĠAc":3012,"Ġcapital":3013,"Ġspent":3014,"Ġearlier":3015,"Ġwatch":3016,"Ġswe":3017,"Ġcoming":3018,"ĠBrown":3019,"ique":3020,"ference":3021,"Ġspeed":3022,"berg":3023,"Ġavailable":3024,"Ġhop":3025,"Ġvictory":3026,"ena":3027,"Ġjob":3028,"ĠDan":3029,"band":3030,"asons":3031,"ĠThomas":3032,"Ġcentral":3033,"ĠAlex":3034,"cy":3035,"Ġappl":3036,"Ġchanged":3037,"Ġbeaut":3038,"Ġlooking":3039,"Ġnine":3040,"ĠWhat":3041,"heast":3042,"Ġinn":3043,"Ġ1990":3044,"Ġstep":3045,"erved":3046,"Ġprison":3047,"ports":3048,"ania":3049,"Ġlower":3050,"ening":3051,"Ġspace":3052,"Ġtraining":3053,"ĠCourt":3054,"iqu":3055,"ĠGrand":3056,"ĠSing":3057,"Ġcommer":3058,"ĠBattle":3059,"ĠSmith":3060,"Ġgroups":3061,"Ġhous":3062,"ĠCong":3063,"oviet":3064,"ateg":3065,"ĠOff":3066,"Ġbeg":3067,"ĠRichard":3068,"Ġparticularly":3069,"Ġbomb":3070,"Ġfort":3071,"Ġcountries":3072,"ollowing":3073,"Ġsigned":3074,"undred":3075,"They":3076,"----":3077,"ĠMer":3078,"Ġcontrib":3079,"uz":3080,"usion":3081,"ĠBay":3082,"Ġespecially":3083,"lymp":3084,"Ġsequ":3085,"Ġcivil":3086,"ĠMet":3087,"ER":3088,"Ġcarried":3089,"lying":3090,"Ġsus":3091,"ĠDespite":3092,"Ġdi":3093,"oring":3094,"Ġhot":3095,"Ġstudy":3096,"iant":3097,"Ã¶":3098,"Ġprobably":3099,"oes":3100,"Ġappearance":3101,"Ġordered":3102,"Ġaccording":3103,"ĠMount":3104,"ĠStar":3105,"ittee":3106,"mon":3107,"ĠSoviet":3108,"Ġelection":3109,"Ġpick":3110,"mar":3111,"ĠOlymp":3112,"oms":3113,"Ġphot":3114,"Ġpercent":3115,"adron":3116,"ellow":3117,"Ġstreng":3118,"bed":3119,"ires":3120,"apt":3121,"Ġshows":3122,"ĠGold":3123,"fully":3124,"like":3125,"Ġcompl":3126,"Well":3127,"Ġvillage":3128,"Ġtravel":3129,"ĠFrank":3130,"Ġmatter":3131,"ault":3132,"ĠSoc":3133,"fe":3134,"ĠMost":3135,"Ġwhether":3136,"ĠBen":3137,"'d":3138,"eum":3139,"Ġmaintain":3140,"Ġrunning":3141,"anced":3142,"Ġfuture":3143,"ĠSo":3144,"Ġlines":3145,"ĠFollowing":3146,"ĠMusic":3147,"arily":3148,"Ġjud":3149,"there":3150,"Ġreason":3151,"rief":3152,"hem":3153,"ĠOh":3154,"Ġcenter":3155,"Ġgrand":3156,"uction":3157,"Ġstars":3158,"back":3159,"Ġincreased":3160,"oid":3161,"Ġcell":3162,"antry":3163,"ites":3164,"Ġminute":3165,"Ġinternational":3166,"Ġblood":3167,"ĠRock":3168,"iful":3169,"arliam":3170,"Ġnet":3171,"ÃŃ":3172,"Ġpolice":3173,"Ġsummer":3174,"icket":3175,"isl":3176,"NA":3177,"Ġbow":3178,"ĠVict":3179,"Ġwear":3180,"fort":3181,"bour":3182,"ĠMcC":3183,"Âł":3184,"Ġpen":3185,"Ġcounty":3186,"ĠAssoci":3187,"Ġbooks":3188,"Ġself":3189,"Ġ1980":3190,"asc":3191,"ĠRob":3192,"ĠNavy":3193,"arliament":3194,"Ġcarry":3195,"Ġunits":3196,"ilities":3197,"ĠArt":3198,"Ġmur":3199,"ĠTex":3200,"Ġbi":3201,"ĠMark":3202,"Ġassist":3203,"Ġtried":3204,"Ġmph":3205,"ĠCollege":3206,"Ġtoday":3207,"ĠGame":3208,"Ġbelieve":3209,"fect":3210,"Ã¼":3211,"Ġconsider":3212,"come":3213,"Ġpict":3214,"Ġachie":3215,"Ġcomes":3216,"Ġnearly":3217,"ĠLouis":3218,"Ġshoot":3219,"ership":3220,"itt":3221,"ĠGreen":3222,"Ġfemale":3223,"Ġang":3224,"ĠMany":3225,"het":3226,"Ġ1970":3227,"Ġamount":3228,"Ġoppos":3229,"Ġpositive":3230,"Ġfailed":3231,"Ġsn":3232,"Ġbridge":3233,"Ġbirth":3234,"Ġcommunity":3235,"ĠJust":3236,"Ġdog":3237,"Ġhurricane":3238,"Ġ2016":3239,"Ġnatural":3240,"Ġentered":3241,"ibility":3242,"ĠChic":3243,"erve":3244,"teen":3245,"Ġwait":3246,"ĠIts":3247,"Ġliter":3248,"Ġdeterm":3249,"Ġfast":3250,"Ġquestion":3251,"Ġhighway":3252,"Ġlab":3253,"cause":3254,"riage":3255,"Ġarrived":3256,"Ġtry":3257,"Ġwide":3258,"Ġblue":3259,"ability":3260,"ĠCompany":3261,"Ġinitially":3262,"Ġkept":3263,"atory":3264,"Ġprevent":3265,"ĠHill":3266,"Ġcommerc":3267,"Ġ60":3268,"Ġ35":3269,"ĠWestern":3270,"Ġparent":3271,"ĠFranc":3272,"ien":3273,"use":3274,"Ġoccup":3275,"ken":3276,"Ġletter":3277,"ulf":3278,"Ġsize":3279,"ospital":3280,"inese":3281,"Ġcred":3282,"cer":3283,"Ġhelped":3284,"olic":3285,"Ġleaving":3286,"ship":3287,"Ġwriter":3288,"Ġfrequ":3289,"Ġradio":3290,"Ġrequired":3291,"hester":3292,"Ġsurface":3293,"ĠSpanish":3294,"ĠCro":3295,"ground":3296,"look":3297,"Ġenv":3298,"ittle":3299,"iles":3300,"aph":3301,"Ġherself":3302,"Ġkey":3303,"Ġhundred":3304,"aries":3305,"Ġrights":3306,"incip":3307,"ĠOld":3308,"ĠUK":3309,"Ġwinds":3310,"Ġpraised":3311,"ari":3312,"bers":3313,"Ġhorse":3314,"Ġ1999":3315,"ĠVirginia":3316,"Ġdebut":3317,"irt":3318,"ĠDay":3319,"Ġstudents":3320,"Ġevidence":3321,"Ġcause":3322,"ession":3323,"Ġremember":3324,"Ġunderstand":3325,"ibr":3326,"burg":3327,"Ġforward":3328,"Ġsister":3329,"ĠKh":3330,"rica":3331,"inct":3332,"Ġcycl":3333,"Ġtemper":3334,"ĠChicago":3335,"ĠÂ°":3336,"Ġseemed":3337,"Ġanc":3338,"Ġtrue":3339,"ederal":3340,"Ġwestern":3341,"Ġdoc":3342,"Ġtrib":3343,"Ġelements":3344,"alled":3345,"fact":3346,"Ġinterview":3347,"Ġlarger":3348,"ĠStud":3349,"ĠLos":3350,"Ġintroduced":3351,"haps":3352,"Ġspir":3353,"Ġmarket":3354,"Ġacqu":3355,"ĠPri":3356,"ĠQueen":3357,"abit":3358,"sec":3359,"ĠJim":3360,"Ġpreviously":3361,"ication":3362,"ĠMrs":3363,"Ġsurr":3364,"ĠFlor":3365,"nes":3366,"Ġreact":3367,"acing":3368,"Ġmusical":3369,"Ġmostly":3370,"Ġsun":3371,"enth":3372,"Ġremain":3373,"Ġreviews":3374,"oly":3375,"Ġmovement":3376,"Ġprofessional":3377,"ergy":3378,"Ġfilms":3379,"eal":3380,"ging":3381,"Ġsection":3382,"ĠChinese":3383,"Ġtree":3384,"Ġden":3385,"igan":3386,"Ġscore":3387,"Ġleague":3388,"Ġalone":3389,"Ġinside":3390,"ĠKore":3391,"Ġimm":3392,"Ġteams":3393,"Ġsecret":3394,"aine":3395,"Ġ``":3396,"Ġcomplete":3397,"ĠBritain":3398,"ria":3399,"hood":3400,"ĠSal":3401,"rel":3402,"ournal":3403,"ĠIm":3404,"Ġsinger":3405,"Ġvisit":3406,"ij":3407,"Ġdepartment":3408,"Ġcompan":3409,"Ġdiscuss":3410,"Ġconcern":3411,"onder":3412,"ĠTur":3413,"Ġpersonal":3414,"Ġchanges":3415,"ĠVictor":3416,"Ġrecording":3417,"Ġpolic":3418,"Ġactually":3419,"uke":3420,"Ġ202":3421,"Ġplant":3422,"Ġleader":3423,"aded":3424,"Ġcomplet":3425,"joy":3426,"Ġgreen":3427,"Ġ1960":3428,"ĠLord":3429,"Ġfavor":3430,"Ġhigher":3431,"Ġhealth":3432,"Ġthus":3433,"Ġclaimed":3434,"Ġboard":3435,"Ġbecoming":3436,"gar":3437,"Ġeastern":3438,"ously":3439,"Ġtransfer":3440,"unicip":3441,"iser":3442,"order":3443,"Ġtax":3444,"Ġlatter":3445,"inent":3446,"ĠMill":3447,"Yeah":3448,"how":3449,"Ġgoes":3450,"Ġspecific":3451,"ĠTimes":3452,"Ġhappened":3453,"inn":3454,"Ġdeg":3455,"Ġguitar":3456,"Ġmagazine":3457,"omm":3458,"uter":3459,"ully":3460,"Ġmach":3461,"Ġmeant":3462,"ĠHot":3463,"Ã³":3464,"Ġdate":3465,"ĠÂ£":3466,"Ġdecision":3467,"een":3468,"ĠBur":3469,"Ġarrang":3470,"rd":3471,"Ġprem":3472,"Ġder":3473,"Ġterrit":3474,"Ġsort":3475,"Ġcand":3476,"ĠTexas":3477,"Ġtrain":3478,"ears":3479,"Ġdespite":3480,"Ġaffect":3481,"ĠChina":3482,"Ġ1998":3483,"Ġaccess":3484,"Ġbrief":3485,"Ġpil":3486,"On":3487,"ga":3488,"Ġtable":3489,"anded":3490,"acher":3491,"Ġweak":3492,"Ġgone":3493,"Ġhair":3494,"Ġsoldiers":3495,"ili":3496,"ĠPac":3497,"Ġproblems":3498,"uit":3499,"Ġtakes":3500,"Ġsuggested":3501,"ĠCast":3502,"ulated":3503,"ĠEmp":3504,"Ġminor":3505,"ĠJackson":3506,"Ġscreen":3507,"Ġnature":3508,"ĠMinister":3509,"ĠSir":3510,"illed":3511,"aring":3512,"Ġexperience":3513,"Ġemer":3514,"Ġbene":3515,"10":3516,"Ġfarm":3517,"atives":3518,"aly":3519,"Ġagreed":3520,"pan":3521,"ĠMat":3522,"Ġappointed":3523,"Ġhus":3524,"Ġflood":3525,"ician":3526,"change":3527,"bit":3528,"ĠCouncil":3529,"Ġtouch":3530,"Ġfir":3531,"Ġtow":3532,"Ġmeth":3533,"Ġissue":3534,"ĠJew":3535,"Ġ36":3536,"Ġattract":3537,"Ġinfluence":3538,"Ġmiddle":3539,"Ġdestroyed":3540,"asy":3541,"Ġcontr":3542,"Ġnorm":3543,"Ġfair":3544,"ĠEarth":3545,"itude":3546,"oint":3547,"ĠRussian":3548,"hold":3549,"Ġforest":3550,"Ġdisp":3551,"Ġincludes":3552,"Ġadditional":3553,"ĠEv":3554,"ĠEdward":3555,"ĠBet":3556,"iest":3557,"ether":3558,"ĠAfrica":3559,"Ġtrying":3560,"Ġinvestig":3561,"Ġdefeated":3562,"Ġpressure":3563,"ĠForce":3564,"Ġresearch":3565,"Ġ80":3566,"astern":3567,"ĠThen":3568,"ĠOl":3569,"ĠHarr":3570,"Ġ184":3571,"ĠPet":3572,"Ġtar":3573,"Ġdiscovered":3574,"Ġprivate":3575,"Ġinformation":3576,"Ġraised":3577,"Ġtwenty":3578,"ĠAssociation":3579,"talion":3580,"Ġmultip":3581,"ension":3582,"Ġdivision":3583,"Ġlikely":3584,"ils":3585,"ĠAwards":3586,"Ġ32":3587,"orial":3588,"Ġdetail":3589,"Ġbelow":3590,"see":3591,"Ġgetting":3592,"Ġanimals":3593,"ĠScot":3594,"nel":3595,"icans":3596,"Ġwinning":3597,"ĠMont":3598,"Ġmess":3599,"Ġsal":3600,"Ġcommercial":3601,"kin":3602,"ĠNY":3603,"umn":3604,"isions":3605,"Ġstaff":3606,"Ġcreate":3607,"hi":3608,"ĠItalian":3609,"ĠSun":3610,"Ġneeded":3611,"ĠSea":3612,"Ġscient":3613,"Ġenjoy":3614,"udden":3615,"Ġremaining":3616,"Ġrelated":3617,"ĠOver":3618,"ĠMo":3619,"omer":3620,"If":3621,"Ġweap":3622,"Ġbaby":3623,"ka":3624,"Ġawarded":3625,"Ġthr":3626,"idents":3627,"vin":3628,"ux":3629,"ĠRoute":3630,"Ġnecess":3631,"ĠFlorida":3632,"Ġcru":3633,"Ġthous":3634,"ĠCongress":3635,"ption":3636,"Ġ185":3637,"ods":3638,"Ġplays":3639,"icle":3640,"Ġapprox":3641,"gl":3642,"porary":3643,"ĠLaw":3644,"Ġpret":3645,"Ġprovide":3646,"ĠCanadian":3647,"Ġcoup":3648,"Ġestimated":3649,"Ġ1997":3650,"lebr":3651,"Ġshown":3652,"Ġneigh":3653,"Ġcorn":3654,"Ġactor":3655,"Ġproducer":3656,"Ġepisodes":3657,"Ġpiece":3658,"Ġsupported":3659,"who":3660,"Ġdistrib":3661,"Ġ45":3662,"Ġterms":3663,"Ġimmediately":3664,"ĠRo":3665,"Ġsleep":3666,"ech":3667,"Ġkil":3668,"Ġfamous":3669,"ining":3670,"reater":3671,"When":3672,"Ġproposed":3673,"ips":3674,"utch":3675,"ĠHist":3676,"Ġeverything":3677,"ĠSince":3678,"Ġelected":3679,"Ġuns":3680,"Ġgiving":3681,"ĠDemocr":3682,"30":3683,"ocked":3684,"ples":3685,"Ġcolor":3686,"etic":3687,"Ġstructure":3688,"Ġmeeting":3689,"Ġeffects":3690,"Ġlimited":3691,"cean":3692,"Ġinstr":3693,"Ġbroadcast":3694,"ider":3695,"Ġmoving":3696,"Ġwr":3697,"ĠClub":3698,"uce":3699,"she":3700,"olk":3701,"Ġbuildings":3702,"ani":3703,"Ġearth":3704,"ĠLake":3705,"onse":3706,"Ġdig":3707,"Ġwrite":3708,"Ġdiss":3709,"Ġspeak":3710,"ĠDist":3711,"lled":3712,"aped":3713,"sen":3714,"Ġequip":3715,"ĠFle":3716,"Ġcovered":3717,"reme":3718,"aily":3719,"Ch":3720,"icted":3721,"ĠNot":3722,"Ġintended":3723,"Ġadminist":3724,"Ġexam":3725,"ros":3726,"ste":3727,"Ġpaper":3728,"ĠTV":3729,"atively":3730,"Ġlives":3731,"kn":3732,"Ġcannot":3733,"Yes":3734,"Ġmodel":3735,"ĠCarol":3736,"Ġclosed":3737,"Ġserious":3738,"Ġmanager":3739,"ems":3740,"ĠKn":3741,"Ġmedia":3742,"Ġdepart":3743,"Ġcoach":3744,"Ġpal":3745,"Ġnames":3746,"Ġattend":3747,"Ġquarter":3748,"illa":3749,"den":3750,"ĠFilm":3751,"Ġestablish":3752,"Ġlyr":3753,"Ġconcept":3754,"imum":3755,"vey":3756,"ties":3757,"rated":3758,"Ġfounded":3759,"uing":3760,"Ġcommission":3761,"Ġremains":3762,"nding":3763,"Ġfifth":3764,"Ġdefend":3765,"Ġindividual":3766,"Ġfleet":3767,"Ġhusband":3768,"Ġcaptain":3769,"ĠBoy":3770,"light":3771,"Ġflag":3772,"ĠLater":3773,"down":3774,"ĠBig":3775,"Ġseat":3776,"Ġshowed":3777,"ructed":3778,"ĠJohnson":3779,"ĠCath":3780,"Ġplanned":3781,"lor":3782,"Ġ70":3783,"ify":3784,"rug":3785,"leg":3786,"Ġprior":3787,"Ġnumbers":3788,"ograph":3789,"erry":3790,"ĠKent":3791,"ĠWood":3792,"Ġscript":3793,"win":3794,"Ġscenes":3795,"Ġanti":3796,"Ġoverall":3797,"Ġdoub":3798,"Ġpurch":3799,"Ġsett":3800,"Ġslight":3801,"isk":3802,"ala":3803,"Ġresponse":3804,"Ġ1995":3805,"aches":3806,"ĠAdm":3807,"ĠCentral":3808,"Ġcolon":3809,"Ġ1996":3810,"Ġstood":3811,"ĠSecond":3812,"Ġattention":3813,"Ġcold":3814,"Ġoffered":3815,"Ġfinally":3816,"Ġcry":3817,"ĠEnter":3818,"ĠFox":3819,"ĠPrince":3820,"Ġcomplex":3821,"Ġcaptured":3822,"ĠLove":3823,"Ġsoft":3824,"house":3825,"andon":3826,"ĠAngeles":3827,"ummer":3828,"ĠTor":3829,"uments":3830,"Ġfeature":3831,"Ġcompared":3832,"Ġchair":3833,"Ġremoved":3834,"ĠSong":3835,"itation":3836,"Ġgrew":3837,"Ġsmaller":3838,"Ġsch":3839,"Ġprincip":3840,"Ġservices":3841,"Ġund":3842,"claim":3843,"ucle":3844,"ĠPacific":3845,"Then":3846,"ĠJose":3847,"âĢĵ":3848,"Ġrepe":3849,"Ġmouth":3850,"rol":3851,"stant":3852,"ironment":3853,"ĠEmpire":3854,"Ġwild":3855,"ĠDel":3856,"ĠSwed":3857,"ĠEr":3858,"Ġmixed":3859,"Ġprec":3860,"Ġpretty":3861,"uty":3862,"Ġofficers":3863,"Ġchief":3864,"ĠAcad":3865,"Ġhar":3866,"tles":3867,"bury":3868,"Ġprop":3869,"Ġenergy":3870,"ĠFort":3871,"Ġmention":3872,"road":3873,"Ġsuffered":3874,"Ġsurpr":3875,"AR":3876,"Ġice":3877,"ĠBoth":3878,"ona":3879,"writ":3880,"rial":3881,"AF":3882,"arden":3883,"ĠAtlantic":3884,"Ġtransport":3885,"Ġgoals":3886,"estival":3887,"Ġcopies":3888,"but":3889,"ements":3890,"Ġconclud":3891,"uries":3892,"Ġ1994":3893,"Ġmeaning":3894,"Ġadop":3895,"Ġchall":3896,"iral":3897,"Ġconditions":3898,"ĠSpe":3899,"Ġready":3900,"olf":3901,"Ġwithd":3902,"Ġplans":3903,"ya":3904,"Ġprin":3905,"room":3906,"Ġtracks":3907,"Ġapproach":3908,"ims":3909,"ĠMartin":3910,"Ġexpected":3911,"Ġincreasing":3912,"Ġokay":3913,"Ġfloor":3914,"yes":3915,"ĠTown":3916,"Ġbeautiful":3917,"ares":3918,"Ġens":3919,"igade":3920,"Ġmor":3921,"Ġbank":3922,"Ġcelebr":3923,"Ġtor":3924,"Ġtrees":3925,"iced":3926,"arrow":3927,"Ġtail":3928,"ette":3929,"urity":3930,"Ġflight":3931,"Ġintens":3932,"ĠCle":3933,"otion":3934,"Ġartist":3935,"Ġstra":3936,"Ġheav":3937,"Ġupper":3938,"Ġappears":3939,"Ġfans":3940,"Ġqual":3941,"Ġnewsp":3942,"Ġeducation":3943,"Ġtrou":3944,"uge":3945,"venue":3946,"ĠCenter":3947,"bl":3948,"ĠParis":3949,"rican":3950,"izing":3951,"ĠStep":3952,"Ġofficer":3953,"ĠTheir":3954,"ĠCam":3955,"Ġincrease":3956,"âĢĶ":3957,"Ġbroke":3958,"more":3959,"Ġult":3960,"adium":3961,"illy":3962,"HE":3963,"ĠIII":3964,"eds":3965,"Ġhun":3966,"Ġcoin":3967,"ĠMel":3968,"Ġ37":3969,"Ġdeclared":3970,"Ġproblem":3971,"Ġmale":3972,"Ġspl":3973,"isher":3974,"Ġ1950":3975,"ĠAnother":3976,"iling":3977,"rugg":3978,"ĠRail":3979,"Ġextended":3980,"ĠPenn":3981,"Ġtrade":3982,"Ġ300":3983,"irty":3984,"istics":3985,"Ġcontains":3986,"ĠInter":3987,"chan":3988,"Ġdise":3989,"Ġapproximately":3990,"Ġpit":3991,"Ġfighting":3992,"Ġfocus":3993,"ucted":3994,"ĠNort":3995,"vert":3996,"Ġmajority":3997,"umed":3998,"Ġactive":3999,"Ġfigure":4000,"Ġselected":4001,"Ġbeat":4002,"Ġtarget":4003,"Ġdang":4004,"Ġconstit":4005,"Ġdropped":4006,"Ġconfl":4007,"Ġsuggest":4008,"Ġissued":4009,"Ġdouble":4010,"ĠCont":4011,"ibly":4012,"AN":4013,"Ġreligious":4014,"uals":4015,"enant":4016,"Ġ90":4017,"uated":4018,"ĠAfrican":4019,"Ġoperations":4020,"Ġarchite":4021,"ushed":4022,"Ġdance":4023,"Al":4024,"mas":4025,"ĠMexico":4026,"inet":4027,"Ġsense":4028,"Ġdoesn":4029,"gen":4030,"Ġago":4031,"Ġoccurred":4032,"Ġparents":4033,"ocks":4034,"Ġ1992":4035,"Ġge":4036,"Ġcentre":4037,"Ġprep":4038,"Ġthick":4039,"ĠJo":4040,"Ġconfir":4041,"Ġroy":4042,"ada":4043,"Ġemb":4044,"Ġstories":4045,"ĠGreek":4046,"ĠDis":4047,"ado":4048,"ĠMass":4049,"Ġcases":4050,"ĠFore":4051,"Ġdepend":4052,"Ġsem":4053,"Ġcomposed":4054,"ĠServ":4055,"ĠRh":4056,"ĠSuper":4057,"Ġ33":4058,"onic":4059,"Ġlif":4060,"gypt":4061,"Ġcounter":4062,"eding":4063,"Ġmarriage":4064,"Ġcer":4065,"ĠUnder":4066,"ini":4067,"Ġfish":4068,"Ġconsist":4069,"Ġmunicip":4070,"Ġschools":4071,"How":4072,"Ġarms":4073,"Ġsen":4074,"ĠRev":4075,"Ġindustry":4076,"ugh":4077,"ylv":4078,"Ġdoll":4079,"unity":4080,"icient":4081,"Ġ75":4082,"orrow":4083,"Ġrate":4084,"Ġlocation":4085,"ĠStr":4086,"Ġscience":4087,"Ġfinanc":4088,"sych":4089,"quar":4090,"Ġvehic":4091,"Ġeye":4092,"cel":4093,"iences":4094,"ensus":4095,"Don":4096,"Ġaltern":4097,"Ġgrant":4098,"peror":4099,"ĠYear":4100,"Ġattacked":4101,"ĠItaly":4102,"Ġpeace":4103,"inger":4104,"Ġstatus":4105,"ĠOper":4106,"Ġdomin":4107,"mit":4108,"Ġcust":4109,"ĠBillboard":4110,"ĠCaptain":4111,"Ġ34":4112,"Ġattacks":4113,"ĠArab":4114,"Ġ*":4115,"Ġtraditional":4116,"Ġrefused":4117,"Now":4118,"ĠCamp":4119,"aging":4120,"AS":4121,"Ġstandard":4122,"odies":4123,"Ġcollege":4124,"utions":4125,"ĠWal":4126,"Ġsudden":4127,"ĠRad":4128,"Ġbattles":4129,"ota":4130,"bre":4131,"ĠMore":4132,"ighter":4133,"ĠChe":4134,"ishop":4135,"Ġdirection":4136,"Ġ1993":4137,"Ġspot":4138,"Ġrevealed":4139,"Ġcrow":4140,"Ġtur":4141,"Ġadult":4142,"ĠLittle":4143,"Ġlaunched":4144,"Ġassociated":4145,"Ġrapid":4146,"Ġreferred":4147,"Ġnumerous":4148,"oper":4149,"Ġmatches":4150,"ications":4151,"Ġsevent":4152,"ancy":4153,"ĠEgypt":4154,"Ġmission":4155,"Ġdistance":4156,"Ġfine":4157,"?âĢĿ":4158,"Ġ00":4159,"ĠTrans":4160,"Ġtheat":4161,"ĠWales":4162,"ĠOp":4163,"ĠInf":4164,"Ġplat":4165,"Ġinitial":4166,"Ġrule":4167,"Ġproduce":4168,"Ġring":4169,"Ġenemy":4170,"Ġforms":4171,"Ġmetal":4172,"ented":4173,"riving":4174,"known":4175,"Ġhope":4176,"Ġvia":4177,"ita":4178,"Ġuses":4179,"Ġpaid":4180,"Ġhouses":4181,"Ġplot":4182,"Ġrare":4183,"ĠZeal":4184,"Ġ38":4185,"Ġcm":4186,"Ġlyrics":4187,"Ġ1991":4188,"Ġintern":4189,"As":4190,"Ġplaces":4191,"Ġarrest":4192,"osen":4193,"bon":4194,"ĠRepublic":4195,"Ġinspired":4196,"yond":4197,"Ġyards":4198,"Ġnice":4199,"ĠGroup":4200,"18":4201,"Ġcompetition":4202,"Ġpair":4203,"Ġhappy":4204,"lo":4205,"Ġcho":4206,"Ġdamaged":4207,"IN":4208,"ĠIll":4209,"Ġranked":4210,"Ġburn":4211,"Ġmaster":4212,"ĠSar":4213,"aved":4214,"Wh":4215,"ĠMa":4216,"Ġseparate":4217,"Ġhors":4218,"Ġstone":4219,"Ġaudience":4220,"Ġlegisl":4221,"Ġ1940":4222,"nam":4223,"ĠHel":4224,"Ġoil":4225,"ĠOut":4226,"bridge":4227,"Ġtons":4228,"Ġhospital":4229,"Ġstraight":4230,"odd":4231,"Ġdisplay":4232,"Ġsquare":4233,"Ġimprove":4234,"ĠGames":4235,"Ġissues":4236,"ours":4237,"ĠViet":4238,"ĠBob":4239,"ĠZealand":4240,"Ġegg":4241,"Ġrout":4242,"Ġroyal":4243,"annel":4244,"ceeded":4245,"Ġearned":4246,"osh":4247,"stitute":4248,"Ġcaught":4249,"Ġwinter":4250,"ym":4251,"Ġcandid":4252,"Ġdrink":4253,"king":4254,"Ġsubsequently":4255,"Ġcities":4256,"ĠĠĠĠĠ":4257,"Ġdirectly":4258,"ĠAcademy":4259,"inal":4260,"Ġstrength":4261,"za":4262,"resh":4263,"itiz":4264,"ĠHaw":4265,"ĠSecret":4266,"Ġprotect":4267,"ĠLatin":4268,"Ġdefeat":4269,"ĠIre":4270,"Ġunable":4271,"Ġpractice":4272,"ĠDou":4273,"AT":4274,"Ġnation":4275,"ĠSever":4276,"Ġnetwork":4277,"put":4278,"Ġfix":4279,"Ġoperation":4280,"rier":4281,"ucky":4282,"Ġtext":4283,"Ġspread":4284,"Ġchem":4285,"Ġlog":4286,"ieut":4287,"tered":4288,"ols":4289,"ta":4290,"Ġgas":4291,"Ġsides":4292,"ĠCarl":4293,"Ġstarting":4294,"Ġprimary":4295,"Ġmist":4296,"ĠWin":4297,"aith":4298,"Ġwanna":4299,"Ġyellow":4300,"Ġfellow":4301,"arian":4302,"ledge":4303,"cript":4304,"pass":4305,"Ġattempted":4306,"Ġdin":4307,"Ġcastle":4308,"Ġability":4309,"Ġsymb":4310,"Ġbound":4311,"Ġpath":4312,"ĠSat":4313,"Ġstrugg":4314,"Ġbirds":4315,"ĠMichigan":4316,"Ġpun":4317,"Ġsales":4318,"Ġperhaps":4319,"Ġincor":4320,"ection":4321,"Ġrespectively":4322,"ĠTim":4323,"Ġcontinue":4324,"ĠVer":4325,"Ġlisted":4326,"Ġrecords":4327,"Ġamb":4328,"Ġcritical":4329,"Ġrat":4330,"ĠBow":4331,"Ġbrown":4332,"Ġspirit":4333,"ĠBecause":4334,"ĠScotland":4335,"Ġ180":4336,"Ġdemon":4337,"ĠParliament":4338,"ĠOx":4339,"Ġsearch":4340,"ĠUp":4341,"ĠGood":4342,"Ġlegal":4343,"umber":4344,"VD":4345,"ĠMic":4346,"Ġtill":4347,"Ã¤":4348,"Ġpresented":4349,"Ġforeign":4350,"Ġ`":4351,"ĠHighway":4352,"Ġarchitect":4353,"Ġmax":4354,"Ġchap":4355,"Ġnucle":4356,"Ġdism":4357,"Ġunit":4358,"Ġaccepted":4359,"Ġboat":4360,"Ġunc":4361,"Ġmanaged":4362,"Ġcommune":4363,"amm":4364,"Ġsettle":4365,"Ġstruck":4366,"ĠAnn":4367,"ĠBu":4368,"Ġlargely":4369,"Ġshare":4370,"ellig":4371,"Ġlaid":4372,"Ġcontact":4373,"ogue":4374,"Ġdivided":4375,"Ġhighly":4376,"hips":4377,"Ġconflict":4378,"rawn":4379,"Ġsociety":4380,"ĠTime":4381,"Ġgreater":4382,"Ġevening":4383,"Ġmel":4384,"Ġdocument":4385,"osing":4386,"Ġahead":4387,"Ġmainly":4388,"Ġ1930":4389,"iny":4390,"Ġpurs":4391,"addy":4392,"Ġir":4393,"ĠGeorg":4394,"Ġsched":4395,"Ġbecomes":4396,"ĠGar":4397,"yer":4398,"Ġvot":4399,"Ġhall":4400,"don":4401,"antly":4402,"Ġtoward":4403,"Ġcouple":4404,"ĠFoot":4405,"Ġboys":4406,"Ġpieces":4407,"Ġenvironment":4408,"Ġresulted":4409,"Ġ2020":4410,"sp":4411,"Ġthrow":4412,"Ġblock":4413,"ĠFred":4414,"while":4415,"ube":4416,"Åį":4417,"ieutenant":4418,"Ġperfect":4419,"Ġ183":4420,"Ġanal":4421,"Ã¨":4422,"Ġdream":4423,"vention":4424,"wide":4425,"oured":4426,"astic":4427,"ĠWall":4428,"mond":4429,"awn":4430,"Ġdom":4431,"ĠLong":4432,"Ġwrong":4433,"inary":4434,"Ġcontem":4435,"Ġopport":4436,"omew":4437,"Ġleaves":4438,"ĠKenn":4439,"aha":4440,"ingu":4441,"ĠArch":4442,"Ġelectric":4443,"isation":4444,"ĠCons":4445,"Ġhero":4446,"gu":4447,"asket":4448,"Ġindic":4449,"ĠStan":4450,"ih":4451,"Ġmis":4452,"Ġsituation":4453,"ersey":4454,"Ġtheory":4455,"Ġrough":4456,"Ġportray":4457,"cul":4458,"Ġsource":4459,"Ġimag":4460,"Ġbear":4461,"oles":4462,"ĠSaint":4463,"Ġpresence":4464,"bur":4465,"ĠBraz":4466,"Ġnor":4467,"ĠTour":4468,"Ġ49":4469,"Ġdraft":4470,"ĠCatholic":4471,"ington":4472,"Ġnearby":4473,"ĠJoseph":4474,"ĠFour":4475,"iana":4476,"Ġremark":4477,"ĠLuc":4478,"Ġdepression":4479,"anta":4480,"ãĥ":4481,"ĠJones":4482,"Ġattended":4483,"with":4484,"Ġabandon":4485,"Ġsuc":4486,"Ġowned":4487,"Ġkilomet":4488,"Ġbelong":4489,"ura":4490,"ĠBost":4491,"ĠSquadron":4492,"12":4493,"Ġtraff":4494,"Ġassigned":4495,"ev":4496,"ĠDutch":4497,"ĠWell":4498,"Ġolder":4499,"Ġproperty":4500,"Ġiron":4501,"edd":4502,"ockey":4503,"Ġnotes":4504,"ĠWind":4505,"thur":4506,"Ġpoet":4507,"Ġchampionship":4508,"ĠCorps":4509,"itan":4510,"ibrary":4511,"Ġsens":4512,"ĠDepartment":4513,"ror":4514,"Ġcharge":4515,"Ġbroken":4516,"Ġcommander":4517,"imate":4518,"Äĩ":4519,"Ġculture":4520,"Ġresponsible":4521,"Ġjournal":4522,"Ġimpact":4523,"icks":4524,"Ġfat":4525,"Ġstanding":4526,"Ġcerem":4527,"ero":4528,"Ġgreatest":4529,"Ġschol":4530,"ES":4531,"Ġexact":4532,"ĠJoe":4533,"Ġcas":4534,"ĠSil":4535,"Ġtheme":4536,"chest":4537,"ĠDVD":4538,"ns":4539,"Ġfit":4540,"ervation":4541,"mark":4542,"Ġfear":4543,"ĠBC":4544,"ĠThree":4545,"Ġeconomic":4546,"Ġtransl":4547,"Ġcompletely":4548,"Ġdeliver":4549,"Ġindependent":4550,"Ġut":4551,"Ġtherefore":4552,"Ġstreet":4553,"ager":4554,"Ġlevels":4555,"Ġstopped":4556,"HL":4557,"ĠPan":4558,"ĠDistrict":4559,"tery":4560,"Ġ179":4561,"ĠMajor":4562,"iance":4563,"ĠDen":4564,"Ġpack":4565,"stein":4566,"iano":4567,"ĠTre":4568,"Ġlaws":4569,"Ġphil":4570,"rupt":4571,"Ġworth":4572,"Ġtend":4573,"ounding":4574,"Ġweather":4575,"abeth":4576,"nament":4577,"ental":4578,"Ġobtain":4579,"Ġmarked":4580,"An":4581,"Ġbul":4582,"Ġsimply":4583,"Ġacting":4584,"Ġpowerful":4585,"isco":4586,"Ġess":4587,"Ġadvance":4588,"ĠBrazil":4589,"ees":4590,"antasy":4591,"ronic":4592,"Ġcommented":4593,"Ġvariety":4594,"Ġfunction":4595,"Ġbegins":4596,"isters":4597,"ĠPeople":4598,"Ġsweet":4599,"All":4600,"ĠRecords":4601,"ĠTest":4602,"ĠAmericans":4603,"Ġcrowd":4604,"Ġyard":4605,"Ġdear":4606,"ĠNow":4607,"elve":4608,"ĠSol":4609,"Ġcook":4610,"istry":4611,"ĠBefore":4612,"ĠChief":4613,"ĠSouthern":4614,"Ġmagn":4615,"ĠSeveral":4616,"Ġsuit":4617,"ancing":4618,"Ġchance":4619,"ĠColumb":4620,"rec":4621,"ĠCross":4622,"ĠSociety":4623,"Ġmechan":4624,"Ġefforts":4625,"ables":4626,"ĠIreland":4627,"Ġedition":4628,"Ġannual":4629,"Ġsand":4630,"Ġreduced":4631,"iter":4632,"iated":4633,"ĠLee":4634,"ĠTeam":4635,"olved":4636,"15":4637,"ĠBre":4638,"Ġobserved":4639,"ĠTw":4640,"inem":4641,"aling":4642,"ĠTy":4643,"Ġcalling":4644,"Ġones":4645,"Ġpicture":4646,"Ġinterse":4647,"Ġvalue":4648,"Ġconcert":4649,"Ġbott":4650,"ĠWilliams":4651,"ĠEll":4652,"ĠCommittee":4653,"Ġcollection":4654,"Ġcompanies":4655,"Ġfederal":4656,"Ġseems":4657,"Ġgirls":4658,"ĠGovernor":4659,"mm":4660,"aming":4661,"ĠHung":4662,"ĠBoston":4663,"ĠJul":4664,"Ġquality":4665,"Ġtells":4666,"Ġclean":4667,"Ġ1989":4668,"Ġox":4669,"Ġanimal":4670,"othes":4671,"Ġrecomm":4672,"Ġ39":4673,"At":4674,"Ġmultiple":4675,"ĠChris":4676,"Ġspring":4677,"alle":4678,"Ġpropos":4679,"ĠOf":4680,"this":4681,"Ġnominated":4682,"Ġconstructed":4683,"time":4684,"Ġwonder":4685,"iring":4686,"cend":4687,"Ġmurder":4688,"ruit":4689,"iot":4690,"ĠCharl":4691,"Ġvess":4692,"Ġsuppl":4693,"Ġinches":4694,"Ġ+":4695,"ĠSk":4696,"la":4697,"Ġprogress":4698,"ĠTri":4699,"osaur":4700,"rael":4701,"Ġdrive":4702,"stone":4703,"Ġhorses":4704,"Ġsilver":4705,"Ġcombat":4706,"ye":4707,"Ġexhib":4708,"ĠYoung":4709,"Ġbeyond":4710,"Ġpositions":4711,"ĠSpain":4712,"ĠManc":4713,"Ġdisease":4714,"Ġ48":4715,"ĠStone":4716,"Ġuniversity":4717,"Ġ1942":4718,"Ġwing":4719,"orry":4720,"anda":4721,"ĠLike":4722,"Ġending":4723,"ias":4724,"Ġdistinct":4725,"TV":4726,"ĠSpr":4727,"ĠNews":4728,"Ar":4729,"Ġsystems":4730,"Ġsout":4731,"Ġactress":4732,"Ġoffer":4733,"rove":4734,"ĠFre":4735,"Ġcontrovers":4736,"Ġdrug":4737,"igg":4738,"rid":4739,"Ġcried":4740,"oma":4741,"ĠKr":4742,"Ġvocals":4743,"Ġweight":4744,"Ġancient":4745,"ĠDire":4746,"ĠHor":4747,"Ġcontent":4748,"Ġspeech":4749,"ĠMadonna":4750,"Ġretired":4751,"Ġ400":4752,"Ġtwice":4753,"ĠJeff":4754,"Ġborder":4755,"Ġrein":4756,"Ġaccident":4757,"ima":4758,"arp":4759,"Ġcatch":4760,"Ġwebs":4761,"Ġpassing":4762,"illery":4763,"ano":4764,"Ġwit":4765,"Ġeth":4766,"ĠĠĠĠĠĠ":4767,"ĠStephen":4768,"Why":4769,"entle":4770,"Ġbal":4771,"apers":4772,"Ġsnow":4773,"Ġtall":4774,"Ġopin":4775,"ĠMuseum":4776,"Ġpolitician":4777,"Ġsend":4778,"ĠSur":4779,"Ġtrial":4780,"ners":4781,"Ġserve":4782,"Ġpul":4783,"amber":4784,"Ġnorthwest":4785,"min":4786,"Ġroll":4787,"Ġonto":4788,"Ġsomeone":4789,"Ġcondition":4790,"ĠMax":4791,"ĠBook":4792,"Ġded":4793,"Ġexplained":4794,"Ġslightly":4795,"Ġresults":4796,"Ġdry":4797,"Ġseasons":4798,"agn":4799,"Ġwaters":4800,"Ġmachine":4801,"ĠOxford":4802,"ulations":4803,"Ġthin":4804,"Ġrecent":4805,"Ġopt":4806,"Ġinh":4807,"Ġgrowing":4808,"Ġdress":4809,"adel":4810,"Ġ1944":4811,"othing":4812,"Ġphysical":4813,"Ġlink":4814,"Ġcontinues":4815,"Ġconducted":4816,"Ġfinancial":4817,"appe":4818,"Ġtal":4819,"ĠTer":4820,"Ġgives":4821,"Ġsoul":4822,"Ġresist":4823,"Ġyes":4824,"Ġcitiz":4825,"Ġplants":4826,"ĠCreek":4827,"set":4828,"Ġteach":4829,"Ġbehav":4830,"rance":4831,"ylvania":4832,"lam":4833,"ĠCommission":4834,"Ġpsych":4835,"ĠWay":4836,"ĠLo":4837,"Ġincorpor":4838,"they":4839,"Ġmetres":4840,"Ġencour":4841,"Ġoccasion":4842,"ella":4843,"MS":4844,"aga":4845,"uous":4846,"Ġescape":4847,"ĠRog":4848,"Ġideas":4849,"Ġproved":4850,"eway":4851,"ĠColon":4852,"Ġfavour":4853,"ĠEliz":4854,"Ġmountain":4855,"quarters":4856,"Ġtraffic":4857,"ĠDev":4858,"Ġforg":4859,"Ġ42":4860,"Ġrespond":4861,"Ġcontrast":4862,"Ġterr":4863,"ilies":4864,"perial":4865,"Ġsave":4866,"Ġportion":4867,"stitution":4868,"Ġ1945":4869,"ĠLight":4870,"iverse":4871,"Ġaged":4872,"Ġnecessary":4873,"Ġresulting":4874,"Ġsomew":4875,"Ġguard":4876,"ourney":4877,"ĠVan":4878,"Ġartists":4879,"Ġgained":4880,"Ġmyself":4881,"embly":4882,"Ġwalls":4883,"Ġperformances":4884,"Ġpolicy":4885,"ĠLine":4886,"Ġscale":4887,"Ġ47":4888,"Ġconcent":4889,"Ġextra":4890,"Ġstating":4891,"uzz":4892,"Ġactivity":4893,"ĠRay":4894,"Ġglass":4895,"ĠFinal":4896,"Ġsimple":4897,"Ġstore":4898,"Ġsexual":4899,"eld":4900,"Ġdegree":4901,"Ġ1988":4902,"pre":4903,"ĠRos":4904,"ĠAv":4905,"track":4906,"Ġrepresented":4907,"thlet":4908,"ĠChristmas":4909,"Ġfeeling":4910,"ĠGirl":4911,"Ġpan":4912,"ĠValley":4913,"istan":4914,"60":4915,"Ġsaf":4916,"orks":4917,"Ġlooks":4918,"Ġpurpose":4919,"Ġ1987":4920,"Ġnative":4921,"Ġdisco":4922,"Ġsight":4923,"Ġstudent":4924,"Ġ64":4925,"Ġwriters":4926,"Ġhat":4927,"load":4928,"Ġfresh":4929,"ĠCarolina":4930,"ĠBBC":4931,"essed":4932,"Ġseconds":4933,"Ġ1941":4934,"Ġorganization":4935,"FA":4936,"Ġdu":4937,"ĠSund":4938,"Ġshell":4939,"aud":4940,"phy":4941,"Ġallowing":4942,"mitted":4943,"ĠDar":4944,"Ġactions":4945,"Ġapparent":4946,"Ġrid":4947,"ĠRussia":4948,"Ġselling":4949,"Ġmedical":4950,"Ġwidely":4951,"ĠNorthern":4952,"Ġplatform":4953,"Ġ1920":4954,"Ġvo":4955,"Ġalbums":4956,"iro":4957,"Ġtele":4958,"Ġ44":4959,"14":4960,"Ġcool":4961,"ĠGovernment":4962,"ĠEntertain":4963,"17":4964,"ashion":4965,"Ġrow":4966,"ĠAnne":4967,"iger":4968,"ĠJud":4969,"kins":4970,"Ġwish":4971,"Ġrom":4972,"Ġwarm":4973,"Ġsought":4974,"Ġwindow":4975,"Ġconcluded":4976,"Ġcyclone":4977,"Ġpotential":4978,"ĠCat":4979,"Ġdie":4980,"ĠFootball":4981,"ĠMiddle":4982,"Ġanswered":4983,"ighth":4984,"ĠNorm":4985,"ĠManchester":4986,"Ġtypes":4987,"Ġtransferred":4988,"ĠBridge":4989,"Ġpet":4990,"ĠSeries":4991,"ĠCorn":4992,"ĠLy":4993,"ĠLiber":4994,"Is":4995,"Ġload":4996,"ĠOtt":4997,"Ġinstit":4998,"Ġrose":4999,"ora":5000,"ĠInfantry":5001,"ayer":5002,"Ġmut":5003,"Ġinch":5004,"Ġletters":5005,"force":5006,"igr":5007,"ety":5008,"Ġenter":5009,"ĠClass":5010,"ĠIsrael":5011,"ĠAdmiral":5012,"Ġtun":5013,"Ġrelatively":5014,"Ġspoke":5015,"adow":5016,"ĠLife":5017,"azz":5018,"Ġ182":5019,"gest":5020,"ads":5021,"Ġdrama":5022,"ĠCroat":5023,"was":5024,"ĠVol":5025,"Ġadj":5026,"Ġcombined":5027,"Ġtalking":5028,"urban":5029,"Ġstudies":5030,"aun":5031,"ĠPubl":5032,"ĠLand":5033,"Ġhonor":5034,"pson":5035,"Ġpoll":5036,"ĠDun":5037,"Ġtrail":5038,"Ġpeaked":5039,"ba":5040,"Ġlov":5041,"ĠBrad":5042,"ĠConf":5043,"ĠSenate":5044,"Ġflying":5045,"ĠPrin":5046,"Ġattempts":5047,"Ġ55":5048,"ampion":5049,"Ġyouth":5050,"ĠHarrison":5051,"Ġtitled":5052,"Ġvocal":5053,"war":5054,"andy":5055,"Ġprimarily":5056,"eg":5057,"Ġroles":5058,"ĠFar":5059,"iÄĩ":5060,"Ġtwelve":5061,"ON":5062,"Ġweapons":5063,"Ġinstrument":5064,"ĠEntertainment":5065,"inson":5066,"ĠPrime":5067,"Ġ150":5068,"Ġconver":5069,"Ġprovince":5070,"Ġofficially":5071,"Ġvote":5072,"Ġinfluenced":5073,"Ġcomputer":5074,"Ġdrew":5075,"ĠBeat":5076,"Ġharm":5077,"ĠAre":5078,"Ġpattern":5079,"ĠPop":5080,"Ġrob":5081,"ĠProv":5082,"16":5083,"Ġreject":5084,"Ġways":5085,"Ġrequire":5086,"ĠVictoria":5087,"Ġpremi":5088,"Ġ1986":5089,"ĠNin":5090,"Ġnormal":5091,"did":5092,"emic":5093,"Ġorders":5094,"Ġrisk":5095,"ola":5096,"Ġcomedy":5097,"Ġpleas":5098,"ĠPenns":5099,"ĠShow":5100,"Ġexpect":5101,"Ġofficials":5102,"zen":5103,"Ġreform":5104,"Ġthinking":5105,"Ġhang":5106,"eless":5107,"Ġrang":5108,"Ġchosen":5109,"!âĢĿ":5110,"Ġnortheast":5111,"Ġgovernor":5112,"Ġsac":5113,"Ġbes":5114,"Ġalongside":5115,"gian":5116,"anes":5117,"Ġquiet":5118,"Ġsixth":5119,"Ġast":5120,"ĠCare":5121,"ĠPers":5122,"Ġhyd":5123,"Ġphilos":5124,"Ġbright":5125,"ipe":5126,"ading":5127,"Ġconfirmed":5128,"clus":5129,"Ġfired":5130,"Ġisn":5131,"ĠJes":5132,"Ġviewers":5133,"Ġprepar":5134,"Ġavoid":5135,"Ġfigures":5136,"ĠService":5137,"My":5138,"ĠSpec":5139,"Ġterritory":5140,"gend":5141,"Do":5142,"iday":5143,"Ġ1943":5144,"Ġnarrow":5145,"Ġshut":5146,"13":5147,"Ġimage":5148,"ĠDi":5149,"Ġshortly":5150,"ĠMod":5151,"ĠRam":5152,"Ġflat":5153,"Ġgrowth":5154,"ĠMen":5155,"Ġfeaturing":5156,"olly":5157,"ĠDef":5158,"Ġleaders":5159,"Ġexpress":5160,"ansas":5161,"Ġseg":5162,"Ġresc":5163,"Ġscoring":5164,"ĠLady":5165,"mission":5166,"ĠIrish":5167,"Ġmaximum":5168,"Ġsinging":5169,"Ġera":5170,"Ġreaching":5171,"rick":5172,"Ġpromoted":5173,"ĠTay":5174,"Ġexpressed":5175,"ĠHal":5176,"shire":5177,"Ġcamer":5178,"Ġtournament":5179,"cious":5180,"Ġrating":5181,"rical":5182,"Ġreplied":5183,"Ġcollabor":5184,"Ġsell":5185,"ĠGal":5186,"Ġsplit":5187,"ĠEach":5188,"ĠOs":5189,"uman":5190,"acity":5191,"oration":5192,"Ġfully":5193,"Ġ52":5194,"ishes":5195,"Ġhabit":5196,"Ġmeasure":5197,"lt":5198,"Ġdata":5199,"Ġdefin":5200,"ategory":5201,"Ġstudied":5202,"Ġliber":5203,"Ġsources":5204,"Ġdrum":5205,"Ġteacher":5206,"Ġcollect":5207,"Ġtreatment":5208,"ĠCivil":5209,"ĠHy":5210,"Ġholding":5211,"Ġtrust":5212,"Ġpilot":5213,"yan":5214,"erc":5215,"Ġcab":5216,"Ġfought":5217,"edom":5218,"orter":5219,"Cl":5220,"ĠElizabeth":5221,"Ġmic":5222,"ĠMarsh":5223,"uses":5224,"ĠRepublican":5225,"ĠAvenue":5226,"Ġfailure":5227,"Ġvisited":5228,"ĠBas":5229,"Ġaffected":5230,"Ġfollows":5231,"Ġ2018":5232,"ĠMos":5233,"Ġlearned":5234,"omers":5235,"Ġ43":5236,"Ġelement":5237,"ĠPennsylvania":5238,"Ġexecutive":5239,"Ġbuy":5240,"Ġrailway":5241,"ĠDuke":5242,"Ġfinish":5243,"omy":5244,"Ġdebuted":5245,"Ġroof":5246,"izes":5247,"Ġeasily":5248,"Ġ65":5249,"Ġinvasion":5250,"night":5251,"Ġcausing":5252,"Ġplanet":5253,"lers":5254,"press":5255,"ĠEastern":5256,"Ġunknown":5257,"Ġheavily":5258,"Ġends":5259,"ĠDaniel":5260,"ĠEven":5261,"Ġ1984":5262,"Ġslowly":5263,"onc":5264,"ĠRod":5265,"ĠJac":5266,"Ġcurrently":5267,"enger":5268,"Ġcorner":5269,"Ġrich":5270,"Ġadvant":5271,"For":5272,"ram":5273,"Ġsupply":5274,"ĠMem":5275,"Ġnewspaper":5276,"Ġtorped":5277,"Ġultimately":5278,"Ġ1985":5279,"ufact":5280,"ĠEle":5281,"unction":5282,"Ġstations":5283,"Ġspect":5284,"Ġyeah":5285,"ĠAdd":5286,"Ġrepeated":5287,"Ġbud":5288,"ĠLet":5289,"ĠDemocratic":5290,"Ġsports":5291,"ĠSecretary":5292,"ivity":5293,"Ġalt":5294,"inois":5295,"Ġgets":5296,"Ġinjury":5297,"Ġconvers":5298,"ĠRoll":5299,"ĠFe":5300,"Ġmine":5301,"Ġtruth":5302,"Ġwatched":5303,"Ġcard":5304,"Ġsust":5305,"ĠPolish":5306,"ĠPen":5307,"Ġfirm":5308,"Ġfly":5309,"Ġsetting":5310,"Ġdesignated":5311,"ipl":5312,"ĠInde":5313,"ĠBor":5314,"Ġversions":5315,"pet":5316,"Ġton":5317,"Ġedge":5318,"Ġmanufact":5319,"ĠArm":5320,"ĠHarry":5321,"ĠScottish":5322,"Ġtower":5323,"Ġreign":5324,"roll":5325,"Ġsupposed":5326,"Ġnaval":5327,"Ġaired":5328,"Ġknowledge":5329,"Ġbillion":5330,"ĠBell":5331,"Ġauthority":5332,"hire":5333,"Ġguest":5334,"Ġfilled":5335,"Ġconsec":5336,"Ġidentified":5337,"Ġexped":5338,"illing":5339,"Ġplease":5340,"ĠHind":5341,"arts":5342,"ĠAndrew":5343,"ysis":5344,"ĠAsia":5345,"Ġlabel":5346,"Ġaspect":5347,"Ġbreat":5348,"ĠTem":5349,"water":5350,"Ġsingles":5351,"Ġbodies":5352,"Ġdyn":5353,"Ġeditor":5354,"Ġwounded":5355,"Ġreturning":5356,"AA":5357,"Ġlady":5358,"ĠBattalion":5359,"ĠJersey":5360,"Ġworldwide":5361,"rich":5362,"Ġdelay":5363,"ĠDam":5364,"ĠIslands":5365,"Ġactivities":5366,"Sh":5367,"resp":5368,"Ġdiam":5369,"ware":5370,"Ġ46":5371,"Ġheads":5372,"pool":5373,"ĠJon":5374,"Ġchose":5375,"Ġworkers":5376,"ĠThough":5377,"Ġcouncil":5378,"ĠSummer":5379,"gent":5380,"Ġsitting":5381,"ato":5382,"Ġresidents":5383,"Ġexperiment":5384,"ĠRom":5385,"Ġkick":5386,"Ġmommy":5387,"ĠMur":5388,"Ġ1968":5389,"Ġhill":5390,"ĠHistor":5391,"Ġfamilies":5392,"OR":5393,"Ġlin":5394,"Ġreference":5395,"ĠLind":5396,"Ġentirely":5397,"Ġequipment":5398,"poss":5399,"Ġcapture":5400,"Ġsenior":5401,"Ġsubs":5402,"ĠNight":5403,"Ġinnings":5404,"Ġshape":5405,"ĠSub":5406,"Ġet":5407,"Ġfrequently":5408,"ĠTop":5409,"Ġadopted":5410,"ĠLew":5411,"ĠOcean":5412,"Ġbrothers":5413,"ua":5414,"clusion":5415,"Ġeasy":5416,"Ġskin":5417,"ĠThrough":5418,"Ġraid":5419,"Ġsurre":5420,"Ġintellig":5421,"Ġ2017":5422,"ĠBlue":5423,"Ġconduct":5424,"ĠInstitute":5425,"Ġpossibly":5426,"ĠHard":5427,"Ġdetermined":5428,"ĠRome":5429,"zer":5430,"Ġmentioned":5431,"Ġappearances":5432,"ĠWilson":5433,"Ġprominent":5434,"ĠAlexander":5435,"Ġachieve":5436,"Ġproduct":5437,"idden":5438,"Ġjourney":5439,"ĠAlb":5440,"Ġ1983":5441,"iable":5442,"Ġlosing":5443,"apped":5444,"ĠSystem":5445,"Ġreceive":5446,"Ġserving":5447,"Ġyounger":5448,"dd":5449,"Ġbought":5450,"Ġcoal":5451,"Ġartillery":5452,"Ġbottom":5453,"Ġchoice":5454,"Ġ1979":5455,"Ġcommonly":5456,"Ġregarded":5457,"Ġur":5458,"Ġdoctor":5459,"Ġturns":5460,"friend":5461,"Ġtask":5462,"Ġadvanced":5463,"Ġmotor":5464,"unch":5465,"AP":5466,"ĠBrigade":5467,"stead":5468,"ĠPre":5469,"ava":5470,"Ġlabor":5471,"ĠBus":5472,"Ġsubsequent":5473,"Ġislands":5474,"ĠÎ":5475,"Ġdefense":5476,"Ġwants":5477,"ii":5478,"pro":5479,"Ġthousand":5480,"enge":5481,"ĠRegiment":5482,"asty":5483,"ĠMah":5484,"Ġhomes":5485,"Ġtim":5486,"ĠWat":5487,"estic":5488,"Ġ1972":5489,"Ġkilling":5490,"gn":5491,"fit":5492,"cles":5493,"iments":5494,"Ġaf":5495,"ifying":5496,"Ġcensus":5497,"opher":5498,"ker":5499,"amin":5500,"Ġmanner":5501,"ĠHolly":5502,"11":5503,"Ġwebsite":5504,"Ġequal":5505,"Ġturning":5506,"ĠWW":5507,"Ġhistorical":5508,"Ġargued":5509,"ĠAlbert":5510,"ĠCastle":5511,"Ġsoundtrack":5512,"Ġaccompan":5513,"Ġnegot":5514,"Ġbass":5515,"Ġconsisted":5516,"ansion":5517,"Ġ1982":5518,"80":5519,"Ġvac":5520,"ĠSus":5521,"chen":5522,"aked":5523,"IS":5524,"raid":5525,"ĠMir":5526,"Ġmethod":5527,"ĠFestival":5528,"ĠPost":5529,"Ġadvent":5530,"ĠHere":5531,"ctic":5532,"ĠFleet":5533,"Ġtermin":5534,"Ġfiction":5535,"pton":5536,"ĠGeorgia":5537,"Ġfrog":5538,"Ġneck":5539,"Ġfaith":5540,"ĠIllinois":5541,"ashed":5542,"ĠUpon":5543,"Ġbasis":5544,"Ġnote":5545,"ador":5546,"ĠCy":5547,"Ġclaims":5548,"mosp":5549,"Ġsevere":5550,"ĠLu":5551,"ĠGil":5552,"och":5553,"elly":5554,"Ġnarr":5555,"ĠCub":5556,"ĠUs":5557,"Ġcontained":5558,"ĠMike":5559,"ĠAlso":5560,"uls":5561,"Ġhistorian":5562,"Ġlands":5563,"Ġreports":5564,"Ġentertain":5565,"Ġ#":5566,"Ġcert":5567,"ĠWomen":5568,"ĠBart":5569,"Ġwave":5570,"Ġnegative":5571,"ĠOhio":5572,"Ġwasn":5573,"Ġsport":5574,"Ġpig":5575,"agan":5576,"awa":5577,"Ġsatis":5578,"Ġpasses":5579,"aste":5580,"Ġtrouble":5581,"Ġmob":5582,"Ġneeds":5583,"Ġstrike":5584,"Ġadapt":5585,"ĠLes":5586,"ĠHomer":5587,"claimed":5588,"Ġlaugh":5589,"anny":5590,"Ġprefer":5591,"Ġ1967":5592,"Ġfan":5593,"ĠBon":5594,"rif":5595,"Ġlegs":5596,"Ġcart":5597,"rect":5598,"ĠGerm":5599,"Ġtrip":5600,"Ġformation":5601,"ographer":5602,"Ġmaintained":5603,"ĠOlympics":5604,"ĠDisney":5605,"Ġgentle":5606,"Ġca":5607,"Ġpage":5608,"Ġindividuals":5609,"eper":5610,"ĠJewish":5611,"ĠRevolution":5612,"Ġcars":5613,"Ġnone":5614,"athan":5615,"phas":5616,"Ġ1969":5617,"Ġcompar":5618,"adelph":5619,"wise":5620,"Ġkiss":5621,"Ġ1939":5622,"ĠGuard":5623,"Ġextrem":5624,"Ġsurrounding":5625,"Ġcontemporary":5626,"Ġfaced":5627,"ĠHurricane":5628,"Ġ177":5629,"Ġ1964":5630,"Ġdrawn":5631,"Ġfuel":5632,"Ġprompt":5633,"Ġ54":5634,"uled":5635,"Ġvan":5636,"Ġdemonstr":5637,"ali":5638,"oln":5639,"Ġ1976":5640,"Ġcriticized":5641,"ĠBond":5642,"Ġbranch":5643,"Ġroads":5644,"acks":5645,"SB":5646,"Ġrise":5647,"Ġrules":5648,"Ġfashion":5649,"ĠField":5650,"Ġcolumn":5651,"osa":5652,"ĠTaylor":5653,"ĠCard":5654,"ĠTra":5655,"Ġgenus":5656,"Ġcontain":5657,"imens":5658,"Ġbackground":5659,"ĠFer":5660,"Ġpull":5661,"noon":5662,"Ġkg":5663,"Ġmunicipality":5664,"Ġ1971":5665,"ĠJr":5666,"Ġbasket":5667,"ĠBul":5668,"Ġopposed":5669,"Ġ1975":5670,"Ġheight":5671,"ĠDet":5672,"ĠDoctor":5673,"ĠNat":5674,"outs":5675,"ĠArthur":5676,"Ġoperated":5677,"era":5678,"Ġ1981":5679,"Ġagreement":5680,"adelphia":5681,"ran":5682,"Ġhousehold":5683,"Ġflow":5684,"Ġanyone":5685,"ĠWho":5686,"Ġswim":5687,"Ġperman":5688,"Ġpup":5689,"Ġgrass":5690,"Ġ1973":5691,"ĠEmperor":5692,"Ġelev":5693,"ĠHome":5694,"Ġunus":5695,"Ġburied":5696,"Ġoppon":5697,"Ġ1974":5698,"Ġmotion":5699,"ĠJer":5700,"Ġbelief":5701,"Ġcomfort":5702,"Ġextend":5703,"ĠOlympic":5704,"Ġillust":5705,"Ġmovies":5706,"Ġcapacity":5707,"acement":5708,"ingly":5709,"Ġopportunity":5710,"etts":5711,"Ġign":5712,"Ġspok":5713,"Ġdial":5714,"imal":5715,"ĠEp":5716,"ĠShort":5717,"va":5718,"Ġwrest":5719,"umes":5720,"oty":5721,"Ġmile":5722,"ĠRon":5723,"Ġrival":5724,"Ġtypically":5725,"ĠTro":5726,"Ġnewly":5727,"Ġconcer":5728,"Ġactors":5729,"Ġopposition":5730,"Ġrecently":5731,"Ġtowns":5732,"Ġopinion":5733,"ĠStudios":5734,"onia":5735,"Ġpowers":5736,"ĠNever":5737,"ĠGall":5738,"Ġneighbor":5739,"Ġtemperature":5740,"Ġble":5741,"apes":5742,"Ġcalls":5743,"ĠFair":5744,"ickets":5745,"essions":5746,"eller":5747,"aka":5748,"oz":5749,"Ġarmed":5750,"Ġapart":5751,"ĠWild":5752,"Ġcreating":5753,"Ġanswer":5754,"gal":5755,"Ġarticle":5756,"BA":5757,"Ġparticipated":5758,"heim":5759,"Ġindeed":5760,"ĠKorean":5761,"Ġstret":5762,"iate":5763,"ĠOnly":5764,"Ġsuddenly":5765,"uate":5766,"Ġaim":5767,"ĠBad":5768,"Ġexplos":5769,"ira":5770,"Ġincident":5771,"iration":5772,"Ġfinds":5773,"ĠCoast":5774,"ĠSher":5775,"Ġclosely":5776,"Ġorganized":5777,"Ġlad":5778,"Ġexperi":5779,"Ġdisapp":5780,"Ġglob":5781,"ĠColumbia":5782,"Ġhoney":5783,"Ġprepared":5784,"Ġ600":5785,"Ġemphas":5786,"itzer":5787,"aria":5788,"ĠPhiladelphia":5789,"Ġreligion":5790,"Let":5791,"Ġassault":5792,"ching":5793,"Ġorchest":5794,"Ġrainfall":5795,"nce":5796,"otional":5797,"Ġ1966":5798,"Ġgranted":5799,"ients":5800,"Ġoh":5801,"ulture":5802,"ĠDick":5803,"After":5804,"Ġheadquarters":5805,"Ġrecognized":5806,"ĠVen":5807,"Ġeffective":5808,"Ġpiano":5809,"ĠJean":5810,"Ġnuclear":5811,"eral":5812,"respond":5813,"Ġreasons":5814,"ĠColonel":5815,"pes":5816,"achus":5817,"Ġrestrict":5818,"Ġbudget":5819,"Ġpaint":5820,"Ġabandoned":5821,"Ġ97":5822,"incoln":5823,"hered":5824,"Ġcloud":5825,"Ġadvantage":5826,"ĠSquare":5827,"Ġ53":5828,"Ġuncle":5829,"Ġdeck":5830,"ubb":5831,"Ġsecurity":5832,"\")":5833,"anwhile":5834,"Ġrear":5835,"Ġdoubt":5836,"Ġcitizens":5837,"ushing":5838,"ĠAsh":5839,"Ġatmosp":5840,"Ġbrain":5841,"ĠTHE":5842,"ĠBrook":5843,"Ġeveryone":5844,"uccess":5845,"Ġattrib":5846,"ĠMid":5847,"Ġsorry":5848,"Ġcasual":5849,"ãĤ":5850,"ĠMaster":5851,"Ġmuseum":5852,"Ġtrains":5853,"ilton":5854,"Ġsolo":5855,"box":5856,"Ġreading":5857,"ĠSS":5858,"Ġdemand":5859,"Ġyourself":5860,"Ġengaged":5861,"rival":5862,"Ġhur":5863,"Ġchalleng":5864,"Ġinterested":5865,"Ġregions":5866,"Ġ1965":5867,"Ġduty":5868,"Ġadministration":5869,"isa":5870,"Ġcancer":5871,"Ġeggs":5872,"ĠCa":5873,"ĠAllied":5874,"po":5875,"Ġmanagement":5876,"imet":5877,"Ġadvert":5878,"ĠBru":5879,"ĠFrancisco":5880,"TC":5881,"Ġkid":5882,"cing":5883,"ĠFam":5884,"ĠCD":5885,"ĠHun":5886,"Ġgarden":5887,"Ġpros":5888,"Ġcreation":5889,"Ġencounter":5890,"Mr":5891,"abb":5892,"Ġcontrolled":5893,"ĠBoard":5894,"Ġsafe":5895,"Ġsir":5896,"Ġstuff":5897,"Ġshop":5898,"Ġcenturies":5899,"ologist":5900,"Ġconsists":5901,"Ġcrime":5902,"Ġ1978":5903,"ĠChild":5904,"Ġdismiss":5905,"ĠHa":5906,"ras":5907,"Ġseeing":5908,"Ġcells":5909,"rence":5910,"Ġboats":5911,"Ġwa":5912,"owa":5913,"Ġsyn":5914,"Ġsequence":5915,"Ġsymbol":5916,"Ġcriticism":5917,"ĠOnce":5918,"Ġacad":5919,"ĠSweden":5920,"sey":5921,"ĠNaz":5922,"tendo":5923,"Ġafternoon":5924,"achusetts":5925,"Ġoccupied":5926,"Ġnick":5927,"Ġmyth":5928,"ĠRose":5929,"Ġsail":5930,"Ġshooting":5931,"agement":5932,"Ġlanding":5933,"Ġscientific":5934,"Ġseventh":5935,"Ġmessage":5936,"ĠKentucky":5937,"ĠGree":5938,"Ġ2021":5939,"Ġdaily":5940,"utation":5941,"Ġaid":5942,"ĠSand":5943,"Ġproducers":5944,"ĠSel":5945,"ĠHay":5946,"Ġauthorities":5947,"ceived":5948,"ocated":5949,"ĠMusl":5950,"Ġmerch":5951,"Ġsets":5952,"Ġimproved":5953,"eman":5954,"Ġachieved":5955,"know":5956,"oday":5957,"Ġ2019":5958,"Ġinteract":5959,"Ġshowing":5960,"Ġhumans":5961,"avel":5962,"wall":5963,"Ġfranch":5964,"ĠAbout":5965,"Ġsounds":5966,"Ġcommittee":5967,"rons":5968,"inth":5969,"Ġneither":5970,"ĠLincoln":5971,"Ġbriefly":5972,"Ġrot":5973,"ĠChap":5974,"Ġoffensive":5975,"mun":5976,"Ġgall":5977,"ĠLab":5978,"Ġkingdom":5979,"inity":5980,"Ġ(\"":5981,"Ġcrossing":5982,"Ġparalle":5983,"Ġsouthwest":5984,"after":5985,"Ġconnected":5986,"ĠLive":5987,"Ġ85":5988,"ĠClark":5989,"ĠNHL":5990,"Ġdescribes":5991,"ĠPict":5992,"Ġsteel":5993,"Ġdisappe":5994,"Ġcauses":5995,"ucks":5996,"ĠMassachusetts":5997,"ĠNintendo":5998,"ais":5999,"Ġcarrying":6000,"Ġmarry":6001,"stream":6002,"Ġcheck":6003,"Ġprotection":6004,"Ġlanguages":6005,"Ġexistence":6006,"AC":6007,"Ġcultural":6008,"ĠBern":6009,"Ġhappen":6010,"ĠFantasy":6011,"Ġconsecutive":6012,"Ġindustrial":6013,"Ġ1977":6014,"apore":6015,"Ġdecre":6016,"which":6017,"ĠCommon":6018,"father":6019,"ĠPot":6020,"standing":6021,"ĠPrincess":6022,"Ġlic":6023,"ello":6024,"Ġ74":6025,"Ġdetect":6026,"Ġspeaking":6027,"Ġacquired":6028,"ĠWalter":6029,"Ġunique":6030,"ĠProd":6031,"Ġwaiting":6032,"Ġride":6033,"ko":6034,"Ġlap":6035,"ĠMD":6036,"olt":6037,"Ġ95":6038,"Ġwealth":6039,"ario":6040,"Ġ57":6041,"Ġawards":6042,"Ġchor":6043,"ĠWater":6044,"ĠHit":6045,"Ġwitness":6046,"ĠKen":6047,"Ġfilmed":6048,"burgh":6049,"Be":6050,"Ġleadership":6051,"Ġgross":6052,"Ġmissing":6053,"ĠOrigin":6054,"Ġshore":6055,"uer":6056,"atures":6057,"ĠTam":6058,"atever":6059,"Ġceremony":6060,"avalry":6061,"ĠJane":6062,"Ġnose":6063,"ĠOffice":6064,"Ġarrival":6065,"Ġerr":6066,"Ġunivers":6067,"Ġshr":6068,"Ġgain":6069,"Ġminister":6070,"Ġvehicles":6071,"Ġrequest":6072,"ĠHead":6073,"Ġsick":6074,"verse":6075,"ulate":6076,"ĠWars":6077,"ĠBroad":6078,"Ġshark":6079,"Ġglad":6080,"struction":6081,"Ġsettled":6082,"anger":6083,"Ġkit":6084,"Ġsuccessfully":6085,"uties":6086,"Ġrapidly":6087,"Ġrac":6088,"Ġexerc":6089,"uts":6090,"ĠForm":6091,"Ġthirty":6092,"Ġ56":6093,"lig":6094,"Ġshel":6095,"Ġcorrespond":6096,"Come":6097,"ĠHon":6098,"ĠWeek":6099,"ĠSingapore":6100,"ĠUN":6101,"Ġteeth":6102,"bar":6103,"Ġcup":6104,"Ġevac":6105,"Ġhung":6106,"ja":6107,"Ġmedal":6108,"ef":6109,"ĠKim":6110,"possible":6111,"Ġhurt":6112,"ĠNick":6113,"Ġfilming":6114,"Ġexpansion":6115,"Ġcontaining":6116,"ĠEarl":6117,"ĠLar":6118,"Ġflowers":6119,"itled":6120,"cks":6121,"Ġrejected":6122,"Ġliterature":6123,"ĠCambridge":6124,"ĠEs":6125,"his":6126,"Ġsuggests":6127,"Ġcrown":6128,"Ġstick":6129,"ela":6130,"isers":6131,"Ġexpanded":6132,"Ġmounted":6133,"ĠSa":6134,"Ġstock":6135,"ĠNap":6136,"ls":6137,"Ġprovides":6138,"Ġham":6139,"ĠMul":6140,"Ġvalley":6141,"Ġpainting":6142,"Ġoldest":6143,"ĠLiver":6144,"bro":6145,"ĠLieutenant":6146,"Ġ120":6147,"ĠâĢĺ":6148,"Ġobserv":6149,"EN":6150,"ĠGolden":6151,"phone":6152,"ĠOperation":6153,"One":6154,"Ġheat":6155,"Ġ76":6156,"gt":6157,"Ġvolume":6158,"Ġafraid":6159,"ĠBalt":6160,"Ġaddress":6161,"ĠGermans":6162,"iform":6163,"Ġ178":6164,"ĠGrant":6165,"ophy":6166,"ropol":6167,"iations":6168,"ĠBank":6169,"Ġeconomy":6170,"Ġwatching":6171,"Ġaccompanied":6172,"Ġliked":6173,"Ġsquadron":6174,"Ġtitles":6175,"Ġcomic":6176,"ĠAmong":6177,"acter":6178,"ĠPak":6179,"Ġfinding":6180,"ĠMiller":6181,"ĠCrit":6182,"anning":6183,"Ġkilometres":6184,"ĠEnd":6185,"ĠĠĠĠĠĠĠ":6186,"Ġdefence":6187,"ĠSunday":6188,"Ġec":6189,"Ġextensive":6190,"ĠOrder":6191,"mouth":6192,"Ġ41":6193,"ĠFurther":6194,"Ġshared":6195,"ĠDue":6196,"mhm":6197,"icate":6198,"ĠYour":6199,"ĠMeanwhile":6200,"Ġsuppor":6201,"ĠDie":6202,"ĠAlbum":6203,"ĠBal":6204,"Ġsole":6205,"Ġsucceeded":6206,"ez":6207,"Ġdispl":6208,"Ġfunny":6209,"Ġprotected":6210,"icial":6211,"Ġsoutheast":6212,"Ġnotable":6213,"ati":6214,"ĠGi":6215,"ĠSix":6216,"Ġgar":6217,"ĠLewis":6218,"Ġ1963":6219,"Ġtechnology":6220,"unior":6221,"Ġsym":6222,"Ġfruit":6223,"Ġ1918":6224,"ĠSound":6225,"Äģ":6226,"FL":6227,"ĠTurn":6228,"ĠTropical":6229,"rip":6230,"Ġmemory":6231,"ĠSupreme":6232,"Ġsafety":6233,"Ġmo":6234,"Ġdedicated":6235,"ĠWrit":6236,"ĠPoland":6237,"Ġvon":6238,"aret":6239,"worth":6240,"Ġagent":6241,"ĠBurn":6242,"Ġ1948":6243,"Ġtorpedo":6244,"Ġdefined":6245,"Ġemp":6246,"ipped":6247,"Ġ1946":6248,"Ġha":6249,"Ġhired":6250,"Ġtelling":6251,"Ġdinner":6252,"Ġcricket":6253,"Ġinfantry":6254,"Ġexpedition":6255,"Ġprograms":6256,"AL":6257,"ĠSteve":6258,"ĠStorm":6259,"Ġquestions":6260,"Ġcontest":6261,"Ġgraph":6262,"Ġdistingu":6263,"lected":6264,"ĠTech":6265,"Ġenjoyed":6266,"Ġurban":6267,"Ġthank":6268,"Ġprice":6269,"Ġhyp":6270,"ĠJan":6271,"Ġconstitution":6272,"Ġvirt":6273,"then":6274,"Ġunf":6275,"Ġdeploy":6276,"Ġdram":6277,"theless":6278,"Ġperforming":6279,"rible":6280,"Ġreaction":6281,"Ġbands":6282,"Ġruled":6283,"wing":6284,"kes":6285,"ĠMu":6286,"break":6287,"Ġchemical":6288,"aki":6289,"Ġstarts":6290,"rell":6291,"ĠVar":6292,"Ġloved":6293,"ĠOk":6294,"mod":6295,"ĠNether":6296,"ordin":6297,"Ġaware":6298,"istory":6299,"ĠFall":6300,"Ġparties":6301,"ID":6302,"ĠConference":6303,"rain":6304,"ĠAirport":6305,"ĠPortug":6306,"Ġsteam":6307,"Ġscholars":6308,"ĠDavis":6309,"Ġexisting":6310,"Ġdepth":6311,"ĠEarly":6312,"ader":6313,"Ġ66":6314,"ĠProf":6315,"Ġstayed":6316,"otten":6317,"ropri":6318,"ĠForest":6319,"ĠGord":6320,"ĠEvery":6321,"Ġ59":6322,"ĠRoss":6323,"Ġsusp":6324,"Ġgiant":6325,"Ġwithdraw":6326,"ĠMas":6327,"Ġinjured":6328,"Ġmort":6329,"ĠIV":6330,"Ġ77":6331,"Ġopera":6332,"elle":6333,"Station":6334,"Ġwearing":6335,"ultural":6336,"Ġ1914":6337,"Ġflew":6338,"ĠNet":6339,"Ġjum":6340,"ĠSerb":6341,"Ġinterchange":6342,"ĠBrian":6343,"Ġlasted":6344,"Ġ800":6345,"Ġmicro":6346,"ĠLiverpool":6347,"osl":6348,"Ġadap":6349,"Ġprince":6350,"wan":6351,"ĠRailway":6352,"emies":6353,"Ġautom":6354,"Ġexactly":6355,"Ġcamera":6356,"Ġallows":6357,"ĠId":6358,"Ġreflect":6359,"ĠDark":6360,"why":6361,"Ġflo":6362,"Ã¡n":6363,"Ġknows":6364,"Ġsky":6365,"Ġx":6366,"apping":6367,"Ġcircum":6368,"Ġflu":6369,"iat":6370,"engers":6371,"Ġsupporting":6372,"ĠGulf":6373,"Ġimportance":6374,"Ġblow":6375,"Ġoccas":6376,"Ġconsequ":6377,"ĠKorea":6378,"ĠPhilipp":6379,"ĠAnderson":6380,"raham":6381,"Ġdesire":6382,"Ġrhy":6383,"western":6384,"Ġ2022":6385,"bell":6386,"Ġcommissioned":6387,"Ġmilk":6388,"writer":6389,"Ġtransform":6390,"Ġhotel":6391,"ĠRadio":6392,"Ġdaddy":6393,"Ġclothes":6394,"Ġhuge":6395,"ĠTurk":6396,"Ġpoem":6397,"Ġadministr":6398,"Ġimpl":6399,"Ġrevolution":6400,"Ġscheduled":6401,"ooth":6402,"Ġreceiving":6403,"Ġopposite":6404,"ova":6405,"Ġ1956":6406,"Ġarranged":6407,"Ġdriving":6408,"Ġpurchased":6409,"ĠCommand":6410,"Ġbag":6411,"ĠKir":6412,"ĠMaria":6413,"Ġcontributed":6414,"Ġlear":6415,"Ġprisoners":6416,"Ġextremely":6417,"Ġexperienced":6418,"ĠSyd":6419,"Ġstrange":6420,"Ġconqu":6421,"Ġresour":6422,"Ġash":6423,"dy":6424,"Ġconference":6425,"Ġ1962":6426,"ulpt":6427,"Ġretire":6428,"iques":6429,"icles":6430,"hetic":6431,"Ġdefensive":6432,"ught":6433,"orough":6434,"Ġcolour":6435,"oir":6436,"ĠIowa":6437,"Ġselection":6438,"Ġtaught":6439,"Ġelimin":6440,"ĠHollywood":6441,"Ġspin":6442,"Ġexchange":6443,"ĠNorway":6444,"Ġsemi":6445,"nic":6446,"lement":6447,"ĠJay":6448,"Ġlose":6449,"Ġsolid":6450,"unte":6451,"Ġ62":6452,"Ġindependence":6453,"achel":6454,"state":6455,"Ġfur":6456,"Ġvir":6457,"Ġ99":6458,"Ġdescend":6459,"ĠPress":6460,"Ġscr":6461,"rig":6462,"anton":6463,"Ġcertainly":6464,"Ġagric":6465,"Ġfocused":6466,"Ġcandidate":6467,"Ġanalysis":6468,"Ġ58":6469,"Ġstadium":6470,"Ġowner":6471,"ĠAri":6472,"rate":6473,"Ġproceed":6474,"col":6475,"Ġdigital":6476,"Ġarrested":6477,"Ġlake":6478,"ĠLeg":6479,"Ġpolitics":6480,"Ġpalace":6481,"Ġstructures":6482,"ĠPlayStation":6483,"Le":6484,"osis":6485,"Ġentrance":6486,"book":6487,"Ġru":6488,"Ġpure":6489,"Ġven":6490,"yles":6491,"ĠAssembly":6492,"Ġupgr":6493,"ĠAtt":6494,"ĠIndepend":6495,"Ġfeed":6496,"ĠCur":6497,"Ġlisten":6498,"Ġacts":6499,"Ġdepict":6500,"Ġundert":6501,"istol":6502,"Ġviolence":6503,"Ġpitch":6504,"wick":6505,"ĠArgent":6506,"ĠTen":6507,"Ġescort":6508,"Ġgrown":6509,"Ġsites":6510,"Ġstatement":6511,"Ġapplied":6512,"Ġresistance":6513,"Ġban":6514,"Ġapproved":6515,"Ġsession":6516,"Ġplanning":6517,"BS":6518,"otic":6519,"ogether":6520,"Ġestate":6521,"Ġsons":6522,"ĠBall":6523,"Ġactual":6524,"Ġmoder":6525,"ĠFI":6526,"iously":6527,"Ġguy":6528,"Ġconnect":6529,"ĠKong":6530,"ĠConfeder":6531,"Ġvent":6532,"Ġacid":6533,"ĠGib":6534,"Ġconve":6535,"Ġunl":6536,"Ġviews":6537,"ĠBetween":6538,"Ġearliest":6539,"Ġinteresting":6540,"ĠSR":6541,"ĠHart":6542,"ographic":6543,"Ġemployed":6544,"Re":6545,"ĠHan":6546,"ĠPrem":6547,"oys":6548,"Ġvisual":6549,"Ġroughly":6550,"Ġlocations":6551,"Ġclimate":6552,"ĠCarey":6553,"ĠStation":6554,"Ġju":6555,"Ġdeveloping":6556,"itors":6557,"Ġmir":6558,"ĠWalk":6559,"ĠAD":6560,"ĠBey":6561,"Ġforth":6562,"Ġcrossed":6563,"Ġ72":6564,"ĠYes":6565,"Ġbiggest":6566,"Ġobjects":6567,"uan":6568,"osed":6569,"Ġflooding":6570,"ĠColl":6571,"Ġadding":6572,"Ġlimit":6573,"akers":6574,"Ġsad":6575,"Ġfields":6576,"ĠVietnam":6577,"Ġenl":6578,"Ġrenamed":6579,"ĠPhilip":6580,"tical":6581,"Ġdifference":6582,"ĠPoint":6583,"Ġbattalion":6584,"Ġwings":6585,"Ġ1961":6586,"char":6587,"Ġproducts":6588,"Ġinvited":6589,"Ġtouchdown":6590,"Ġfranchise":6591,"aws":6592,"Ġresident":6593,"Ġ67":6594,"Ġintensity":6595,"Ġoperating":6596,"Ġcharts":6597,"Ġlaunch":6598,"huh":6599,"lets":6600,"ĠArts":6601,"Ġnest":6602,"earch":6603,"Ġsecondary":6604,"Ġ87":6605,"Ġproviding":6606,"ĠCommun":6607,"oard":6608,"Ġ1958":6609,"ĠAddition":6610,"Ġneut":6611,"ilding":6612,"Ã¸":6613,"ownt":6614,"Ġsubmar":6615,"Ġcrimin":6616,"vest":6617,"ervative":6618,"Ġbaseball":6619,"Ġsufficient":6620,"Ġtone":6621,"Ġcouldn":6622,"Ġ73":6623,"Ġinhabit":6624,"Ġisol":6625,"Ġthousands":6626,"atre":6627,"Ġguess":6628,"Ġwalked":6629,"Ġsettlement":6630,"IT":6631,"Ġrelief":6632,"ĠInc":6633,"ĠChart":6634,"Ġapproached":6635,"Ġfacilities":6636,"Ġwel":6637,"ĠAnth":6638,"Not":6639,"Ġtank":6640,"ĠCape":6641,"ĠSpecial":6642,"ĠSimon":6643,"Ġcomposer":6644,"Ġcore":6645,"Ġ1917":6646,"200":6647,"Ġcollected":6648,"Ġthemes":6649,"Ġlies":6650,"Ġrated":6651,"Ġwouldn":6652,"Ġtied":6653,"arc":6654,"III":6655,"Ġ1947":6656,"gers":6657,"Ġfal":6658,"ĠAlan":6659,"ĠMexican":6660,"Ġfolk":6661,"uv":6662,"good":6663,"Ġmoon":6664,"Ġdescript":6665,"Ġ1938":6666,"Ġrend":6667,"Ġafterwards":6668,"Ġmeters":6669,"ĠGre":6670,"Ġuh":6671,"Ġ51":6672,"onym":6673,"Ġathlet":6674,"Ġdomestic":6675,"Ġ250":6676,"Ġcow":6677,"Ġinvolve":6678,"Ġreputation":6679,"ĠLeon":6680,"Ġ160":6681,"poration":6682,"Ġgradually":6683,"Ġpow":6684,"ĠBase":6685,"Ġviewed":6686,"Ġ()":6687,"Ġregarding":6688,"Ġalternative":6689,"iller":6690,"Ġsecure":6691,"Ġdetails":6692,"ĠSpring":6693,"ĠBang":6694,"zant":6695,"Ġgod":6696,"Ġ1957":6697,"pret":6698,"Ġwet":6699,"ĠBarb":6700,"ĠRet":6701,"eler":6702,"Ġheaded":6703,"To":6704,"ordan":6705,"Ġsculpt":6706,"ĠConstitution":6707,"iy":6708,"insula":6709,"Ġrestaur":6710,"Ġdisturb":6711,"Ġpublication":6712,"ĠWrest":6713,"Ġsurprise":6714,"ĠDream":6715,"Ġwinner":6716,"hus":6717,"ĠMaryland":6718,"CH":6719,"ĠTony":6720,"Ġadmitted":6721,"ĠSydney":6722,"Ġgay":6723,"History":6724,"Ġassistant":6725,"Ġsomewhat":6726,"Ã±":6727,"ĠJustice":6728,"Ġdiscover":6729,"Ġalle":6730,"ĠNetherlands":6731,"Ġhol":6732,"Ġfalling":6733,"ĠKennedy":6734,"host":6735,"Ġstatistics":6736,"Ġforget":6737,"ois":6738,"esc":6739,"Ġanimated":6740,"Ġsquad":6741,"thew":6742,"ĠElect":6743,"wich":6744,"Ġ1936":6745,"Å¡":6746,"ĠIv":6747,"ĠMoore":6748,"rets":6749,"Ġpopularity":6750,"Ġfreedom":6751,"Ġpicked":6752,"Ġregister":6753,"icine":6754,"40":6755,"ĠCop":6756,"Ġshaped":6757,"Ġreplace":6758,"ĠByzant":6759,"erted":6760,"Ġconcerned":6761,"izations":6762,"ĠIndust":6763,"nie":6764,"ĠDor":6765,"Ġengines":6766,"Ã³n":6767,"Ġappeal":6768,"ception":6769,"Ġspend":6770,"Ġmissed":6771,"Ġitems":6772,"Ġjoint":6773,"Ġstages":6774,"Ġearn":6775,"ennis":6776,"inder":6777,"Ġpin":6778,"Ġsubstant":6779,"Ġclasses":6780,"Ġ1954":6781,"Ġbringing":6782,"_,":6783,"mann":6784,"Ġprojects":6785,"ĠFire":6786,"Ġonline":6787,"OU":6788,"Ġunsuccess":6789,"Ġtorn":6790,"--------":6791,"Ġ63":6792,"uration":6793,"ĠRoy":6794,"Ġthrew":6795,"Ġplane":6796,"Ġenemies":6797,"Ġcombination":6798,"ĠImperial":6799,"Ġeating":6800,"ĠGreg":6801,"Ġplain":6802,"ĠIslam":6803,"ĠMain":6804,"Ġchampion":6805,"Ġmodels":6806,"position":6807,"Ġreality":6808,"Ġfrag":6809,"itage":6810,"ĠGer":6811,"icide":6812,"ao":6813,"ache":6814,"ĠStand":6815,"han":6816,"Ġremov":6817,"Ġlosses":6818,"leton":6819,"Ġstreets":6820,"Ġdelivered":6821,"Ġ1953":6822,"Go":6823,"ĠMother":6824,"itzerland":6825,"Ġhuh":6826,"Ġclimb":6827,"ĠDown":6828,"ĠWhy":6829,"ender":6830,"Ġancest":6831,"ĠDougl":6832,"Ġinte":6833,"ĠVill":6834,"Ġrooms":6835,"Ġusual":6836,"ÅĤ":6837,"Ġ69":6838,"Just":6839,"Ġ1959":6840,"ĠRem":6841,"Ġcode":6842,"Ġfoss":6843,"rogen":6844,"Ġworst":6845,"Ġproducing":6846,"Ġthreatened":6847,"ĠBir":6848,"uthor":6849,"ĠWhit":6850,"Ġconverted":6851,"Ġalive":6852,"ante":6853,"Ġdangerous":6854,"ĠDaily":6855,"ĠNob":6856,"ĠIndiana":6857,"Ġconnection":6858,"Ġconsum":6859,"ĠâĪ":6860,"Ġdistributed":6861,"ĠFord":6862,"Ġwrites":6863,"Ġemerg":6864,"ternal":6865,"Ġbegun":6866,"bound":6867,"Ġwedd":6868,"Ġfict":6869,"ĠBra":6870,"ĠNations":6871,"rett":6872,"ji":6873,"Ġlibrary":6874,"ĠDirector":6875,"Ġsharp":6876,"Ġ1955":6877,"organ":6878,"Ġdeaths":6879,"ĠPit":6880,"ĠInstead":6881,"Ġresponded":6882,"ĠOb":6883,"encies":6884,"Ġmales":6885,"umin":6886,"ĠSwitzerland":6887,"ĠGordon":6888,"ĠAh":6889,"uting":6890,"greg":6891,"Ġhits":6892,"Ġintroduction":6893,"Ġcasualties":6894,"Ġempt":6895,"Ġvolcan":6896,"Ġcharged":6897,"real":6898,"Ġpoly":6899,"chers":6900,"TER":6901,"ici":6902,"Ġcapable":6903,"ĠKa":6904,"Ġdesigns":6905,"Ġdoct":6906,"ĠGram":6907,"Ġjudge":6908,"ĠToday":6909,"Ġgeneration":6910,"Ġ1919":6911,"oli":6912,"Ġ82":6913,"Ġdeclined":6914,"Ġgal":6915,"ĠPass":6916,"Ġtemple":6917,"ĠMoon":6918,"ĠAlf":6919,"ĠPier":6920,"Ġbasic":6921,"Ġconvin":6922,"ĠRun":6923,"would":6924,"Ġagree":6925,"Ġimpossible":6926,"Ġfavorite":6927,"onds":6928,"Ġevolution":6929,"Ġ1915":6930,"ila":6931,"Ġsurvived":6932,"Ġimpr":6933,"Ġbattery":6934,"bourne":6935,"Ġwars":6936,"Ġstands":6937,"aska":6938,"ĠRaj":6939,"ĠStew":6940,"lee":6941,"ĠBeach":6942,"Ġsignificantly":6943,"stances":6944,"Ġbirthday":6945,"Ġexclus":6946,"Ġrebu":6947,"Ġappoint":6948,"hedral":6949,"ĠPo":6950,"Ġmole":6951,"Ġparliament":6952,"Where":6953,"Ġ89":6954,"Ġabsol":6955,"Ġconsiderable":6956,"Ġbot":6957,"ĠAsian":6958,"Ġgreatly":6959,"had":6960,"Ġbreaking":6961,"Ġreserve":6962,"ells":6963,"avig":6964,"Ġinse":6965,"Ġtom":6966,"ĠAdam":6967,"rm":6968,"yo":6969,"ocket":6970,"ĠBudd":6971,"Ġintersection":6972,"kend":6973,"issance":6974,"ĠBab":6975,"Ġ1952":6976,"Ġ1937":6977,"Ġfemales":6978,"Ġdrawing":6979,"Ġplate":6980,"iley":6981,"ses":6982,"Ġsupplies":6983,".,":6984,"ĠBos":6985,"Ġstrip":6986,"Ġlying":6987,"Ġpictures":6988,"aug":6989,"ito":6990,"Ġmaybe":6991,"ĠIndones":6992,"Ġprincipal":6993,"Ġcou":6994,"coming":6995,"Ġmethods":6996,"enny":6997,"rete":6998,"ĠChannel":6999,"ĠMarc":7000,"Ġeleven":7001,"rees":7002,"ĠKat":7003,"ĠNic":7004,"ĠAustria":7005,"ĠPublic":7006,"ĠProfess":7007,"ĠFederal":7008,"Ġcorrect":7009,"ailed":7010,"Ġvoted":7011,"arring":7012,"Ġ1949":7013,"Ġsynt":7014,"Ġunusual":7015,"ĠMot":7016,"heastern":7017,"Ġcrop":7018,"ĠWhe":7019,"ami":7020,"ĠMatt":7021,"Ġdollars":7022,"Ġhoped":7023,"je":7024,"onto":7025,"entially":7026,"sex":7027,"ĠHMS":7028,"Ġadapted":7029,"Ġdifficulty":7030,"Ġtact":7031,"Ġbath":7032,"ĠBah":7033,"Ġ78":7034,"py":7035,"Ġpreced":7036,"appy":7037,"Ġpointed":7038,"Ġtired":7039,"Ġ96":7040,"Ġextr":7041,"Ġcoff":7042,"ING":7043,"Ġduties":7044,"umph":7045,"Ġcommitted":7046,"Ġotherwise":7047,"Ġattached":7048,"Ġevil":7049,"ĠBand":7050,"ĠTheatre":7051,"Ġquant":7052,"Ġmathem":7053,"ennes":7054,"Ġdriven":7055,"owntown":7056,"ĠAdams":7057,"leep":7058,"IC":7059,"icken":7060,"ĠBerlin":7061,"Ġdelight":7062,"ifications":7063,"ĠRel":7064,"ĠAC":7065,"Ġputting":7066,"Ġ1916":7067,"Ġpresidential":7068,"ĠHamilton":7069,"Ġinvestigation":7070,"Ġobtained":7071,"Ġpersonnel":7072,"Ġsections":7073,"Ġ68":7074,"Ġreduce":7075,"ĠTok":7076,"isms":7077,"Ġequival":7078,"Ġnomination":7079,"ignment":7080,"Ġgameplay":7081,"Ġdipl":7082,"Ġdates":7083,"ucing":7084,"Ġindicated":7085,"ĠAz":7086,"oncÃ©":7087,"ĠBilly":7088,"ĠSwedish":7089,"Ġgro":7090,"ĠKansas":7091,"Ġcoastal":7092,"Ġweakened":7093,"ĠSant":7094,"Ġ79":7095,"Ġpermanent":7096,"Ġphone":7097,"stood":7098,"ĠPower":7099,"Ġwarning":7100,"ĠJesus":7101,"ĠDouglas":7102,"anean":7103,"Ġcampus":7104,"Ġcited":7105,"Ġpulled":7106,"ĠMarg":7107,"Ġaccur":7108,"coh":7109,"Ġmad":7110,"Ġsurrounded":7111,"ĠAk":7112,"owed":7113,"imb":7114,"ĠWinter":7115,"Ġentitled":7116,"Ġgenre":7117,"Ġincome":7118,"Ġcredited":7119,"ĠBush":7120,"Ġpartner":7121,"Who":7122,"ĠStadium":7123,"ĠOttoman":7124,"Ġcarbon":7125,"Ġatmosphere":7126,"orney":7127,"Ġlb":7128,"Ġmoves":7129,"Ġromantic":7130,"Ġcinem":7131,"Ġpassage":7132,"Ġhunting":7133,"aft":7134,"Ġwindows":7135,"Ġtypical":7136,"Ġbeach":7137,"Ġinstall":7138,"Ġpersu":7139,"ĠJordan":7140,"Ġwheel":7141,"His":7142,"ĠStanley":7143,"arsh":7144,"ĠFeder":7145,"Ġcompon":7146,"Ġoffers":7147,"Ġinternal":7148,"eer":7149,"yard":7150,"psons":7151,"Ġincreasingly":7152,"Ġsustained":7153,"ĠStaff":7154,"Ġcann":7155,"ĠScience":7156,"Ġtheatre":7157,"ban":7158,"ĠCab":7159,"Ġrural":7160,"Ġformal":7161,"Ġkeeping":7162,"iliar":7163,"Ġpassengers":7164,"ĠCirc":7165,"har":7166,"Ġstoryline":7167,"Ġmaterials":7168,"ĠBeyoncÃ©":7169,"Ġdecor":7170,"elson":7171,"Ġbom":7172,"ĠArk":7173,"ĠAge":7174,"Ġtreated":7175,"oto":7176,"going":7177,"Ġvessels":7178,"Ġlie":7179,"ĠSav":7180,"Ġregiment":7181,"ĠAmy":7182,"Ġoccurs":7183,"Ġidentity":7184,"Ġ88":7185,"ĠColor":7186,"Ġraise":7187,"ĠWWE":7188,"ĠCart":7189,"ĠAndy":7190,"ĠSimpsons":7191,"oked":7192,"Ne":7193,"ĠUr":7194,"pective":7195,"Ġbreed":7196,"Ġacres":7197,"iversary":7198,"Ġlandfall":7199,"Ġseparated":7200,"zy":7201,"Ġaer":7202,"Ġassociation":7203,"Ġintelligence":7204,"Ġocean":7205,"ĠDu":7206,"aren":7207,"Ġretained":7208,"Ġspoken":7209,"Ġnotice":7210,"Ġaccused":7211,"Ġlearning":7212,"Ġspons":7213,"ĠRoger":7214,"ĠHoward":7215,"GN":7216,"ĠFame":7217,"ĠFreder":7218,"Ġ700":7219,"urring":7220,"Ġpainted":7221,"Ġdistribution":7222,"emed":7223,"Ġentry":7224,"Ġbasketball":7225,"ĠGun":7226,"ĠBa":7227,"ĠPur":7228,"reck":7229,"ĠHug":7230,"usted":7231,"ĠReview":7232,"ieval":7233,"Ġlat":7234,"ĠMTV":7235,"Ã©e":7236,"Ġimages":7237,"RA":7238,"Ġ1951":7239,"Ġhal":7240,"ĠSongs":7241,"Ġmountains":7242,"velopment":7243,"ĠKar":7244,"Ġphase":7245,"Ġholds":7246,"oster":7247,"Ġouter":7248,"Ġ1933":7249,"pir":7250,"aware":7251,"Ġstrongly":7252,"ĠNaval":7253,"Ġsees":7254,"Ġdecade":7255,"ĠHo":7256,"Ġrecon":7257,"Ġabsor":7258,"heme":7259,"Ġ1935":7260,"Ġhosted":7261,"tha":7262,"Ġcomposition":7263,"Ġpenal":7264,"ĠSu":7265,"roke":7266,"ĠâĪĴ":7267,"Ġrub":7268,"icy":7269,"Ġstarred":7270,"ED":7271,"ĠNorwe":7272,"Ġliterary":7273,"Ġlegend":7274,"teenth":7275,"Ġfifty":7276,"ighters":7277,"Ġchannel":7278,"Ġsurvey":7279,"ĠConstant":7280,"ĠSocial":7281,"vis":7282,"Ġretreat":7283,"Ġveget":7284,"Ġsequel":7285,"Ġdiscovery":7286,"Ġpushed":7287,"Ġhip":7288,"Ġgather":7289,"iege":7290,"Ġ94":7291,"Ġgrounds":7292,"Ġzone":7293,"ouri":7294,"Ġmap":7295,"Ġarc":7296,"Ġplayoff":7297,"ĠSpace":7298,"Ġrum":7299,"ĠShortly":7300,"25":7301,"lines":7302,"anned":7303,"ĠMatthew":7304,"Ġgolden":7305,"ĠJews":7306,"Ġeighth":7307,"Ġteen":7308,"Ġchallenge":7309,"Ġasking":7310,"Ġcosts":7311,"Ġsailed":7312,"Ġproposal":7313,"ĠHoly":7314,"oyd":7315,"ĠRepresent":7316,"Ġdanger":7317,"ĠBrother":7318,"ĠMountain":7319,"Ġbehavior":7320,"Ġille":7321,"una":7322,"agues":7323,"Ġthrone":7324,"Ġentering":7325,"Ġastron":7326,"ĠBack":7327,"ĠEngine":7328,"Ġfixed":7329,"lie":7330,"Ġmovements":7331,"ĠGen":7332,"Ġid":7333,"à¸":7334,"uther":7335,"agle":7336,"ĠThus":7337,"ĠHans":7338,"ĠHou":7339,"icit":7340,"ĠAst":7341,"Ġrecalled":7342,"Ġacknow":7343,"Ġhonour":7344,"Ġdread":7345,"ture":7346,"ĠHistory":7347,"ĠBowl":7348,"ca":7349,"Ġprey":7350,"Ġdriver":7351,"Ġspecifically":7352,"ĠMemorial":7353,"avia":7354,"Ġexpression":7355,"Ġwalking":7356,"Ġdownload":7357,"Ġsuffering":7358,"Ġcommanded":7359,"ĠBol":7360,"Some":7361,"Ġlane":7362,"Ġregional":7363,"Ġere":7364,"iterr":7365,"ĠFive":7366,"inter":7367,"Ġhole":7368,"ĠBry":7369,"uster":7370,"Ġfictional":7371,"Ġintegr":7372,"obe":7373,"OT":7374,"Ġrecovered":7375,"ĠMorgan":7376,"Ġspr":7377,"Ġweapon":7378,"Ġwides":7379,"Ġcoat":7380,"Ġparallel":7381,"Ġcanc":7382,"Ġassumed":7383,"rows":7384,"elsh":7385,"Ġcharges":7386,"Ġpromote":7387,"regon":7388,"fast":7389,"acle":7390,"Ġpromotion":7391,"Ġdens":7392,"omic":7393,"ĠBruce":7394,"ĠRA":7395,"Ġgrav":7396,"Ġmusicians":7397,"Ġcous":7398,"Ġresemb":7399,"Ġsteps":7400,"Ġthou":7401,"aya":7402,"Ġraces":7403,"ĠFound":7404,"Ġfer":7405,"Ġimplement":7406,"idges":7407,"ĠWork":7408,"sm":7409,"Ġintention":7410,"Ġchain":7411,"Ġhearing":7412,"ĠScient":7413,"part":7414,"wen":7415,"ilation":7416,"aser":7417,"Ġpromised":7418,"Ļª":7419,"urches":7420,"Ġ130":7421,"Ġaccompl":7422,"attered":7423,"Ġ1934":7424,"ĠMcG":7425,"Ġangry":7426,"ĠLoc":7427,"ĠJoh":7428,"veland":7429,"Ġcourts":7430,"Ġbreeding":7431,"Ġvotes":7432,"Ġmaid":7433,"Ġsam":7434,"Ġcommit":7435,"ĠGill":7436,"Ġtries":7437,"pread":7438,"ĠHitler":7439,"Ġwedding":7440,"ĠMcK":7441,"ĠIra":7442,"ropolitan":7443,"ĠRobinson":7444,"ĠSanta":7445,"Ġroutes":7446,"Ġinner":7447,"rait":7448,"da":7449,"ĠDog":7450,"Ġdogs":7451,"Ġconsisting":7452,"car":7453,"Ġhockey":7454,"Ġpossibility":7455,"Ġdestruction":7456,"Ġcloser":7457,"Ġgat":7458,"li":7459,"Ġfled":7460,"Ġ1910":7461,"iterranean":7462,"bles":7463,"itable":7464,"ĠPope":7465,"cont":7466,"Ġconcerns":7467,"works":7468,"osaurus":7469,"itter":7470,"lyn":7471,"thm":7472,"Ġmeat":7473,"Ġsymp":7474,"Ġclubs":7475,"OS":7476,"urray":7477,"Ġgate":7478,"Ġdated":7479,"ishment":7480,"Ġmode":7481,"Ġconsult":7482,"ails":7483,"inton":7484,"iece":7485,"Ġexception":7486,"ĠNorwegian":7487,"Ġcommunities":7488,"ĠFrancis":7489,"Ġdecades":7490,"enses":7491,"Ġfunds":7492,"chang":7493,"weight":7494,"Ġinstance":7495,"Ġwhatever":7496,"ĠLow":7497,"ĠBarn":7498,"Ġfreeway":7499,"Ġexcell":7500,"Ġderived":7501,"ĠOregon":7502,"Ġ84":7503,"ĠRyan":7504,"Ġbeauty":7505,"Ġjournalist":7506,"Ġserves":7507,"Ġfool":7508,"Ġoccasionally":7509,"Ġtanks":7510,"Ġmilit":7511,"Ġdressed":7512,"Ġdifferences":7513,"prise":7514,"Ġrecommended":7515,"ĠMov":7516,"Ġknots":7517,"Ġwore":7518,"Ġadvice":7519,"pen":7520,"aza":7521,"Ġflower":7522,"Ġelections":7523,"Ġinstalled":7524,"using":7525,"ĠSax":7526,"ogy":7527,"Ġportrayed":7528,"ĠPhill":7529,"Ġreturns":7530,"Ġseek":7531,"Ġmonarch":7532,"Ġresponsibility":7533,"Ġinhabitants":7534,"Good":7535,"Ġ98":7536,"ĠGet":7537,"ĠRhodes":7538,"Ġnickn":7539,"bey":7540,"Ġalcoh":7541,"aints":7542,"ĠMediterranean":7543,"just":7544,"emeter":7545,"place":7546,"Ġremainder":7547,"Ġengineer":7548,"Ġliqu":7549,"orous":7550,"ĠEric":7551,"Ġdenied":7552,"poses":7553,"zz":7554,"Ġforty":7555,"atherine":7556,"rad":7557,"Ġvehicle":7558,"Ġdeparture":7559,"Ġassistance":7560,"Ġextension":7561,"ĠPear":7562,"sole":7563,"Ġax":7564,"ĠDE":7565,"aks":7566,"Ġpounds":7567,"Ġairport":7568,"Ġunless":7569,"azing":7570,"ĠUSA":7571,"Ġvolunte":7572,"ĠNorman":7573,"ĠHawai":7574,"Ġpale":7575,"Ġclassic":7576,"Ġattracted":7577,"Ġsatisf":7578,"ĠEver":7579,"Ġcrash":7580,"ĠTar":7581,"unes":7582,"Ġrelative":7583,"ĠIndians":7584,"Ġaspects":7585,"ĠToronto":7586,"urday":7587,"ĠArn":7588,"iac":7589,"Ġlongest":7590,"ĠCleveland":7591,"Ġequivalent":7592,"ĠDomin":7593,"Ġrecognition":7594,"Ġtra":7595,"Ġ93":7596,"Ġdivor":7597,"Ġconscious":7598,"ĠWeb":7599,"ĠNich":7600,"Ġvary":7601,"ĠProt":7602,"Ġblind":7603,"ĠTreat":7604,"Ġcredit":7605,"Ġsale":7606,"ĠInit":7607,"said":7608,"isen":7609,"ĠRain":7610,"Ġdebate":7611,"Ġbon":7612,"ĠLaur":7613,"agu":7614,"Ġfriendly":7615,"Ġaboard":7616,"ĠAllen":7617,"Ġdeleg":7618,"ĠCas":7619,"ĠResearch":7620,"Ġequipped":7621,"Ġpush":7622,"alo":7623,"him":7624,"Ġtrained":7625,"Ġ86":7626,"Ġ175":7627,"ĠMinnes":7628,"Ġunion":7629,"Ġ110":7630,"ĠMagazine":7631,"Ġpurchase":7632,"ĠLanc":7633,"Ġwooden":7634,"Ġjoy":7635,"Ġexpand":7636,"Ġvisible":7637,"ĠPremier":7638,"ĠTs":7639,"Ġgrey":7640,"ĠMulder":7641,"ĠWelsh":7642,"Ġhundreds":7643,"Ġpool":7644,"Ġprofessor":7645,"Ġsupporters":7646,"ĠWhere":7647,"ĠMorris":7648,"ĠJacob":7649,"jo":7650,"Ġinqu":7651,"Ġresources":7652,"Ġ=":7653,"ĠInt":7654,"ĠRow":7655,"ĠCarter":7656,"ĠWy":7657,"Ġlanded":7658,"ĠTemple":7659,"Ġsed":7660,"Ġanx":7661,"abled":7662,"Ġinterests":7663,"Ġtight":7664,"ĠNBA":7665,"eor":7666,"Ġarchitecture":7667,"ĠGro":7668,"Ġselect":7669,"Ġconstant":7670,"Ġ1927":7671,"Ġapparently":7672,"alities":7673,"ĠIran":7674,"ĠAgain":7675,"ĠPalace":7676,"rum":7677,"ĠJam":7678,"Okay":7679,"Ġfeelings":7680,"borne":7681,"ĠGard":7682,"anches":7683,"Ġposted":7684,"Ġexplain":7685,"ĠDNA":7686,"Ġinvolving":7687,"ĠPrize":7688,"Ġproperties":7689,"ĠBishop":7690,"aire":7691,"attle":7692,"Ġpoetry":7693,"Ġfestival":7694,"Ġbrand":7695,"Ġcompeted":7696,"ĠMissouri":7697,"Ġwidespread":7698,"Look":7699,"met":7700,"Ġglobal":7701,"usic":7702,"Ġtechnical":7703,"mes":7704,"Ġvision":7705,"Ġmemorial":7706,"Ġunp":7707,"ometimes":7708,"Ġ1926":7709,"Ġregularly":7710,"Ġneighbour":7711,"oking":7712,"ĠMississ":7713,"ĠKevin":7714,"Ġcertified":7715,"ĠFree":7716,"Ġconvinced":7717,"lan":7718,"Ġment":7719,"ĠMit":7720,"Ġtruck":7721,"olph":7722,"weet":7723,"ĠTechn":7724,"IA":7725,"ĠPatrick":7726,"Ã§":7727,"oses":7728,"icer":7729,"Ġmoral":7730,"Ġdescribing":7731,"Ġqueen":7732,"Ġdivisions":7733,"ĠAnthony":7734,"Ġsaved":7735,"Ġstring":7736,"Ġloud":7737,"iner":7738,"Ġabsence":7739,"ucation":7740,"ĠCentre":7741,"Ġinstruments":7742,"senal":7743,"ĠâĢĿ":7744,"Ġrailroad":7745,"Ġshots":7746,"Ġvide":7747,"Ġshif":7748,"ivals":7749,"Ġpopulations":7750,"ĠTal":7751,"Ġfallen":7752,"Ġadults":7753,"ĠNelson":7754,"ĠBure":7755,"arly":7756,"Ġgoods":7757,"Ġuniverse":7758,"Ġmassive":7759,"Ġsan":7760,"Ġtransition":7761,"Ġcontroversy":7762,"iva":7763,"Ġ1931":7764,"ĠGreece":7765,"ĠProject":7766,"Ġ83":7767,"ĠMinnesota":7768,"Ġdrove":7769,"otal":7770,"Ġterror":7771,"De":7772,"Ġ1929":7773,"LL":7774,"Ġcraft":7775,"Ġbron":7776,"Ġcris":7777,"Ġ1932":7778,"Ġrestored":7779,"Ġclassical":7780,"Ġhaven":7781,"ughed":7782,"Ġremix":7783,"Ġphotograph":7784,"ounced":7785,"Ġworship":7786,"Ġfinishing":7787,"Ġleads":7788,"Ġpraise":7789,"Ġimmediate":7790,"Ġerm":7791,"Ġchairman":7792,"ĠBelg":7793,"mn":7794,"Ġscheme":7795,"Ġsuperior":7796,"ĠVice":7797,"Ġapprec":7798,"Ġninet":7799,"Ġestablishment":7800,"Hey":7801,"ĠSee":7802,"Ġdescribe":7803,"ippi":7804,"Ġ92":7805,"Ġdecline":7806,"Ġweekend":7807,"ĠBeatles":7808,"Ġreception":7809,"ĠHockey":7810,"OM":7811,"ĠIGN":7812,"hey":7813,"Ġsuperv":7814,"Ġpoison":7815,"Ġincorporated":7816,"ulous":7817,"phoon":7818,"ĠTurkish":7819,"upt":7820,"ĠMars":7821,"Here":7822,"Ġdowntown":7823,"tan":7824,"Ġfalls":7825,"ĠAut":7826,"Ġclassified":7827,"ĠIraq":7828,"Ġresigned":7829,"Ġsuppose":7830,"Ġteaching":7831,"Ġchorus":7832,"ĠArmen":7833,"Ġbelt":7834,"ĠUTC":7835,"roit":7836,"urance":7837,"ĠOt":7838,"emble":7839,"asts":7840,"Ġphr":7841,"Ġdiplom":7842,"urally":7843,"Ġpartly":7844,"uerto":7845,"fire":7846,"esty":7847,"Ġchoose":7848,"ategy":7849,"Ġbrigade":7850,"Ġemerged":7851,"ĠBristol":7852,"Ġrivers":7853,"anz":7854,"idae":7855,"Ġauthors":7856,"Ġloyal":7857,"Ġsoil":7858,"orders":7859,"ĠVideo":7860,"Ġpregn":7861,"Ġtea":7862,"Ġtie":7863,"agonist":7864,"igen":7865,"opes":7866,"atinum":7867,"vens":7868,"Ġstrateg":7869,"Ġappropri":7870,"Ġinjuries":7871,"RE":7872,"Ġcavalry":7873,"Ġchildhood":7874,"Ġdrag":7875,"wa":7876,"wealth":7877,"Ġarmor":7878,"Ġinterpret":7879,"iography":7880,"Ġwond":7881,"ĠUnlike":7882,"Ġprogramme":7883,"ĠFamily":7884,"ĠStory":7885,"Ġuniform":7886,"Ġstream":7887,"ĠThird":7888,"Ġsmooth":7889,"Ġcategory":7890,"ĠLisa":7891,"Ġacted":7892,"ĠHospital":7893,"Ġnoting":7894,"Ġbutter":7895,"ĠSn":7896,"riers":7897,"Ġpassenger":7898,"Ġmeets":7899,"Ġ1921":7900,"Ġaccommod":7901,"ĠDig":7902,"Ġsegment":7903,"ĠFinn":7904,".'":7905,"ĠChampionships":7906,"Ġscientists":7907,"Ġdancing":7908,"icked":7909,"ĠMerc":7910,"ĠHarris":7911,"Ġsisters":7912,"Ġwilling":7913,"Ġshoulder":7914,"ĠSilver":7915,"ĠLibrary":7916,"ĠPolice":7917,"Ġclassification":7918,"Un":7919,"With":7920,"erves":7921,"Ġalleged":7922,"ĠSky":7923,"ĠSin":7924,"ĠWright":7925,"ĠIron":7926,"Ġcolony":7927,"Ġsessions":7928,"Ġpenalty":7929,"Ġfounder":7930,"Ġlawyer":7931,"Ġjump":7932,"oom":7933,"Are":7934,"eenth":7935,"ĠLouisiana":7936,"Ġdevice":7937,"athy":7938,"Ġaccounts":7939,"Ġ1900":7940,"pany":7941,"onies":7942,"Ġfro":7943,"olished":7944,"ructure":7945,"Ġrescue":7946,"Ġhelping":7947,"ygen":7948,"Ġbare":7949,"Ġhorn":7950,"Ġchest":7951,"Ġeverybody":7952,"Ġformerly":7953,"ĠGilbert":7954,"ĠEst":7955,"ĠAustrian":7956,"Ġuseful":7957,"Ġdiagn":7958,"ĠKnight":7959,"Ġfault":7960,"Ġkitchen":7961,"arrison":7962,"Ġmagic":7963,"ĠParker":7964,"Ġstrengthe":7965,"ĠAround":7966,"Ġforming":7967,"ĠFA":7968,"Ġcovers":7969,"ĠThroughout":7970,"Ġgrave":7971,"rant":7972,"Ġ1922":7973,"Ġhappens":7974,"Ġtemporary":7975,"Ġvessel":7976,"ixon":7977,"Ġmental":7978,"Mar":7979,"sters":7980,"alright":7981,"Ġcirculation":7982,"Ġcriminal":7983,"Ġseats":7984,"FC":7985,"iens":7986,"Ġstable":7987,"Ġsympt":7988,"ĠTelevision":7989,"Ġwaves":7990,"lend":7991,"ĠPuerto":7992,"Ġfifteen":7993,"Ġfishing":7994,"Ġacademic":7995,"Ġconclusion":7996,"ĠUt":7997,"Ġreplacement":7998,"Ġsoldier":7999,"IV":8000,"ĠDean":8001,"ĠSingles":8002,"Ġdetermine":8003,"Ġtot":8004,"Ġformula":8005,"Ġsurviving":8006,"ĠÅ":8007,"Ġmamm":8008,"Ġhorror":8009,"aired":8010,"á»":8011,"Ġlaughed":8012,"Ġnovels":8013,"eline":8014,"Ġpatrol":8015,"Ġwhis":8016,"gery":8017,"Ġgray":8018,"Ġmargin":8019,"ĠCooper":8020,"ogen":8021,"ĠCE":8022,"Ġfright":8023,"Ġwished":8024,"oen":8025,"Ġcircle":8026,"ĠAnton":8027,"ĠDri":8028,"Ġ1928":8029,"pered":8030,"ĠScully":8031,"ĠBull":8032,"lah":8033,"olas":8034,"Ġworse":8035,"Ġrefers":8036,"ĠPakistan":8037,"ĠJos":8038,"aver":8039,"Ġeffectively":8040,"ĠRussell":8041,"Ġempty":8042,"Ġextent":8043,"ĠWithin":8044,"Ġemergency":8045,"fish":8046,"Ġclearly":8047,"crib":8048,"Ġrocks":8049,"Or":8050,"ĠBeck":8051,"Ġmissions":8052,"icious":8053,"emetery":8054,"Ã´":8055,"Ġhistoric":8056,"Ġpersonality":8057,"ĠKelly":8058,"Ġsigns":8059,"ĠJason":8060,"Ġfitted":8061,"Ġears":8062,"Ġnormally":8063,"ĠAN":8064,"ĠRolling":8065,"bow":8066,"may":8067,"Ã¦":8068,"ĠSab":8069,"Ġprede":8070,"Ġdocumentary":8071,"Ġmart":8072,"Ġhanded":8073,"Ġexisted":8074,"ĠLabor":8075,"Ġpromise":8076,"scape":8077,"ĠNetwork":8078,"mers":8079,"sk":8080,"Ġoutbreak":8081,"ĠÃĹ":8082,"Ġchanging":8083,"Ġmerely":8084,"Ġhistorians":8085,"Ġinspiration":8086,"boy":8087,"ĠTransport":8088,"ĠCorporation":8089,"ĠThompson":8090,"atically":8091,"Ġscrap":8092,"Ġpossession":8093,"ĠJournal":8094,"Ġbusy":8095,"Ġdesp":8096,"atics":8097,"Ġobvious":8098,"Ġretirement":8099,"Ġrepresenting":8100,"Ġped":8101,"ĠMuslim":8102,"burn":8103,"ilty":8104,"ĠSon":8105,"ĠLast":8106,"Ġattributed":8107,"itated":8108,"Ġenthus":8109,"Ġanniversary":8110,"ĠHeart":8111,"Ġdating":8112,"Ġhide":8113,"ĠConne":8114,"ĠColorado":8115,"Ġblocks":8116,"Ġpound":8117,"Ġneighborhood":8118,"Ġfurn":8119,"Ġdepos":8120,"din":8121,"Ġought":8122,"Ġvictims":8123,"Ġrenew":8124,"Ġelder":8125,"imore":8126,"Ġconvent":8127,"ĠSaturday":8128,"Ġstruggle":8129,"Ġwins":8130,"ĠRab":8131,"ĠMilitary":8132,"Ġvisitors":8133,"à¤":8134,"ĠMeg":8135,"ĠSarah":8136,"Ġbelieves":8137,"zech":8138,"aron":8139,"agre":8140,"Ġbreath":8141,"Ġsurprised":8142,"Ġrequested":8143,"ĠMaj":8144,"ĠJimmy":8145,"Ġinformed":8146,"Ġremembered":8147,"ĠQueens":8148,"Ġexamples":8149,"udes":8150,"Ġcalc":8151,"endment":8152,"ocking":8153,"Ġdelayed":8154,"Ġthro":8155,"abama":8156,"Ġinterior":8157,"uly":8158,"ĠLev":8159,"Ġreprod":8160,"ĠMississippi":8161,"Ġalien":8162,"bra":8163,"razy":8164,"ĠHungarian":8165,"ĠDeath":8166,"Ġmoments":8167,"Ġninth":8168,"Ġbread":8169,"ĠCommander":8170,"Ġterminus":8171,"ugosl":8172,"Ġsubjects":8173,"Ġvice":8174,"ĠWeekly":8175,"Ġfil":8176,"Ġmatters":8177,"Ġencouraged":8178,"Ġtub":8179,"Ġhighlight":8180,"ologists":8181,"ĠKhan":8182,"Ġextreme":8183,"Ġ61":8184,"inking":8185,"Ġmurd":8186,"Ġpuzz":8187,"ĠHop":8188,"RB":8189,"Ġexperiences":8190,"Ġnoise":8191,"Ġstarring":8192,"ĠArsenal":8193,"agg":8194,"Ġvillages":8195,"Ġmeasures":8196,"Ġcul":8197,"Ġfaster":8198,"Ġcolonial":8199,"Ġpredecess":8200,"ĠSenator":8201,"Ġappearing":8202,"Ġhidden":8203,"Ġgard":8204,"Ġoblig":8205,"Ġho":8206,"Ġaffairs":8207,"Ġodd":8208,"ĠMurray":8209,"Ġprotest":8210,"Ġ176":8211,"Ġmedieval":8212,"Ġfamiliar":8213,"Ġ1912":8214,"22":8215,"Ġrising":8216,"ĠCook":8217,"ĠHoll":8218,"Ġsword":8219,"ĠCroatian":8220,"ĠFather":8221,"formula":8222,"Ġpron":8223,"ĠRoberts":8224,"Ġparish":8225,"Ġori":8226,"Ġ1913":8227,"ipper":8228,"icians":8229,"Ġfaces":8230,"Ġresign":8231,"Ġstrategy":8232,"Ġoffices":8233,"Ġinher":8234,"ĠUnivers":8235,"Ġfeather":8236,"ĠDetroit":8237,"Ġcopy":8238,"Ġske":8239,"Ġwickets":8240,"ori":8241,"mother":8242,"Ġhell":8243,"Ġmyst":8244,"Ġlect":8245,"Ġarrangement":8246,"BI":8247,"oting":8248,"May":8249,"Ġtemperatures":8250,"ĠLenn":8251,"ĠStock":8252,"Ġflank":8253,"Ġexecuted":8254,"Ġchapter":8255,"ĠAdditionally":8256,"ika":8257,"inction":8258,"ĠMedia":8259,"ĠBou":8260,"Ġsecured":8261,"ĠTrib":8262,"Ġforests":8263,"Ġpremiered":8264,"abil":8265,"Ġprime":8266,"Ġassass":8267,"mate":8268,"Ġ<":8269,"hew":8270,"ĠTower":8271,"throp":8272,"atus":8273,"bec":8274,"Ġethnic":8275,"ĠCommonwealth":8276,"ĠAlabama":8277,"Ġbeneath":8278,"ĠCzech":8279,"ĠMun":8280,"ĠDer":8281,"Ġowners":8282,"Ġdissip":8283,"ĠFront":8284,"Ġdismissed":8285,"ĠHouston":8286,"ĠMarine":8287,"ĠWarner":8288,"omot":8289,"Ġnations":8290,"ĠLyn":8291,"hens":8292,"Ġcustom":8293,"Ġster":8294,"Ġproport":8295,"Ġchurches":8296,"Ġ1925":8297,"die":8298,"Ġcycle":8299,"Ġreinforce":8300,"Ġtalked":8301,"ĠNFL":8302,"Ġstandards":8303,"acc":8304,"Ġunderstood":8305,"EC":8306,"Ġthir":8307,"ĠClinton":8308,"ĠMalays":8309,"Ġrelie":8310,"Ġtwin":8311,"ĠPrior":8312,"Ġfalse":8313,"Ġfighter":8314,"Ġpink":8315,"ĠPlan":8316,"roc":8317,"Ġcompletion":8318,"SBN":8319,"ĠAdvent":8320,"rupted":8321,"Ġintent":8322,"Ġpermission":8323,"Ġdub":8324,"Ġrecru":8325,"Ġ1924":8326,"Ġtechniques":8327,"Did":8328,"pled":8329,"ĠJohnny":8330,"Ġillness":8331,"ĠIntern":8332,"Ġunderstanding":8333,"Ġdiet":8334,"ĠISBN":8335,"Ġadministrative":8336,"Ġwonderful":8337,"life":8338,"Ġattacking":8339,"ĠOak":8340,"sea":8341,"Ġrecommend":8342,"ĠProvince":8343,"Ġacknowled":8344,"olis":8345,"Ġsimpl":8346,"cho":8347,"Ġcontroversial":8348,"ĠGrammy":8349,"Ġtaste":8350,"ivan":8351,"ĠSamuel":8352,"Ġmayor":8353,"fare":8354,"ĠOF":8355,"usal":8356,"amps":8357,"ĠMario":8358,"....":8359,"ĠHills":8360,"Ġdies":8361,"emor":8362,"Ġbehavi":8363,"Ġpartn":8364,"Ġconvention":8365,"Ġimpress":8366,"Ġfactors":8367,"rose":8368,"aze":8369,"Ġsuicide":8370,"ĠHend":8371,"Ġintense":8372,"Ġoperate":8373,"Ġmedium":8374,"Ġcrosses":8375,"Ġterrible":8376,"ĠSports":8377,"ellect":8378,"Ġgrade":8379,"Ġengineering":8380,"Ġguys":8381,"ĠMarshall":8382,"pers":8383,"Ġtong":8384,"icity":8385,"jan":8386,"bye":8387,"erk":8388,"Ġarchae":8389,"Can":8390,"Ġsurviv":8391,"Ġensure":8392,"ĠProfessor":8393,"long":8394,"Ġemotional":8395,"Ġsuccessor":8396,"ĠYugosl":8397,"Ġproud":8398,"ĠCry":8399,"Sp":8400,"Ġratings":8401,"ingers":8402,"ĠChamber":8403,"ĠMort":8404,"Ġray":8405,"Ġfunding":8406,"Ġrug":8407,"Ġdegrees":8408,"ĠBelgium":8409,"Ġskills":8410,"ĠLawrence":8411,"etime":8412,"ĠHell":8413,"ĠConc":8414,"ĠPle":8415,"ĠLin":8416,"ĠLim":8417,"asure":8418,"Ġtape":8419,"roid":8420,"acent":8421,"Ġphen":8422,"Ġpatient":8423,"Ġpleased":8424,"Ġexposed":8425,"ĠLi":8426,"obile":8427,"Ġsheep":8428,"ĠAnna":8429,"Ġfacing":8430,"Ġdiscussed":8431,"Ġenvironmental":8432,"uable":8433,"Ġarts":8434,"Ġremn":8435,"Ġbeside":8436,"orld":8437,"Ġexcess":8438,"ĠAlong":8439,"akespe":8440,"ĠUk":8441,"igration":8442,"Ġfactor":8443,"Ġadaptation":8444,"Ġviolent":8445,"hell":8446,"Ġresear":8447,"Ġaffair":8448,"Ġclaiming":8449,"angers":8450,"Ġhardly":8451,"Ġimprison":8452,"Ġ1923":8453,"ĠBulgar":8454,"ĠByzantine":8455,"Ġsang":8456,"ĠYan":8457,"ĠSimpson":8458,"Ġprove":8459,"apse":8460,"Ġcompete":8461,"ĠNC":8462,"Ġcompr":8463,"Ġ1911":8464,"Ġremove":8465,"chell":8466,"Ġpremiere":8467,"bel":8468,"Î¿":8469,"Ġpublisher":8470,"Ġmusician":8471,"ĠBaltimore":8472,"Ġfold":8473,"Ġemperor":8474,"aughters":8475,"Ġexcellent":8476,"ĠNBC":8477,"Ġmodified":8478,"lahoma":8479,"Ġchamber":8480,"ĠThor":8481,"ĠDom":8482,"Ġincom":8483,"ĠMelbourne":8484,"ĠSum":8485,"Ġimpressed":8486,"Ġvul":8487,"Ġvast":8488,"ĠApple":8489,"ĠCharlie":8490,"Ġlinked":8491,"ĠFrederick":8492,"Ġorange":8493,"ĠCamer":8494,"Ġsalt":8495,"Ġbones":8496,"ĠAuthor":8497,"Ġpurposes":8498,"24":8499,"Ġsuspend":8500,"Ġdescription":8501,"ele":8502,"Ġescaped":8503,"oust":8504,"ĠTennes":8505,"Ġannounce":8506,"Ġgathered":8507,"Ġsugar":8508,"Ġbenefit":8509,"rot":8510,"achment":8511,"ĠPhilippines":8512,"Ġrarely":8513,"Ġoxygen":8514,"from":8515,"Ġboot":8516,"Ġsilence":8517,"Ġcousin":8518,"ĠSoon":8519,"bean":8520,"Ġinfluential":8521,"ĠWrestling":8522,"dale":8523,"ĠHong":8524,"ultane":8525,"ridge":8526,"orage":8527,"ĠBird":8528,"ĠGri":8529,"ogan":8530,"Ġsubmarine":8531,"ĠMargaret":8532,"eness":8533,"ĠLl":8534,"ĠCroatia":8535,"Ġpreferred":8536,"Ġcos":8537,"Ġbranches":8538,"23":8539,"abs":8540,"Ġsynthes":8541,"ĠGuy":8542,"Ġcoins":8543,"ĠOklahoma":8544,"ET":8545,"Ġperiods":8546,"power":8547,"Ġuncertain":8548,"urd":8549,"Ġbats":8550,"Ġphilosophy":8551,"Ġveter":8552,"Ġfacility":8553,"ĠAff":8554,"Ġattempting":8555,"Ġwine":8556,"have":8557,"Ġavo":8558,"ĠFoundation":8559,"Ġfinger":8560,"text":8561,"Ġlegislation":8562,"Ġpaintings":8563,"uda":8564,"Ġcontinuing":8565,"Ġbadly":8566,"ĠDave":8567,"utt":8568,"ilst":8569,"Ġcircumstances":8570,"Ġshout":8571,"arked":8572,"ĠBrazilian":8573,"ĠJenn":8574,"because":8575,"Bl":8576,"when":8577,"Ġic":8578,"Ġbatting":8579,"Ġpapers":8580,"them":8581,"Ġcryst":8582,"ĠStewart":8583,"ĠTennessee":8584,"Ġbattleships":8585,"Ġnavig":8586,"ĠHamp":8587,"Ġye":8588,"acked":8589,"Ġsurvive":8590,"ĠNative":8591,"asm":8592,"Ġdynasty":8593,"Ġvideos":8594,"Ġslaves":8595,"Ġdeparted":8596,"Ġdust":8597,"ĠMarie":8598,"ĠCarib":8599,"iami":8600,"foot":8601,"Ġnewspapers":8602,"cription":8603,"ĠRa":8604,"Ġorganizations":8605,"Ġbanks":8606,"Ġfiring":8607,"Ġhills":8608,"Ġpleasure":8609,"Ġrefuge":8610,"ĠFel":8611,"Ġsignal":8612,"Ġbombard":8613,"bird":8614,"equ":8615,"Ġspite":8616,"Ġdifficulties":8617,"Ġargument":8618,"Ġfrequent":8619,"cow":8620,"Ġdecide":8621,"ĠLaure":8622,"ĠLane":8623,"Ġexpensive":8624,"Ġmoderate":8625,"Ġ170":8626,"Ġfuneral":8627,"Ġrepresentative":8628,"Ġinvolvement":8629,"Ġanimation":8630,"ĠAlexand":8631,"never":8632,"Ġrig":8633,"Ġdeemed":8634,"Ġreferences":8635,"Ġprevented":8636,"Ġterritories":8637,"etch":8638,"unc":8639,"Ġagents":8640,"Ġpersons":8641,"Ġenters":8642,"ĠShakespe":8643,"Ġlowest":8644,"asters":8645,"Ġtrials":8646,"Ġformat":8647,"ĠLam":8648,"Ġtravelled":8649,"sky":8650,"ĠHorn":8651,"away":8652,"Ġtests":8653,"ĠNiel":8654,"Ġrebell":8655,"ĠAlice":8656,"Ġcrisis":8657,"ĠBed":8658,"odge":8659,"Ġassemb":8660,"Ġbay":8661,"Ġbell":8662,"ĠBros":8663,"ester":8664,"ĠSimilar":8665,"case":8666,"Ġsank":8667,"ĠCO":8668,"andal":8669,"Ġplus":8670,"Ġpray":8671,"Ġaccompany":8672,"stance":8673,"._":8674,"ĠIan":8675,"Ġunsuccessful":8676,"MA":8677,"Ġpocket":8678,"ĠImp":8679,"ques":8680,"Ġdefended":8681,"Ġvalues":8682,"Ġdominated":8683,"utely":8684,"Ġsurrender":8685,"Ġmedicine":8686,"Ġbull":8687,"Ã¢":8688,"Ġ140":8689,"adesh":8690,"Ġstyles":8691,"akh":8692,"ĠObs":8693,"Ġcarrier":8694,"Ġsatell":8695,"ĠSuch":8696,"acon":8697,"ĠBatman":8698,"Ġpill":8699,"Ġasks":8700,"jamin":8701,"Ġdemanded":8702,"Ġspiritual":8703,"Ġsilent":8704,"ĠChildren":8705,"tenance":8706,"Ġcounties":8707,"ugg":8708,"21":8709,"Äį":8710,"Ġdanc":8711,"Ġgods":8712,"Ġcruiser":8713,"ĠExpress":8714,"Ġrif":8715,"Ġearthqu":8716,"ĠKey":8717,"Ġsmile":8718,"Ġevident":8719,"borough":8720,"Ġdiameter":8721,"ĠTokyo":8722,"ĠRick":8723,"Ġridge":8724,"rome":8725,"ĠEvans":8726,"Ġdrums":8727,"ĠMP":8728,"ĠNag":8729,"Ġalcohol":8730,"OK":8731,"Ġsiege":8732,"ĠReal":8733,"Ġjur":8734,"Ġbalance":8735,"fin":8736,"hard":8737,"run":8738,"Ġtraveled":8739,"ĠEgyptian":8740,"otype":8741,"Ġrent":8742,"Ġmarks":8743,"Ġrelationships":8744,"ĠNazi":8745,"Ġswimming":8746,"Ġsymptoms":8747,"Ġgraphics":8748,"Ġow":8749,"ĠWard":8750,"ĠMinistry":8751,"Ġemployees":8752,"orious":8753,"ĠHuman":8754,"Ġjack":8755,"Ġdrugs":8756,"Ex":8757,"SP":8758,"ĠCall":8759,"Ġanch":8760,"Ġspending":8761,"Every":8762,"ĠPC":8763,"thel":8764,"Ãº":8765,"ĠRoc":8766,"Ġkids":8767,"Ġwaste":8768,"resents":8769,"199":8770,"Ġformally":8771,"Ġtreaty":8772,"Ġgang":8773,"ules":8774,"ifer":8775,"Ġdepicted":8776,"ĠâĤ":8777,"Ġpages":8778,"ĠXbox":8779,"ĠHindu":8780,"Ġproced":8781,"Ġprosec":8782,"otton":8783,"ĠOrgan":8784,"iders":8785,"Ġpassion":8786,"Ġnarrative":8787,"Ġsolution":8788,"Ġrecover":8789,"pecies":8790,"Ġscre":8791,"Ġdrinking":8792,"eping":8793,"Ġbronze":8794,"xual":8795,"Ġverse":8796,"ĠOpen":8797,"Ġnoticed":8798,"ĠMedal":8799,"ĠFranklin":8800,"adows":8801,"encing":8802,"Ġseeking":8803,"ĠAnglo":8804,"mates":8805,"Ġupd":8806,"ĠChristopher":8807,"Ġfill":8808,"ĠNapole":8809,"ĠMiami":8810,"amese":8811,"ĠSomers":8812,"Ġstem":8813,"Ġadventure":8814,"oa":8815,"Ġracing":8816,"Ġarticles":8817,"iveness":8818,"ĠCountry":8819,"Con":8820,"Ġbreakfast":8821,"Ġelsewhere":8822,"ãģ":8823,"Ġkinds":8824,"Ġparticipate":8825,"Ġbacter":8826,"Ġguilty":8827,"Ġexpos":8828,"ĠForces":8829,"icop":8830,"Ġcovering":8831,"ĠCru":8832,"uscript":8833,"ĠHu":8834,"Ġjustice":8835,"Ġconvection":8836,"hu":8837,"ĠVI":8838,"ucking":8839,"Ġwire":8840,"ĠCole":8841,"Ġintellect":8842,"Ġvoices":8843,"AD":8844,"Ġnotably":8845,"Ġsmoke":8846,"warf":8847,"Ġbridges":8848,"Ġprize":8849,"Ġgarrison":8850,"John":8851,"ĠMichel":8852,"Ġconcerts":8853,"Ġrej":8854,"pent":8855,"itely":8856,"Ġvel":8857,"Ġbrill":8858,"Ġkings":8859,"ĠUSS":8860,"Ġtesting":8861,"ĠKings":8862,"Ġdesigner":8863,"Ġrestaurant":8864,"otte":8865,"ĠDevelopment":8866,"Ġtunnel":8867,"venge":8868,"Ġopponents":8869,"ĠRaw":8870,"ĠKal":8871,"Ġyoungest":8872,"ĠBuff":8873,"Ġoccasions":8874,"ĠHorse":8875,"hattan":8876,"Ġwhereas":8877,"Ġrefere":8878,"Ġlights":8879,"Ġmerchant":8880,"Ġboss":8881,"ĠTun":8882,"Ġcollaps":8883,"Ġthy":8884,"ĠWing":8885,"Ġcharacteristics":8886,"Ġseized":8887,"agen":8888,"eff":8889,"Ġ91":8890,"Ġloan":8891,"Ġisolated":8892,"Ġ81":8893,"ĠNord":8894,"ardo":8895,"Ġboil":8896,"ĠEducation":8897,"otes":8898,"izon":8899,"Ġrepresents":8900,"Ġremarked":8901,"ĠNevertheless":8902,"say":8903,"Ġclock":8904,"Ġdiff":8905,"helm":8906,"Ġhook":8907,"ĠTai":8908,"Ġsurf":8909,"Ġetc":8910,"Ġunlike":8911,"Ġcolors":8912,"Ġgenerated":8913,"ĠCrown":8914,"Ġtempor":8915,"ĠMach":8916,"27":8917,"ST":8918,"Ġ900":8919,"lex":8920,"Ġreviewer":8921,"Ġideal":8922,"hin":8923,"Ġben":8924,"ĠDC":8925,"ointed":8926,"Ġjunior":8927,"Ġoverse":8928,"Ġunderground":8929,"Ġprecip":8930,"Ġnoble":8931,"Ġmonument":8932,"Ġwithdrew":8933,"Ph":8934,"Ġmal":8935,"Ġenh":8936,"Ġfeels":8937,"ĠShakespeare":8938,"ĠLate":8939,"ĠRap":8940,"iar":8941,"Ġstores":8942,"Ġinfluences":8943,"ĠHungary":8944,"ĠGarden":8945,"Ġtears":8946,"asant":8947,"Ġreun":8948,"Ġrealized":8949,"Ġfunctions":8950,"Ġ1890":8951,"Ġtechnique":8952,"Ġdetailed":8953,"Ġflash":8954,"Ġcomed":8955,"Ġjobs":8956,"Ġtribes":8957,"ographical":8958,"Ġorbit":8959,"Ġanticip":8960,"ĠWolf":8961,"Äĥ":8962,"Ġinaug":8963,"Ġnom":8964,"Ġfeud":8965,"Ġ71":8966,"ĠDa":8967,"Ġdiver":8968,"rix":8969,"Ġworn":8970,"ĠGab":8971,"ĠGaga":8972,"aux":8973,"ĠJerry":8974,"ĠHeavy":8975,"Ġburst":8976,"ĠAlfred":8977,"ĠCaribbean":8978,"ĠModern":8979,"Ġcreature":8980,"Ġpreserved":8981,"Ġamongst":8982,"ĠBureau":8983,"zona":8984,"ĠManhattan":8985,"Ġprinted":8986,"ĠAnim":8987,"Ġanaly":8988,"Ġelectronic":8989,"Ġaudio":8990,"Ġcoffee":8991,"arest":8992,"Ġfier":8993,"ĠHand":8994,"ni":8995,"ski":8996,"Ġgraduated":8997,"Ġdesert":8998,"ocol":8999,"ĠKl":9000,"Ġovert":9001,"ĠArea":9002,"Ġtenth":9003,"ĠCome":9004,"Ġstatue":9005,"ĠTreaty":9006,"ghan":9007,"Ġfoundation":9008,"Ġdeliber":9009,"Ġrhythm":9010,"orph":9011,"active":9012,"ĠPeace":9013,"ĠĠĠĠĠĠĠĠĠĠĠĠĠĠĠĠĠĠĠĠĠĠĠĠ":9014,"Ġpolicies":9015,"Ġtort":9016,"utor":9017,"ĠOnt":9018,"Ġshoes":9019,"Ġrepair":9020,"Ġindicate":9021,"ĠCre":9022,"ĠBenjamin":9023,"ĠSnow":9024,"Ġprohib":9025,"Ġmeasured":9026,"Ġburned":9027,"Of":9028,"ĠCategory":9029,"ivery":9030,"itting":9031,"ĠAud":9032,"ĠWol":9033,"Ġjoining":9034,"Ġreveals":9035,"ĠFal":9036,"ĠJen":9037,"ullivan":9038,"Ġthee":9039,"Ġjazz":9040,"incial":9041,"Ġreleases":9042,"Ġdemocr":9043,"Ġminimum":9044,"hand":9045,"velt":9046,"ĠBrun":9047,"Ġskull":9048,"ĠMoh":9049,"ĠHaving":9050,"ĠLook":9051,"Ġoccupation":9052,"rim":9053,"Ġmyster":9054,"Ġseriously":9055,"ĠHem":9056,"Ġpriest":9057,"Ġdisplayed":9058,"gate":9059,"ĠSeattle":9060,"ĠRecording":9061,"gressive":9062,"Ġtip":9063,"Ġrevol":9064,"Ġdistricts":9065,"ĠDiego":9066,"ĠHealth":9067,"Ġunex":9068,"Ġsubstantial":9069,"odore":9070,"Ġuncom":9071,"Ġdisaster":9072,"urer":9073,"Ġalter":9074,"Ġcareful":9075,"oons":9076,"Ġstrict":9077,"Ġrates":9078,"inea":9079,"ĠDead":9080,"ieties":9081,"Ġroots":9082,"Ġthanks":9083,"Ġ1908":9084,"Ġturb":9085,"oven":9086,"ĠMess":9087,"Ah":9088,"ĠBanks":9089,"Ġstronger":9090,"rine":9091,"Ġutil":9092,"Pl":9093,"ĠUlt":9094,"ĠSpears":9095,"Ġlob":9096,"Ġsomebody":9097,"ĠTamil":9098,"Ġtiss":9099,"Ġframe":9100,"Ġsimultane":9101,"Ġresidential":9102,"ĠCR":9103,"Ġyield":9104,"Ġlocomot":9105,"ĠCuba":9106,"Ġdialogue":9107,"ĠCanal":9108,"ĠPeninsula":9109,"bal":9110,"ĠAlbums":9111,"oga":9112,"Ġslave":9113,"Ġpossess":9114,"ĠDal":9115,"Ġneutral":9116,"Ġfung":9117,"omed":9118,"Ġcommemor":9119,"town":9120,"ivated":9121,"Ġbenef":9122,"othy":9123,"ĠAdv":9124,"Ġadvis":9125,"uki":9126,"Ġdeployed":9127,"ĠBav":9128,"Ġapproval":9129,"Ġ1905":9130,"elli":9131,"Tr":9132,"26":9133,"Ġriding":9134,"Ġcommunication":9135,"ĠMes":9136,"ĠHud":9137,"okes":9138,"Ġburning":9139,"Ġentertainment":9140,"ĠDur":9141,"Ġfootage":9142,"Ġorchestra":9143,"ĠLabour":9144,"Ġsin":9145,"agh":9146,"ĠShel":9147,"ĠRand":9148,"idel":9149,"uma":9150,"Ġhousing":9151,"By":9152,"ĠPalest":9153,"Ġmanuscript":9154,"ĠTrust":9155,"ĠAunt":9156,"Ġpartially":9157,"oda":9158,"ĠEP":9159,"Ġcooper":9160,"Ġsubt":9161,"ĠRoose":9162,"anted":9163,"Ġexplan":9164,"isp":9165,"Ġdim":9166,"Ġlieutenant":9167,"Ġcateg":9168,"Ġinterpre":9169,"Ġ1909":9170,"will":9171,"Ġthrown":9172,"agger":9173,"formation":9174,"Ġunderw":9175,"Ġthereafter":9176,"Ġclosing":9177,"ĠMicro":9178,"ĠLennon":9179,"ĠOur":9180,"ĠPersian":9181,"Ġencountered":9182,"ige":9183,"inations":9184,"ultan":9185,"Ġeasier":9186,"aro":9187,"ĠPic":9188,"angle":9189,"ĠCold":9190,"Ġconcrete":9191,"Ġliquid":9192,"ĠMuch":9193,"irm":9194,"ivia":9195,"Ġconversation":9196,"ĠWalker":9197,"emen":9198,"Ġcalm":9199,"Ġdaughters":9200,"Ġdoors":9201,"ĠCampbell":9202,"hr":9203,"vere":9204,"Ġtoll":9205,"Ġshadow":9206,"ĠCyr":9207,"Ġcomments":9208,"ĠDak":9209,"Ġprint":9210,"Ġspecimens":9211,"ĠKarl":9212,"cient":9213,"uese":9214,"ĠErn":9215,"Ġconce":9216,"Ġorb":9217,"ĠKit":9218,"ĠBan":9219,"ĠFederation":9220,"Ġcreative":9221,"Ġsuitable":9222,"Ġappointment":9223,"low":9224,"ĠArizona":9225,"ĠNielsen":9226,"ĠRAF":9227,"ĠFriend":9228,"Ġthoughts":9229,"ĠPA":9230,"Ġexplo":9231,"Ġbab":9232,"stan":9233,"Ġtribute":9234,"Ġnurs":9235,"Ġrounds":9236,"ĠTownship":9237,"ĠMoscow":9238,"cticut":9239,"ĠRen":9240,"ĠLion":9241,"ĠMontreal":9242,"ĠWindows":9243,"ĠCher":9244,"apa":9245,"Ġstorms":9246,"Ġdeter":9247,"Ġreportedly":9248,"Ġmand":9249,"Ġprincess":9250,"ĠSomerset":9251,"Ġmaintenance":9252,"ĠRoosevelt":9253,"orship":9254,"soft":9255,"Ġconstruct":9256,"Ġshells":9257,"ĠBenn":9258,"Ġsurgery":9259,"nings":9260,"Ġreward":9261,"Se":9262,"Ġcheer":9263,"Ġelabor":9264,"Ġbone":9265,"Ġmate":9266,"ĠBh":9267,"Ġclothing":9268,"ĠHotel":9269,"ĠYanke":9270,"Ġcanal":9271,"ĠOntario":9272,"Ġserial":9273,"Ã¼r":9274,"Ġapartment":9275,"aman":9276,"Ġeleph":9277,"ĠÄ":9278,"Ġresolution":9279,"Ġrecordings":9280,"Ġcutting":9281,"Ġlists":9282,"idency":9283,"ĠVinc":9284,"Ġcontroll":9285,"Ġcandidates":9286,"Ġshield":9287,"Thank":9288,"Ġfairly":9289,"Ġvoiced":9290,"ĠNash":9291,"LA":9292,"phony":9293,"Ġinnoc":9294,"Her":9295,"Ġduck":9296,"Ġ06":9297,"APTER":9298,"Ġsucceed":9299,"Ġcorpor":9300,"thank":9301,"70":9302,"ĠMaur":9303,"Ġpoems":9304,"Ġranking":9305,"Ġapplication":9306,"ĠSusan":9307,"Ġ1907":9308,"Ġrecognised":9309,"Ġreflected":9310,"Ġdramatic":9311,"Ġwelcome":9312,"Ġpartnership":9313,"ĠLad":9314,"Ġseed":9315,"ĠConnecticut":9316,"EFA":9317,"namese":9318,"hor":9319,"Ġopponent":9320,"Ġillegal":9321,"cular":9322,"Ġresumed":9323,"cour":9324,"irts":9325,"Ġbusinesses":9326,"Ġcreator":9327,"mi":9328,"oral":9329,"ĠDance":9330,"ĠFried":9331,"Ġoffering":9332,"Ġdocuments":9333,"Ġsunk":9334,"Your":9335,"erg":9336,"Ġdying":9337,"imp":9338,"Ġamounts":9339,"berry":9340,"ĠKnow":9341,"Ġstones":9342,"Ġcarefully":9343,"Ġdispute":9344,"Ġrib":9345,"Ġabd":9346,"ĠBlood":9347,"Ġstriking":9348,"Ġcollapse":9349,"Ġfingers":9350,"Ġcargo":9351,"Ġmines":9352,"Ġmerged":9353,"Ġdepending":9354,"Ġ09":9355,"Ġbehalf":9356,"Ġsoftware":9357,"Ġpitched":9358,"ĠFriday":9359,"rations":9360,"Ġfighters":9361,"eland":9362,"ĠAR":9363,"Ġlips":9364,"Ġplatinum":9365,"Ġlots":9366,"ĠGrey":9367,"ĠNik":9368,"Ġbases":9369,"ĠLat":9370,"Ġconcur":9371,"orer":9372,"arth":9373,"Ġfinals":9374,"ĠLith":9375,"Ġfactory":9376,"ĠRAAF":9377,"isd":9378,"master":9379,"Ġforcing":9380,"ĠHann":9381,"Ġprog":9382,"ancell":9383,"ĠGiants":9384,"acles":9385,"ĠPas":9386,"Ġattitude":9387,"Ġflows":9388,"Ġconvoy":9389,"bu":9390,"Ġadvoc":9391,"Amer":9392,"anium":9393,"Ġnegotiations":9394,"ĠBuddh":9395,"iary":9396,"ĠNar":9397,"Ġalleg":9398,"ĠDenmark":9399,"adi":9400,"Ġsav":9401,"ĠUl":9402,"Ġcondem":9403,"Ġinsects":9404,"Ġoption":9405,"atched":9406,"Ġinstru":9407,"Ġprepare":9408,"ĠIce":9409,"ateur":9410,"ĠAdminist":9411,"ĠExt":9412,"munition":9413,"ulating":9414,"ĠVietnamese":9415,"Ġmulti":9416,"ĠTerrit":9417,"Ġagricultural":9418,"odox":9419,"Ġdistant":9420,"Ġhelps":9421,"Ġpublicly":9422,"Ġwreck":9423,"Ġhelicop":9424,"Ġintercept":9425,"Ġmainstream":9426,"Ġarrive":9427,"Ġbattleship":9428,"Ġtelephone":9429,"Ġeliminated":9430,"Ġpace":9431,"omething":9432,"net":9433,"ĠPlayer":9434,"forced":9435,"cules":9436,"Ġlovely":9437,"Ġdestro":9438,"ĠBible":9439,"CC":9440,"Ġtale":9441,"Ġcock":9442,"Ġcriticised":9443,"Ġexplosion":9444,"Ġdistinguished":9445,"28":9446,"ĠBarry":9447,"mo":9448,"Ġcruisers":9449,"Ġadopt":9450,"Ġthunder":9451,"oped":9452,"ĠInitially":9453,"ĠMack":9454,"ĠPortuguese":9455,"Ġworry":9456,"Ġinvent":9457,"Ġdisappeared":9458,"Ġartistic":9459,"Ġhydro":9460,"Ġphenomen":9461,"ĠCow":9462,"ĠCob":9463,"Ġstuck":9464,"Ġhonest":9465,"Ġmultipl":9466,"irates":9467,"ĠUSD":9468,"Ġcream":9469,"bishop":9470,"Ġnut":9471,"umble":9472,"Ġbreast":9473,"Ġcelebrated":9474,"Ġupgraded":9475,"Ġfate":9476,"ĠUEFA":9477,"Ġceased":9478,"Ġproof":9479,"Ġdiscip":9480,"Ġinsisted":9481,"Ġschedule":9482,"Ġsuspended":9483,"Ġresidence":9484,"Ġsung":9485,"ĠDragon":9486,"ĠSeven":9487,"Ġelectron":9488,"Ġpractical":9489,"Ġcoordin":9490,"ĠTele":9491,"ouch":9492,"ĠAy":9493,"Ġflights":9494,"lad":9495,"Ġnobody":9496,"ĠPin":9497,"Ġsynd":9498,"Ġbigger":9499,"Ġdollar":9500,"ĠSid":9501,"Ġgift":9502,"Ġguide":9503,"ĠWarren":9504,"Ġinstitutions":9505,"Ġreviewers":9506,"Ġ08":9507,"ĠDonald":9508,"storm":9509,"Ġovers":9510,"Ġinnov":9511,"Ġperfectly":9512,"Ġarriving":9513,"Ġbitter":9514,"Ġlock":9515,"Ġjudg":9516,"Ġhull":9517,"Ġdozen":9518,"35":9519,"ĠEvent":9520,"Ġordinary":9521,"bes":9522,"Ġregistered":9523,"ĠTel":9524,"anche":9525,"Ġinstrumental":9526,"uces":9527,"ĠSym":9528,"Å«":9529,"Ġlean":9530,"ĠRepresentatives":9531,"ĠInternet":9532,"Right":9533,"avery":9534,"Ġammunition":9535,"ĠBlues":9536,"Ġwal":9537,"29":9538,"itals":9539,"ĠRachel":9540,"Ġski":9541,"TA":9542,"child":9543,"ĠNov":9544,"Ġgenetic":9545,"Ġadjacent":9546,"ĠWes":9547,"Ġsecretary":9548,"inding":9549,"ĠAfghan":9550,"Ġ1880":9551,"Ġhast":9552,"former":9553,"Ġfinale":9554,"Ġsurge":9555,"km":9556,"spe":9557,"Ġ1906":9558,"Ġprofession":9559,"Ġtongue":9560,"ĠStevens":9561,"Ġlayer":9562,"Ġpowered":9563,"rov":9564,"ĠSteven":9565,"ĠMountains":9566,"ĠThose":9567,"Ġprompted":9568,"Bec":9569,"olen":9570,"Ġ1870":9571,"ustration":9572,"OC":9573,"orf":9574,"eton":9575,"Ġfriendship":9576,"Ġaside":9577,"ĠChron":9578,"ĠRights":9579,"Ġtex":9580,"ĠAthe":9581,"Ġaren":9582,"Ġoverw":9583,"Ġtrick":9584,"ensions":9585,"Ġsituated":9586,"Ġconservative":9587,"asked":9588,"ĠPortland":9589,"pha":9590,"assador":9591,"Ġexercise":9592,"ĠCost":9593,"Ġradar":9594,"uations":9595,"ĠNear":9596,"Ġcolonies":9597,"ruption":9598,"igs":9599,"ĠGraham":9600,"ĠGray":9601,"ĠPictures":9602,"uj":9603,"Ġtiny":9604,"abad":9605,"Ġswitch":9606,"Ġprisoner":9607,"Ġinstitution":9608,"Ġabund":9609,"Will":9610,"ĠPed":9611,"ĠOliver":9612,"Ġpreparation":9613,"Ġknowing":9614,"zo":9615,"Ġbypass":9616,"ĠPhoen":9617,"ĠRing":9618,"Ġguitarist":9619,"Ġessential":9620,"nor":9621,"ĠChile":9622,"Ġweb":9623,"Ġreluct":9624,"Ġalliance":9625,"Ġcircuit":9626,"ashes":9627,"Ġhabitat":9628,"ĠGuardian":9629,"uary":9630,"Ġpercentage":9631,"Ġcards":9632,"Ġranks":9633,"two":9634,"Ġcoun":9635,"Ġbombers":9636,"ĠJoy":9637,"Ġevolved":9638,"Ġlifted":9639,"ĠBuilding":9640,"Ġshear":9641,"Ġoverl":9642,"Ġseverely":9643,"Ġsentence":9644,"ĠMitchell":9645,"Ġrit":9646,"Ġcredits":9647,"iph":9648,"Ġartific":9649,"ĠFlight":9650,"pat":9651,"Ġsending":9652,"Ġvictories":9653,"Ġtag":9654,"Ġ105":9655,"ĠLeslie":9656,"Ġpatterns":9657,"Ġmud":9658,"terday":9659,"ĠEc":9660,"Ġweaken":9661,"uy":9662,"Ġabilities":9663,"ĠLiz":9664,"Ġanybody":9665,"imm":9666,"Ġagency":9667,"fr":9668,"Ġimperial":9669,"Ġdefeating":9670,"ĠArgentina":9671,"ĠRub":9672,"Ġassisted":9673,"Ġunh":9674,"ĠBeng":9675,"Ġsubd":9676,"Ġsmart":9677,"ĠShaw":9678,"raction":9679,"ĠAtlanta":9680,"ĠTrek":9681,"Ġfiled":9682,"Ġdecides":9683,"Ġaimed":9684,"Ġbrilliant":9685,"ĠSmall":9686,"45":9687,"ĠChand":9688,"Ġscar":9689,"otions":9690,"estone":9691,"Ġsomewhere":9692,"inental":9693,"Ġbid":9694,"Ġboundary":9695,"Ġdensity":9696,"Ġgodd":9697,"Ġmeetings":9698,"Ġturrets":9699,"ĠConfederate":9700,"Ġcyl":9701,"ĠNon":9702,"Ġsigning":9703,"rin":9704,"Ġclin":9705,"Ġimpression":9706,"Ġpilots":9707,"Ġ(;":9708,"Ġshirt":9709,"ĠKurt":9710,"Ġconfidence":9711,"Ġbehaviour":9712,"Ġreaches":9713,"ĠFinland":9714,"TS":9715,"Ġvisiting":9716,"ĠMond":9717,"ighed":9718,"Because":9719,"iper":9720,"Ã©n":9721,"Ã©s":9722,"elia":9723,"Ġengagement":9724,"Ġcontrols":9725,"Ġbearing":9726,"Ġhandle":9727,"Ġwake":9728,"Ġprotagonist":9729,"Ġgrandfather":9730,"Ġgap":9731,"Ġexha":9732,"ĠTag":9733,"axy":9734,"ĠApp":9735,"ĠPitts":9736,"ĠAld":9737,"Ġvoy":9738,"Ġgentleman":9739,"chi":9740,"Ġsubmitted":9741,"fly":9742,"Ġblank":9743,"ĠAustralians":9744,"ĠArnold":9745,"Ġrepr":9746,"urse":9747,"ĠHugh":9748,"Ġprotein":9749,"Ġ1904":9750,"ĠJosh":9751,"Ġda":9752,"Ġstress":9753,"ĠLang":9754,"talions":9755,"ĠVII":9756,"arted":9757,"bled":9758,"Ġasleep":9759,"lock":9760,"Ġain":9761,"Ġempire":9762,"cribed":9763,"yler":9764,",'":9765,"Ġmistake":9766,"imeter":9767,"ouses":9768,"ĠFIFA":9769,"Ġmood":9770,"ĠAli":9771,"ĠHero":9772,"ĠVis":9773,"Ġcopper":9774,"does":9775,"keeper":9776,"ĠJuan":9777,"Ġsurvivors":9778,"ĠNa":9779,"Ġrecip":9780,"Ġwider":9781,"Ġknocked":9782,"ĠFem":9783,"Ġsilly":9784,"Ġhate":9785,"ĠXX":9786,"ĠTommy":9787,"Ġmobile":9788,"aration":9789,"ĠABC":9790,"ĠCra":9791,"Ġleaf":9792,"ĠHarv":9793,"Ġdestroyers":9794,"ĠLucas":9795,"cha":9796,"Ġminimal":9797,"ĠAbd":9798,"tes":9799,"onymous":9800,"nik":9801,"ione":9802,"Ġelectricity":9803,"occ":9804,"Ġiniti":9805,"Ġacceler":9806,"Ġrebuilt":9807,"olid":9808,"Ġreco":9809,"Ġupset":9810,"Ġscattered":9811,"Ġtack":9812,"Ġdiscussion":9813,"Ġtheater":9814,"Ġreplacing":9815,"Ġ360":9816,"Ġnerv":9817,"Ġbacking":9818,"Ġplanets":9819,"Club":9820,"ĠBroadway":9821,"ĠIndustry":9822,"Ġforgotten":9823,"uri":9824,"Ġwhilst":9825,"Ġphrase":9826,"onscious":9827,"idal":9828,"ĠPruss":9829,"ĠBorn":9830,"ĠSony":9831,"Ġtrend":9832,"inces":9833,"Ġdefinition":9834,"ĠKirk":9835,"Ġmanage":9836,"Ġ125":9837,"ĠBeth":9838,"ĠIndependent":9839,"your":9840,"stairs":9841,"Ġwo":9842,"ĠMaine":9843,"ĠBach":9844,"ĠÃĨ":9845,"Ġsolar":9846,"ĠPeters":9847,"utter":9848,"ĠChristianity":9849,"Ġpoorly":9850,"Ġexhibition":9851,"Get":9852,"OW":9853,"mad":9854,"Ġdebt":9855,"nal":9856,"Ġapproaching":9857,"Gr":9858,"hum":9859,"Ġdecisions":9860,"ĠJustin":9861,"Ġcancelled":9862,"lings":9863,"ĠIN":9864,"apolis":9865,"Ġjunction":9866,"Ġweigh":9867,"onsin":9868,"ĠSwiss":9869,"Ġpor":9870,"ĠSom":9871,"ĠMik":9872,"Ġexit":9873,"Ġaudiences":9874,"gie":9875,"Ġhungry":9876,"mingham":9877,"ĠHey":9878,"Ġerupt":9879,"ĠVik":9880,"Ġmac":9881,"eu":9882,"ĠRy":9883,"grad":9884,"ĠPerry":9885,"ĠInterstate":9886,"ĠTol":9887,"ĠPa":9888,"ĠRal":9889,"Ġsector":9890,"Ġcub":9891,"Ġperceived":9892,"Ġresol":9893,"Ġchampions":9894,"Ġunw":9895,"ĠDelaware":9896,"asp":9897,"Ġprospect":9898,"ĠMayor":9899,"ĠDigital":9900,"ĠFerr":9901,"mented":9902,"Ġsuspect":9903,"ĠTurkey":9904,"Ġtemporarily":9905,"Ġshock":9906,"Ġfastest":9907,"Ġattendance":9908,"Ġsatellite":9909,"ugs":9910,"ĠRecord":9911,"ashi":9912,"Ġexplains":9913,"Ġhouseholds":9914,"Ġcomparison":9915,"Ġbond":9916,"ĠSullivan":9917,"ista":9918,"arks":9919,"icing":9920,"Ġdirectors":9921,"Ġthinks":9922,"Ġcod":9923,"Ġpredict":9924,"Ġbishop":9925,"rik":9926,"ected":9927,"ĠSpir":9928,"ĠProgram":9929,"Ġskill":9930,"hol":9931,"Ġmail":9932,"Ġtalks":9933,"Ġmainland":9934,"ĠClar":9935,"cott":9936,"Ġpole":9937,"isconsin":9938,"Ġrecre":9939,"Ġorganisation":9940,"Ġswing":9941,"iffer":9942,"ĠAlaska":9943,"point":9944,"Ġghost":9945,"Ġprovinces":9946,"Ġobst":9947,"Ġdrunk":9948,"Ġexecution":9949,"Ġwoods":9950,"Ġtargets":9951,"Ġbulk":9952,"were":9953,"ĠAbb":9954,"ĠCarr":9955,"issions":9956,"orge":9957,"found":9958,"ĠAirl":9959,"Ġbrick":9960,"Ġdesignation":9961,"Ġruling":9962,"ĠÐ":9963,"amas":9964,"Ġlistening":9965,"Ġ1901":9966,"ĠDw":9967,"Ġstead":9968,"Ġcollaboration":9969,"From":9970,"SA":9971,"ĠML":9972,"ĠSi":9973,"Ġ05":9974,"Ġ1903":9975,"Ġfisher":9976,"ĠBaseball":9977,"acre":9978,"Ġvirus":9979,"oria":9980,"Ġraising":9981,"Ġfavorable":9982,"ĠAthlet":9983,"ĠOd":9984,"lease":9985,"ĠMand":9986,"Ġpatients":9987,"ĠBaby":9988,"Ġcompounds":9989,"asia":9990,"Ġstom":9991,"Ġstorage":9992,"Ġeaten":9993,"ĠNAS":9994,"ethe":9995,"Ġlem":9996,"oker":9997,"ĠAny":9998,"Ġdemands":9999,"Ġprofit":10000,"Ġmarch":10001,"Ġdominant":10002,"ĠBelgian":10003,"ĠDanny":10004,"ĠGirls":10005,"Ġpanel":10006,"Ġpleasant":10007,"allas":10008,"Ġholiday":10009,"mund":10010,"Ġdrown":10011,"Ġforb":10012,"Ġshorter":10013,"Ġeducational":10014,"Ġlunch":10015,"Ġexclud":10016,"Ġgotta":10017,"ĠMonte":10018,"ĠFif":10019,"illes":10020,"Ġfeeding":10021,"Ġvaluable":10022,"Ġdynam":10023,"Uh":10024,"Ġbeating":10025,"Ġmining":10026,"Ġhem":10027,"Ġarmies":10028,"Ġles":10029,"Ġconsole":10030,"Ġreaders":10031,"ĠWisconsin":10032,"Ġ1902":10033,"Ġperspective":10034,"ĠBusiness":10035,"Ġrepairs":10036,"Ġtox":10037,"estyle":10038,"ouver":10039,"ĠSem":10040,"ĠEdwards":10041,"ĠAmb":10042,"Ġtalent":10043,"Ġwrestling":10044,"isons":10045,"Ġpunk":10046,"Ġdiscont":10047,"Ġrequires":10048,"Ġlung":10049,"ĠBobby":10050,"ĠObama":10051,"Ã«":10052,"Ġdimens":10053,"Ġprev":10054,"ĠComb":10055,"Ġbatter":10056,"Ġpatron":10057,"ĠPerform":10058,"iffs":10059,"Ġcontributions":10060,"ĠNixon":10061,"Ġsplend":10062,"Ġfantasy":10063,"Ġinland":10064,"Ġdarkness":10065,"ĠWilhelm":10066,"Ġwaited":10067,"ĠHampshire":10068,"Ġfasc":10069,"ĠIndies":10070,"ĠTon":10071,"Ġdeeply":10072,"ĠMurphy":10073,"pa":10074,"Ġjury":10075,"Ġmigr":10076,"Ġassists":10077,"rolled":10078,"Ġafford":10079,"ĠAbbey":10080,"ĠHistoric":10081,"Ġpermitted":10082,"ylan":10083,"imen":10084,"Ġpractices":10085,"Ġintensified":10086,"ĠBaker":10087,"Ġassess":10088,"Ġcompilation":10089,"some":10090,"ĠForeign":10091,"ĠProtest":10092,"ioc":10093,"zes":10094,"unny":10095,"ĠLib":10096,"ĠBirmingham":10097,"lain":10098,"Ġstruggled":10099,"Ġ165":10100,"Ġspotted":10101,"Ġtranslated":10102,"ĠPil":10103,"Ġknee":10104,"Ġcaps":10105,"ĠConstruction":10106,"onian":10107,"angel":10108,"lete":10109,"Ġfewer":10110,"Ġvertical":10111,"Ġslavery":10112,"Ġlacked":10113,"Ġretail":10114,"Ġguar":10115,"Ġopportun":10116,"Ġtube":10117,"Ġcir":10118,"Ġcompanion":10119,"ĠInn":10120,"ĠBoe":10121,"ĠUnt":10122,"Ġtruly":10123,"ĠProte":10124,"Ġearthquake":10125,"Ġlion":10126,"ĠBes":10127,"ĠDest":10128,"Ġcoinc":10129,"Ġbombs":10130,"tar":10131,"Ġcontext":10132,"Ġdevices":10133,"alling":10134,"abet":10135,"Ġyours":10136,"Com":10137,"LC":10138,"Ġjew":10139,"Ġcattle":10140,"Ġappropriate":10141,"azines":10142,"Ġpersonally":10143,"ĠHeritage":10144,"ds":10145,"Ġstops":10146,"ĠStat":10147,"Ġearning":10148,"Ġencl":10149,"Ġexpert":10150,"Ġcivilian":10151,"ĠUniversal":10152,"Ġticket":10153,"ĠHold":10154,"oves":10155,"asa":10156,"Ġcrack":10157,"ardon":10158,"feld":10159,"Ġsleeping":10160,"ĠGriff":10161,"LE":10162,"Ġfounding":10163,"ĠJonathan":10164,"Ġathletes":10165,"Ġborrow":10166,"Ġvic":10167,"Ġfourteen":10168,"Ġownership":10169,"Ġcontinu":10170,"Ġsurrend":10171,"ĠHonor":10172,"Ġthorough":10173,"ĠBoys":10174,"ĠEdge":10175,"Ġalignment":10176,"Ġwarri":10177,"Ġlikes":10178,"Ġbegg":10179,"Ġdrift":10180,"ĠHudson":10181,"Ġusers":10182,"Ġpredomin":10183,"Ġsuggesting":10184,"Ġmouse":10185,"Ġlimits":10186,"Ġbowl":10187,"Ġdwarf":10188,"ĠSay":10189,"Ġnit":10190,"ĠWag":10191,"ĠJess":10192,"Ġdreams":10193,"Ġhydrogen":10194,"than":10195,"held":10196,"Ġciting":10197,"ĠNature":10198,"Ġsacrif":10199,"uart":10200,"Ġallies":10201,"Ġvictim":10202,"Ġangle":10203,"inals":10204,"Ġtooth":10205,"ĠChel":10206,"Ġ07":10207,"Ġcharacterized":10208,"ĠHarvey":10209,"ĠFinally":10210,"Ġproceeded":10211,"Ġdrivers":10212,"ĠCritics":10213,"uating":10214,"Ġfairy":10215,"ĠWayne":10216,"ĠNapoleon":10217,"Ġvulner":10218,"Ġtender":10219,"Ġcomfortable":10220,"igenous":10221,"Ġthirteen":10222,"upiter":10223,"folk":10224,"Ġdesper":10225,"Ġruler":10226,"ĠPerson":10227,"eps":10228,"Ġguests":10229,"Ġtribe":10230,"Ġlandscape":10231,"Ġsequences":10232,".]":10233,"Ġincreases":10234,"Ġdisl":10235,"itis":10236,"ĠFat":10237,"Ġstudying":10238,"Ġsettlers":10239,"Ġconcentration":10240,"ĠGene":10241,"ĠStill":10242,"ĠPars":10243,"--\"":10244,"Ġbears":10245,"ĠOri":10246,"avor":10247,"onne":10248,"atis":10249,"year":10250,"Ġfulf":10251,"ĠChampions":10252,"ĠYe":10253,"Ġmonster":10254,"Ġdistinctive":10255,"ĠPow":10256,"Ġtravels":10257,"ĠDyn":10258,"ancouver":10259,"graph":10260,"Ġautumn":10261,"fortun":10262,"iden":10263,"ĠGoth":10264,"Ġpretend":10265,"Early":10266,"ËĪ":10267,"Ġcant":10268,"Ġdict":10269,"Ġcompleting":10270,"Ġtouring":10271,"Ġcleared":10272,"ĠUpper":10273,"Ġhiding":10274,"ĠLas":10275,"Ġexceed":10276,"Ġelectrical":10277,"vet":10278,"Fr":10279,"Ġrevers":10280,"Ġrestoration":10281,"ean":10282,"37":10283,"ĠGuide":10284,"Ġfossil":10285,"Ġgoddess":10286,"Ã¥":10287,"lection":10288,"Ġsongwriter":10289,"Ġexcav":10290,"Ġchapel":10291,"Ġrestricted":10292,"venth":10293,"Ġfrig":10294,"ĠRico":10295,"Ġchronic":10296,"ĠEmmy":10297,"Ġriders":10298,"Ġsubspecies":10299,"Ġlegislature":10300,"Ġwealthy":10301,"uctions":10302,"ĠBeaut":10303,"Ġlon":10304,"uto":10305,"ĠLen":10306,"Ġoperational":10307,"Ġthroat":10308,"Ġ01":10309,"Ġbelieving":10310,"ĠSoul":10311,"Ġgovernments":10312,"Ġlift":10313,"Ġcoverage":10314,"Ġautob":10315,"ascar":10316,"door":10317,"Ġanywhere":10318,"Ġloop":10319,"Ġrepeatedly":10320,"aping":10321,"upid":10322,"Ġqualified":10323,"ĠLloyd":10324,"Ġshook":10325,"Ġshift":10326,"sequently":10327,"ĠAqu":10328,"Ġsixteen":10329,"Ġranging":10330,"ĠRat":10331,"ĠKam":10332,"Ġtrunk":10333,"ĠTodd":10334,"ĠMans":10335,"Ġrings":10336,"ĠDepression":10337,"ifies":10338,"ĠIsa":10339,"ibilities":10340,"Ġidentify":10341,"Ġages":10342,"ĠSpart":10343,"itudes":10344,"Ġtriumph":10345,"ĠWorks":10346,"Ġstrongest":10347,"ayan":10348,"Ġfeared":10349,"Ġcourage":10350,"Ġequally":10351,"Ġpredicted":10352,"ĠSig":10353,"Ġprinciple":10354,"Ġliberal":10355,"ĠBron":10356,"Ġinstant":10357,"Ġmilitia":10358,"Ġtomb":10359,"owing":10360,"artney":10361,"ĠVancouver":10362,"Ġattained":10363,"roph":10364,"ĠConvention":10365,"Ġheading":10366,"ĠAS":10367,"ando":10368,"Ġarmour":10369,"Ġeager":10370,"Ġcrimes":10371,"Ġconsidering":10372,"Ġprinciples":10373,"Ġbarr":10374,"uf":10375,"Ġretain":10376,"Ġcrews":10377,"ĠPrix":10378,"38":10379,"ĠCatherine":10380,"abe":10381,"ĠChampion":10382,"Ġradiation":10383,"Ġloose":10384,"bach":10385,"Ġrepubl":10386,"Ġdemonstrated":10387,"iture":10388,"strong":10389,"ĠPhoenix":10390,"Ġgust":10391,"Ġshipping":10392,"Ġexcited":10393,"Ġcompliment":10394,"ĠDylan":10395,"des":10396,"Ġpier":10397,"Ġsteep":10398,"Ġargues":10399,"ĠKeith":10400,"ĠFarm":10401,"These":10402,"Ġremind":10403,"annon":10404,"CHAPTER":10405,"ĠSoph":10406,"Ġspell":10407,"azed":10408,"Ġcrest":10409,"36":10410,"39":10411,"osy":10412,"Ġmush":10413,"Ġdelivery":10414,"Ġpropag":10415,"Ġpursue":10416,"ĠAM":10417,"ĠHad":10418,"Ġeld":10419,"unning":10420,"Ġmerc":10421,"cut":10422,"Î±":10423,"âĻª":10424,"ĠMcM":10425,"ĠGary":10426,"Ġexists":10427,"Ġtriple":10428,"Ã¶n":10429,"Ġtaxes":10430,"osaurs":10431,"earing":10432,"ĠCommunist":10433,"Ġremnants":10434,"Ġaltered":10435,"Ġanyway":10436,"Ġheaven":10437,"should":10438,"Ġtouched":10439,"law":10440,"star":10441,"ĠYorks":10442,"Ġcannon":10443,"Ġstrengthened":10444,"OL":10445,"Ġfart":10446,"ollo":10447,"Ġclouds":10448,"THE":10449,"Ġaccum":10450,"Ġsubsid":10451,"Ġune":10452,"Ġemotion":10453,"racted":10454,"Ġmagazines":10455,"Ġconven":10456,"Ġaccord":10457,"Ġassembly":10458,"Ġbowling":10459,"Ġsupplied":10460,"Ġabroad":10461,"ĠEdin":10462,"Ġpredecessor":10463,"Ġtools":10464,"ĠLess":10465,"iped":10466,"Ġspaces":10467,"Per":10468,"Ġ164":10469,"Ġdescent":10470,"Ġcompens":10471,"ĠCass":10472,"Ġbacked":10473,"ĠAllies":10474,"Ġhosts":10475,"orted":10476,"icking":10477,"Ġfeathers":10478,"Ġoriginated":10479,"ĠNext":10480,"£o":10481,"Ġbombing":10482,"ĠPotter":10483,"Ġwicket":10484,"Ġly":10485,"Ġ115":10486,"Ġquarterback":10487,"ĠEventually":10488,"ĠRalph":10489,"ĠRidge":10490,"Ġmere":10491,"ĠJupiter":10492,"Ġwestward":10493,"ĠBernard":10494,"Ġcancel":10495,"Ġobsc":10496,"Ġcabinet":10497,"ĠYorkshire":10498,"ummy":10499,"Ġlabour":10500,"rison":10501,"Ġheir":10502,"Ġrice":10503,"ĠGlen":10504,"Ġstern":10505,"ĠTob":10506,"rific":10507,"elta":10508,"Ġtranslation":10509,"ĠScout":10510,"Donald":10511,"ĠHalo":10512,"Ġunexpected":10513,"Ġmechanical":10514,"Ġhanging":10515,"Ġplayoffs":10516,"Ġcamps":10517,"itively":10518,"Ġrevenue":10519,"illo":10520,"Ġvig":10521,"ĠKon":10522,"Ġcompound":10523,"Ġdisorder":10524,"uits":10525,"uin":10526,"Ġtheore":10527,"Ġexternal":10528,"lesh":10529,"ĠAT":10530,"encer":10531,"Mm":10532,"Ġvisits":10533,"Ġorganised":10534,"Ġconspir":10535,"Ġmonaster":10536,"Ġvolumes":10537,"ĠAirlines":10538,"ĠHur":10539,"ĠList":10540,"Ġradical":10541,"ĠMicrosoft":10542,"rency":10543,"Ġcrops":10544,"Ġfee":10545,"Ġnorthward":10546,"ĠLiberal":10547,"ĠOriginally":10548,"Ab":10549,"Ġ168":10550,"Ġbasin":10551,"ĠCurt":10552,"mom":10553,"ieth":10554,"ĠGrace":10555,"Ġhorizon":10556,"Ġsimultaneously":10557,"ĠCov":10558,"istle":10559,"gom":10560,"Ġcasting":10561,"Ġelevation":10562,"Ġartificial":10563,"Ġpublishing":10564,"Ġfox":10565,"Ġquestioned":10566,"ĠCH":10567,"Ġcreatures":10568,"ĠIslamic":10569,"vant":10570,"ĠBrig":10571,"Ġdischar":10572,"Ġcrying":10573,",--":10574,"Ġportions":10575,"ĠBrothers":10576,"ĠMong":10577,"ĠJama":10578,"Ġcarriers":10579,"Ġthrowing":10580,"ĠIndonesia":10581,"Ġerected":10582,"Ad":10583,"andom":10584,"Ġclosest":10585,"Ġarmored":10586,"Ġdevoted":10587,"Ġarrangements":10588,"Ġing":10589,"ĠRailroad":10590,"eling":10591,"ĠWoman":10592,"Ġglac":10593,"TW":10594,"rooms":10595,"ĠBi":10596,"ĠMetropolitan":10597,"iry":10598,"Ġ04":10599,"Ġports":10600,"Ġoverseas":10601,"Ġholes":10602,"ĠRio":10603,"plete":10604,"ĠRangers":10605,"olds":10606,"Ġcharity":10607,"ĠEdinburgh":10608,"Ġprices":10609,"ti":10610,"asks":10611,"Ġbeam":10612,"ĠManu":10613,"anner":10614,"Ġmeter":10615,"Ġfo":10616,"ĠLex":10617,"Ġdisagre":10618,"ĠQuebec":10619,"ĠNeg":10620,"Ġflagship":10621,"Ġscholar":10622,"Ġtomorrow":10623,"ĠWalt":10624,"Ġhitting":10625,"Ġobjective":10626,"want":10627,"uters":10628,"ĠIsraeli":10629,"ĠNad":10630,"Ġimmigr":10631,"cell":10632,"Ġluck":10633,"shore":10634,"Ġtrading":10635,"Ġalternate":10636,"ĠHawaii":10637,"hears":10638,"Ġdawn":10639,"Ġsuffer":10640,"Ġhoping":10641,"Ġjurisd":10642,"New":10643,"Ġcash":10644,"ĠFil":10645,"Ġaggreg":10646,"Ġengage":10647,"Ġweekly":10648,"Ġabuse":10649,"oca":10650,"Ġrelatives":10651,"Ġlover":10652,"uber":10653,"ĠBox":10654,"Ġidentical":10655,"ĠSet":10656,"Ġhumor":10657,"ĠKate":10658,"Ġrebellion":10659,"Ġproperly":10660,"cru":10661,"ĠShip":10662,"ĠGa":10663,"Ġflour":10664,"Ġtraded":10665,"Ġnervous":10666,"atical":10667,"ĠDiam":10668,"Ġpartial":10669,"ĠMadag":10670,"Ġfond":10671,"Ġtract":10672,"hyl":10673,"Ġbarrel":10674,"ĠCraig":10675,"raine":10676,"ĠDid":10677,"ĠDaw":10678,"aching":10679,"Ġexperiments":10680,"scar":10681,"ÃŃa":10682,"Ġmaneu":10683,"ĠChristians":10684,"Ġtested":10685,"Ġprogramming":10686,"90":10687,"Ġfundament":10688,"ĠCameron":10689,"erness":10690,"ĠMedical":10691,"ĠNi":10692,"Ġplacing":10693,"ĠShep":10694,"Ġpenet":10695,"Ġbeaten":10696,"ĠDS":10697,"Ġnep":10698,"Ġmillimet":10699,"Ġprovision":10700,"ĠAntonio":10701,"Ġgif":10702,"Ġsurpass":10703,"ĠUncle":10704,"Ġaddressed":10705,"Ġcharacteristic":10706,"ĠMagn":10707,"through":10708,"ĠCommunity":10709,"ĠTit":10710,"ĠLost":10711,"iah":10712,"Ġsimilarly":10713,"Ġannouncement":10714,"ĠTH":10715,"Ġacknowledged":10716,"ĠMarvel":10717,"alymp":10718,"ĠDefence":10719,"Ġstolen":10720,"Ġspo":10721,"Ġmarkets":10722,"Ġwrap":10723,"Ġhopes":10724,"ĠVillage":10725,"Ġbore":10726,"ĠDale":10727,"ologies":10728,"aders":10729,"Ġjoke":10730,"Ġmemor":10731,"ĠPlayers":10732,"rehens":10733,"Ġnavy":10734,"Ġgender":10735,"ĠBath":10736,"Ġclever":10737,"ĠPearl":10738,"Ġ1896":10739,"Ġhypothes":10740,"iciency":10741,"Ġbanned":10742,"ĠGra":10743,"Ġrode":10744,"ĠCanter":10745,"Ġconfron":10746,"Ġnaturally":10747,"Ġcollapsed":10748,"American":10749,"ĠNine":10750,"ungle":10751,"iko":10752,"Ġ1860":10753,"Ã©t":10754,"Ġphysics":10755,"ĠArkansas":10756,"ĠDanish":10757,"Ġcrazy":10758,"Ġbold":10759,"Ġhind":10760,"Ġshoulders":10761,"ĠChair":10762,"ulty":10763,"ects":10764,"ĠBomb":10765,"haw":10766,"ĠDisc":10767,"Ġmarketing":10768,"ĠTurner":10769,"ĠPink":10770,"ĠGot":10771,"Ġseas":10772,"Ġabsolutely":10773,"Ġconfusion":10774,"Ġdefending":10775,"Ġremoval":10776,"ĠHarvard":10777,"ĠAndre":10778,"ĠIvan":10779,"ĠNicholas":10780,"rast":10781,"Ġconcerning":10782,"ĠPittsburgh":10783,"sl":10784,"ĠJun":10785,"Ġsupple":10786,"Ġvaried":10787,"Ġmini":10788,"Pro":10789,"gon":10790,"ĠProm":10791,"Ġcruc":10792,"ĠJefferson":10793,"itate":10794,"ĠParalymp":10795,"Ġfed":10796,"hers":10797,"castle":10798,"Ġbottle":10799,"Ġfest":10800,"ĠPortugal":10801,"Ġrushed":10802,"ĠGate":10803,"ĠPolit":10804,"Pe":10805,"Ġpairs":10806,"Ġtoys":10807,"Ġstepped":10808,"Ġbye":10809,"Ġenlisted":10810,"ĠMalaysia":10811,"ienna":10812,"Ġjuice":10813,"ĠQueensland":10814,"mont":10815,"ĠTake":10816,"amount":10817,"Ġstroke":10818,"Ġcarries":10819,"34":10820,"AM":10821,"Ġaggressive":10822,"Ġfrequency":10823,"thodox":10824,"ĠOrange":10825,"Ġaudition":10826,"Ġarmament":10827,"Ġexposure":10828,"reated":10829,"itched":10830,"aja":10831,"Ġlegit":10832,"Ġflee":10833,"ĠMust":10834,"ĠNeb":10835,"ĠYears":10836,"about":10837,"kh":10838,"ĠEmer":10839,"Ġrelation":10840,"Ġdecay":10841,"ĠCentury":10842,"ĠOfficer":10843,"Ġobservations":10844,"DS":10845,"ĠDin":10846,"Ġinterpretation":10847,"Ġoverwhel":10848,"Ġswept":10849,"ĠDemocrats":10850,"Ġconstitu":10851,"Ġforgot":10852,"enson":10853,"olition":10854,"ĠGh":10855,"ags":10856,"seud":10857,"ĠYet":10858,"Ġ155":10859,"ĠJoan":10860,"iolet":10861,"Ġcorps":10862,"writing":10863,"ĠYam":10864,"arling":10865,"Ġtraveling":10866,"Ġfires":10867,"ĠRud":10868,"Ġprovincial":10869,"oviÄĩ":10870,"Ġindicates":10871,"Ġbrig":10872,"Ġcolleagues":10873,"ĠMadagascar":10874,"Ġgre":10875,"Ġanger":10876,"ĠSultan":10877,"Ġscen":10878,"Ġparks":10879,"Ġerror":10880,"Ġta":10881,"Ġsailing":10882,"ensed":10883,"Ġemployment":10884,"List":10885,"Ġmild":10886,"ĠHaz":10887,"ĠRih":10888,"ĠKan":10889,"ĠSecurity":10890,"Ãª":10891,"ĠChuck":10892,"ĠTracy":10893,"endar":10894,"Ġadvertising":10895,"ĠKap":10896,"ovak":10897,"ported":10898,"||||":10899,"Ġrepresentatives":10900,"Ġattending":10901,"Ġoutput":10902,"Ġspecimen":10903,"Ġ109":10904,"Ġbiographer":10905,"ĠCollins":10906,"ĠBour":10907,"Ġembr":10908,"Ġbattalions":10909,"Ġ1893":10910,"Ġlanes":10911,"class":10912,"Ġtyphoon":10913,"Ġdemolished":10914,"Ġquarters":10915,"ĠCanterbury":10916,"Ġtherap":10917,"ĠEnt":10918,"Ġcolored":10919,"ambers":10920,"ĠRegion":10921,"Ġcartoon":10922,"ellation":10923,"Ġresolved":10924,"ĠFlore":10925,"affe":10926,"Ġtheatrical":10927,"ĠBosn":10928,"Ġphotographs":10929,"ĠDakota":10930,"Ġanime":10931,"geant":10932,"Ġsuccession":10933,"owski":10934,"Ġranges":10935,"Ġfame":10936,"season":10937,"porting":10938,"Ġreconna":10939,"pine":10940,"Ġate":10941,"ĠYellow":10942,"Ġdiscovers":10943,"Ġattorney":10944,"Ġladies":10945,"ĠDub":10946,"ensively":10947,"Ġmembership":10948,"Ġaerial":10949,"hill":10950,"ĠCelt":10951,"Ġdragon":10952,"Ġtoler":10953,"Ġsovere":10954,"ĠCathedral":10955,"Ġadvised":10956,"Ġmurdered":10957,"Ġassembled":10958,"adier":10959,"Ġstim":10960,"ĠFC":10961,"Ġsatisfact":10962,"ĠRihanna":10963,"Ġtent":10964,"Ġregime":10965,"ĠWii":10966,"Ġballs":10967,"Ġduo":10968,"ĠChes":10969,"oples":10970,"looking":10971,"aters":10972,"ĠTak":10973,"Ġrever":10974,"Ġmanif":10975,"Ġknock":10976,"Ġvoting":10977,"ĠTaiwan":10978,"ĠVe":10979,"Ġextinct":10980,"Ġgirlfriend":10981,"Ġchallenged":10982,"ĠFern":10983,"ĠMorrison":10984,"Ġpeaking":10985,"ĠLegend":10986,"Ġhunt":10987,"Ġcomprom":10988,"Ġacoust":10989,"Ġapple":10990,"Ġconcentrated":10991,"ĠPad":10992,"uche":10993,"Ġprofile":10994,"Ġconnecting":10995,"Ġgardens":10996,"Am":10997,"Ġpip":10998,"Ġamateur":10999,"Ġedited":11000,"ĠCycl":11001,"Ġtubes":11002,"Ġtel":11003,"ĠCad":11004,"ĠEconom":11005,"Ġfollowers":11006,"Ġconstantly":11007,"itarian":11008,"Ġimprovements":11009,"Ġreconnaissance":11010,"Ġreverse":11011,"Ġvs":11012,"Ġbrings":11013,"ĠExec":11014,"wer":11015,"Ġintr":11016,"Ġburial":11017,"ĠWriting":11018,"ĠYankees":11019,"ĠTa":11020,"ĠHob":11021,"ĠRena":11022,"Ġmonitor":11023,"ĠOrchest":11024,"wright":11025,"Ġcam":11026,"Ġenorm":11027,"hammad":11028,"Ġadmin":11029,"Ġ1899":11030,"Ġuniversal":11031,"Ġsample":11032,"ĠNev":11033,"usalem":11034,"Ġcontinuous":11035,"Ġarose":11036,"Ġ1898":11037,"ĠAdministration":11038,"izz":11039,"ĠBetty":11040,"ĠRace":11041,"Ġrenov":11042,"Ġeducated":11043,"ĠFurthermore":11044,"ĠAx":11045,"ĠLem":11046,"Ġcongress":11047,"onde":11048,"Ġpolar":11049,"lessly":11050,"ĠBavaria":11051,"Saint":11052,"ĠSyria":11053,"Ġfortress":11054,"Ġharbour":11055,"ĠReturn":11056,"Ġpossessed":11057,"Ġbreaks":11058,"Ġstrategic":11059,"Ġcad":11060,"Ġsuspected":11061,"Me":11062,"Ġwhale":11063,"ĠClay":11064,"Ġconversion":11065,"ĠNatural":11066,"uez":11067,"Ġtraditions":11068,"Ġmos":11069,"ĠPhys":11070,"ĠEug":11071,"Ġhighways":11072,"Ġreveal":11073,"Ġwitch":11074,"Ġmarine":11075,"Ġindicating":11076,"Ġlaughing":11077,"aco":11078,"Ġshares":11079,"Ġpreparing":11080,"Ġashore":11081,"vi":11082,"ĠIl":11083,"ĠBak":11084,"pression":11085,"chief":11086,"ĠCrow":11087,"Ġexplanation":11088,"Ġatomic":11089,"Ġorigins":11090,"ĠTrophy":11091,"Sc":11092,"bus":11093,"ĠHas":11094,"Ġgrows":11095,"198":11096,"ĠDarwin":11097,"ĠUtah":11098,"ĠMalt":11099,"Ġplates":11100,"ĠGeoff":11101,"ĠAngl":11102,"Ġpurple":11103,"ĠOriginal":11104,"Ġbite":11105,"Ġworried":11106,"ĠGuinea":11107,"Ġutter":11108,"Ġcave":11109,"ĠCBS":11110,"ĠReserve":11111,"onica":11112,"Ġemphasis":11113,"Ġconstitutional":11114,"Ġbonus":11115,"Ġtheories":11116,"ĠDallas":11117,"Ġexter":11118,"iga":11119,"Ġclar":11120,"ĠThr":11121,"Ġaffili":11122,"Ġnominations":11123,"Ġstomach":11124,"MI":11125,"Ġtrem":11126,"Ġkidn":11127,"Ġexclusive":11128,"Ġcable":11129,"ĠLt":11130,"ĠLuke":11131,"Ġcenters":11132,"Ġinvestment":11133,"ĠTan":11134,"Ġchase":11135,"Ġabsent":11136,"Ġmythology":11137,"Ġtexts":11138,"sa":11139,"Ġdealing":11140,"Ġproportion":11141,"ĠPap":11142,"avan":11143,"ĠYouT":11144,"ĠLeonard":11145,"Ġnephew":11146,"Ġkeeps":11147,"La":11148,"Ġgene":11149,"Ġinvented":11150,"Ġbeats":11151,"Ġ350":11152,"Ġprotests":11153,"ĠEnterprise":11154,"ĠHelen":11155,"Ġpap":11156,"Ġstationed":11157,"Ġinvestigate":11158,"ĠWallace":11159,"Ġsurrendered":11160,"Ġaunt":11161,"ĠYeah":11162,"leans":11163,"Ġongoing":11164,"alls":11165,"ĠDec":11166,"Ġtravelling":11167,"ĠMcCartney":11168,"Ġsq":11169,"Ġimprovement":11170,"ĠDrive":11171,"CA":11172,"uctor":11173,"ĠAP":11174,"ĠReagan":11175,"Ġcompeting":11176,"Ġmysterious":11177,"Ġenthusi":11178,"urop":11179,"iche":11180,"ĠBald":11181,"Ġplatforms":11182,"Ġopportunities":11183,"pin":11184,"Ġdefences":11185,"ĠShah":11186,"Ġefficient":11187,"Ġacclaim":11188,"Ġsouthwestern":11189,"ĠFiles":11190,"Ġconfused":11191,"Ġvenue":11192,"ĠVincent":11193,"ums":11194,"eston":11195,"Ġpunishment":11196,"Ġaltitude":11197,"Ġcheese":11198,"ĠOutstanding":11199,"ĠSpirit":11200,"ĠLock":11201,"ĠEve":11202,"Ġcourses":11203,"Ġfortune":11204,"ĠBennett":11205,"ĠLower":11206,"Ġestablishing":11207,"ĠTed":11208,"osexual":11209,"Ġblues":11210,"Ġshelter":11211,"Ġfavourite":11212,"wait":11213,"ĠSak":11214,"Ġstir":11215,"ĠKy":11216,"Ġmature":11217,"Ġdeterior":11218,"Ġsings":11219,"Ġuniversities":11220,"Ġpregnant":11221,"Ġconventional":11222,"igers":11223,"Ġquietly":11224,"Ġartwork":11225,"asha":11226,"Ġborders":11227,"ĠMove":11228,"Ġchicken":11229,"Ġsentenced":11230,"ĠFleming":11231,"ĠNobel":11232,"ĠSout":11233,"ĠPam":11234,"ilda":11235,"ÃŃn":11236,"Ġcomponents":11237,"Ġinitiated":11238,"Ġexperimental":11239,".)":11240,"Ġdonated":11241,"Ġpublications":11242,"ĠBaron":11243,"Ġdestroying":11244,"ĠSometimes":11245,"amma":11246,"ĠVictorian":11247,"Ge":11248,"Ġknife":11249,"Ġgrace":11250,"Ġtopped":11251,"Ġparas":11252,"ĠJerusalem":11253,"cester":11254,"autical":11255,"Ġbelonged":11256,"Ġprecipitation":11257,"ĠTogether":11258,"onge":11259,"Ġprocesses":11260,"Ġflooded":11261,"ĠCharlotte":11262,"ĠHalf":11263,"Ġwritings":11264,"Ġkeen":11265,"Ġaccurate":11266,"Ġ1850":11267,"inks":11268,"Ġeval":11269,"Ġannually":11270,"ĠJohann":11271,"ĠAffairs":11272,"75":11273,"atural":11274,"Ġapply":11275,"Ġdrummer":11276,"oub":11277,"ĠType":11278,"Ġmystery":11279,"Ġwarned":11280,"Ġkills":11281,"Ġtissue":11282,"Ġmelody":11283,"inge":11284,"ĠHardy":11285,"bing":11286,"Ġdirty":11287,"ewise":11288,"cca":11289,"Ġshallow":11290,"Ġuncon":11291,"66":11292,"RO":11293,"Ġtune":11294,"ĠCos":11295,"umps":11296,"Ġreserv":11297,"ĠMunicip":11298,"Ġsignature":11299,"Ġcampaigns":11300,"ĠCricket":11301,"Ġairline":11302,"Ġgraduate":11303,"ĠJudge":11304,"Qu":11305,"ĠThunder":11306,"Ġmedals":11307,"Ġcontribution":11308,"Ġcomponent":11309,"Ġcens":11310,"Ġnurse":11311,"ĠCraw":11312,"Ġevacuated":11313,"ondiss":11314,"Ġopens":11315,"ĠMuhammad":11316,"ancellor":11317,"anim":11318,"Ġtonight":11319,"math":11320,"ĠSweet":11321,"Ġyesterday":11322,"Ġcake":11323,"Ġfailing":11324,"Ġinfection":11325,"Ġstretch":11326,"Ġsake":11327,"Ġpaying":11328,"See":11329,"Ġreducing":11330,"ospel":11331,"nell":11332,"Ġstere":11333,"Ġwise":11334,"ctors":11335,"ĠOwen":11336,"Ġproductions":11337,"Ġrede":11338,"Ġsatisfied":11339,"gomery":11340,"Ġsoph":11341,"ĠGlobe":11342,"Ġjudges":11343,"Ġdissipated":11344,"Ġhappening":11345,"ĠHarold":11346,"Ġminority":11347,"ĠFalls":11348,"Ġtap":11349,"ocation":11350,"ĠPrim":11351,"Ġloves":11352,"Ġmammals":11353,"ĠRic":11354,"Ġquad":11355,"ĠNeil":11356,"US":11357,"Ġ104":11358,"Ġparody":11359,"ĠWithout":11360,"Ġvoyage":11361,"ĠkW":11362,"Ġhandled":11363,"Ġobservation":11364,"ĠTriple":11365,"ĠPast":11366,"ennium":11367,"ĠOrleans":11368,"Ġarrives":11369,"ĠLarry":11370,"ĠJar":11371,"Ġ174":11372,"wind":11373,"ĠMason":11374,"Ġsummit":11375,"Ġshaft":11376,"Ġpride":11377,"ĠStars":11378,"Ġrequirements":11379,"ints":11380,"Ġprel":11381,"ĠYouTube":11382,"rep":11383,"alia":11384,"ĠWonder":11385,"ĠFund":11386,"ĠClare":11387,"Ġexclusively":11388,"atropical":11389,"Ġ1897":11390,"Ġdisappointed":11391,"ĠHom":11392,"ĠPoly":11393,"ĠHeb":11394,"Ã°":11395,"abilities":11396,"Ġscores":11397,"Ġcolours":11398,"Ġparticles":11399,"Ġlighting":11400,"Ġsurvival":11401,"quest":11402,"Ġzero":11403,"ĠBangl":11404,"vo":11405,"Ġ1000":11406,"Ġbutton":11407,"ĠAgency":11408,"Ġlifetime":11409,"Ġphilosopher":11410,"31":11411,"ucker":11412,"Ġtransportation":11413,"Ġdrafted":11414,"ĠBud":11415,"Ġmirror":11416,"Have":11417,"Ġorganisms":11418,"Ġvalid":11419,"ĠGreater":11420,"beat":11421,"Ġlistened":11422,"Ġchemistry":11423,"arson":11424,"El":11425,"Ġdwell":11426,"izer":11427,"ĠLiving":11428,"agers":11429,"Ġintellectual":11430,"ĠAthens":11431,"mith":11432,"ĠGy":11433,"ĠHarbor":11434,"Ġcuts":11435,"Ġbacteria":11436,"ĠMission":11437,"ocity":11438,"ordinary":11439,"Ġfever":11440,"ĠAustin":11441,"Ġfra":11442,"Ġendors":11443,"Ġreply":11444,"enesis":11445,"ĠCer":11446,"Ġseeds":11447,"ussion":11448,"Ġconfront":11449,"ĠRobin":11450,"Ġconsistent":11451,"inian":11452,"Ġwound":11453,"Ġcats":11454,"ĠFlying":11455,"ĠStuart":11456,"Ġuser":11457,"ĠVel":11458,"irect":11459,"ĠDeep":11460,"ĠAncient":11461,"Ġsalary":11462,"gor":11463,"amation":11464,"cht":11465,"Ġservants":11466,"Ġmixture":11467,"ĠJunior":11468,"olar":11469,"clock":11470,"Ġsamples":11471,"ui":11472,"ĠActor":11473,"ocy":11474,"ĠPete":11475,"celand":11476,"Ġraids":11477,"ĠBurton":11478,"quer":11479,"ubs":11480,"Ġteachers":11481,"Ġturret":11482,"minster":11483,"ikely":11484,"Ġreferring":11485,"Ġextratropical":11486,"sur":11487,"Ġbeliefs":11488,"oded":11489,"ĠDwight":11490,"ĠIsab":11491,"Ġagriculture":11492,"Ind":11493,"izard":11494,"Ġ1895":11495,"ĠApollo":11496,"ĠKo":11497,"Ġspots":11498,"Ã£o":11499,"ĠFrances":11500,"ĠAmendment":11501,"istent":11502,"ĠVerm":11503,"ĠVienna":11504,"Ġpresents":11505,"Ġservant":11506,"Ġrestore":11507,"Ġtrough":11508,"ubble":11509,"Ġracial":11510,"mat":11511,"Ġtowers":11512,"ĠRogers":11513,"wow":11514,"ĠBarr":11515,"Ġballad":11516,"var":11517,"ĠSac":11518,"ationally":11519,"Ġconfident":11520,"ĠSelena":11521,"enburg":11522,"landers":11523,"ĠHughes":11524,"Ġdubbed":11525,"ĠUntil":11526,"ĠST":11527,"ĠFisher":11528,"Ġexclaimed":11529,"Ġassum":11530,"Ġdevast":11531,"Ġapplications":11532,"Ġhes":11533,"ĠFitz":11534,"ustrated":11535,"ĠShak":11536,"Ġportrait":11537,"Ġgreet":11538,"Ġconceived":11539,"ĠBoeing":11540,"Ġdoctors":11541,"Ġtough":11542,"Ġdish":11543,"ĠTNA":11544,"Ġblocked":11545,"Ġstrings":11546,"Ġessentially":11547,"Ġincl":11548,"Ġgest":11549,"ĠGor":11550,"Ġrepresentation":11551,"Ġrespective":11552,"Ġmachines":11553,"jection":11554,"Ġsoap":11555,"Ġdisband":11556,"ginning":11557,"ĠHeaven":11558,"ensis":11559,"Ġreactions":11560,"Ġdivorce":11561,"Ġreorgan":11562,"Ġsentiment":11563,"ĠRichmond":11564,"Ġromance":11565,"Ġwithdrawal":11566,"ĠPierre":11567,"ĠYouth":11568,"Ġdesired":11569,"Ġjumped":11570,"Ġadminister":11571,"tic":11572,"ĠCarm":11573,"Ġhence":11574,"Mrs":11575,"ho":11576,"Ġcrashed":11577,"ĠNorfolk":11578,"Ġlearns":11579,"Ġcatal":11580,"Ġconsciousness":11581,"PA":11582,"Ġconnections":11583,"ĠĠĠĠĠĠĠĠĠĠĠĠĠĠĠĠĠĠĠĠĠĠĠĠĠĠĠĠĠĠĠĠ":11584,"ĠTerry":11585,"ĠKaz":11586,"Ġamph":11587,"ĠWend":11588,"Ġarchitectural":11589,"ĠHunter":11590,"roe":11591,"rien":11592,"ĠCampaign":11593,"ĠMend":11594,"ĠPant":11595,"iki":11596,"Ġcomplicated":11597,"ĠServices":11598,"Ġinfer":11599,"Ġoffense":11600,"ĠShin":11601,"Ġcommunist":11602,"Ġadvertis":11603,"yd":11604,"Ġroot":11605,"Ġconservation":11606,"ielder":11607,"piece":11608,"commun":11609,"Ġurged":11610,"Ġaccompanying":11611,"33":11612,"ĠHowe":11613,"ĠOrchestra":11614,"Ġdense":11615,"ĠStra":11616,"Ġ1800":11617,"Ġreduction":11618,"Ġfarmers":11619,"ĠAfghanistan":11620,"arus":11621,"Ġlord":11622,"Ġisot":11623,"ĠDennis":11624,"Ġapolog":11625,"Ġcharter":11626,"Ġproduces":11627,"ĠNCAA":11628,"Ġ1861":11629,"ĠSaxon":11630,"ersed":11631,"Ġjet":11632,"Ã¨re":11633,"Ġpel":11634,"utton":11635,"Ġwarfare":11636,"Ġcolumns":11637,"erts":11638,"Ġcotton":11639,"Ġduration":11640,"aple":11641,"quis":11642,"Ġthrust":11643,"Ġlegislative":11644,"enos":11645,"Ġrect":11646,"Please":11647,"note":11648,"Ġmagnitude":11649,"Ġpersuaded":11650,"ĠChronicle":11651,"Ġrehears":11652,"abl":11653,"ĠMint":11654,"ĠDavies":11655,"Ġcalcul":11656,"ĠGon":11657,"Ġhybr":11658,"changed":11659,"Ġrecovery":11660,"hall":11661,"ĠSteel":11662,"dam":11663,"ogs":11664,"Ġurg":11665,"pler":11666,"Ġslip":11667,"Ġinvolves":11668,"Down":11669,"Ġenforce":11670,"ĠAges":11671,"usc":11672,"Ġswift":11673,"eks":11674,"rous":11675,"ĠHav":11676,"arded":11677,"Ġrealize":11678,"Ġsignificance":11679,"Ġtoured":11680,"Ġunderwent":11681,"isive":11682,"Ġkiller":11683,"Ġverte":11684,"Ġdiamond":11685,"ĠIceland":11686,"ailing":11687,"Ġtenure":11688,"Ġpitcher":11689,"Ġshifted":11690,"ĠJosÃ©":11691,"atra":11692,"Ġmillions":11693,"Ġwatershed":11694,"Ġbutt":11695,"ĠKu":11696,"Ġpatri":11697,"Ġfru":11698,"ampton":11699,"ective":11700,"Ġcommenced":11701,"Ġconsiders":11702,"ĠMontgomery":11703,"bie":11704,"ĠTrail":11705,"Ġunclear":11706,"ĠCamb":11707,"Ġrandom":11708,"ĠNancy":11709,"Ġspan":11710,"ĠNewton":11711,"ĠPrincip":11712,"ĠSwift":11713,"Ġnickname":11714,"Ġwand":11715,"ĠMind":11716,"Ġconj":11717,"ĠMS":11718,"Ġfab":11719,"ĠAer":11720,"ĠEight":11721,"Ġelig":11722,"Ġsurve":11723,"ĠBass":11724,"Ġsmiled":11725,"ĠSug":11726,"ĠBuck":11727,"Ġrevolt":11728,"Ġsoutheastern":11729,"Ġol":11730,"ĠMeth":11731,"urst":11732,"ĠPy":11733,"Ġmanga":11734,"ĠDefense":11735,"Ġcommanding":11736,"Ġportrayal":11737,"iop":11738,"Ġplenty":11739,"Ġmarched":11740,"lem":11741,"ĠBear":11742,"Ġbetray":11743,"Ġcruel":11744,"kon":11745,"inated":11746,"ding":11747,"Ġflesh":11748,"ĠCe":11749,"ĠBert":11750,"ublin":11751,"Ġabsorbed":11752,"ĠReich":11753,"uns":11754,"Ġpromotional":11755,"Ġcompetitive":11756,"ĠIndependence":11757,"Ġdign":11758,"Ġorg":11759,"Ġcomplained":11760,"ĠRuth":11761,"ĠMaya":11762,"Ġmans":11763,"Ed":11764,"eus":11765,"uil":11766,"ĠSalt":11767,"ĠPok":11768,"ĠFBI":11769,"Ġimagine":11770,"Arthur":11771,"ados":11772,"ĠKane":11773,"ĠOslo":11774,"Ġbenefits":11775,"ĠPriv":11776,"Ġvital":11777,"boards":11778,"ĠWells":11779,"ME":11780,"Ġum":11781,"Ġwishes":11782,"Ġsupern":11783,"ĠLegisl":11784,"ĠGay":11785,"Ġratio":11786,"ĠMuslims":11787,"Ġdecorated":11788,"Ġacoustic":11789,"Ġspare":11790,"ĠPlace":11791,"\").":11792,"amped":11793,"ĠColin":11794,"ĠProtestant":11795,"igger":11796,"Ġcinema":11797,"hello":11798,"Ġseal":11799,"etta":11800,"ĠSud":11801,"oba":11802,"Ġvillain":11803,"ĠOm":11804,"acht":11805,"Ġcarriage":11806,"Ġdevelopers":11807,"uis":11808,"herent":11809,"ĠFact":11810,"yram":11811,"urricanes":11812,"Ġsheet":11813,"ĠMetro":11814,"Ġtransported":11815,"Ġcabin":11816,"ivation":11817,"Ġguards":11818,"PS":11819,"list":11820,"Ġcongreg":11821,"Ġcompetitions":11822,"ĠStef":11823,"Ġextending":11824,"ĠSimilarly":11825,"omi":11826,"zh":11827,"Ġrevenge":11828,"Ġelector":11829,"Ġpoliticians":11830,"Ġphotography":11831,"ĠBradman":11832,"ĠSerbian":11833,"Ġbench":11834,"ĠÏ":11835,"Ġscandal":11836,"kind":11837,"Ġcreek":11838,"Ġchrom":11839,"Ġcommentary":11840,"Ġintend":11841,"Ġhappiness":11842,"uras":11843,"Ġstupid":11844,"Ġdeputy":11845,"ĠTrade":11846,"Ġwithdrawn":11847,"osph":11848,"Ġexplicit":11849,"ĠBurns":11850,"ĠÃĨthel":11851,"Ġbarn":11852,"Ġnights":11853,"Ġdisplays":11854,"ĠAttorney":11855,"ĠAuthority":11856,"ĠSymphony":11857,"Ġsplendid":11858,"Ġfare":11859,"addle":11860,"Ġstaying":11861,"Ġterrain":11862,"ĠClarke":11863,"Ġreinforcements":11864,"Ġinterpreted":11865,"Ġwashed":11866,"Ġwash":11867,"aba":11868,"Ġ1889":11869,"Music":11870,"erver":11871,"asted":11872,"Ġreleg":11873,"Ġswall":11874,"Ġsulf":11875,"boat":11876,"Ġward":11877,"Ġhollow":11878,"Ġsuggestion":11879,"Ġfarther":11880,"Ġscream":11881,"Ġimagery":11882,"Ġcategories":11883,"Ġpursued":11884,"HS":11885,"Ġlighter":11886,"Ġsilk":11887,"ĠTree":11888,"Ġpeoples":11889,"Ġcommunications":11890,"Ġmessages":11891,"ĠHope":11892,"Ġpredators":11893,"ocolate":11894,"Ġtickets":11895,"Ġsmell":11896,"Ġcoron":11897,"escope":11898,"ĠMarge":11899,"Ġoperates":11900,"Ġfacts":11901,"ĠExecutive":11902,"pur":11903,"ĠSide":11904,"ĠVers":11905,"ĠActress":11906,"ĠGallery":11907,"Ġunhappy":11908,"Ġbent":11909,"Ġcustomers":11910,"ĠBarbara":11911,"bet":11912,"Ġbattlecru":11913,"Ġchoir":11914,"Ġsacred":11915,"ĠCyrus":11916,"Ġma":11917,"ĠPul":11918,"Ġreviewed":11919,"opy":11920,"Ġpursuit":11921,"omon":11922,"Ġstatements":11923,"Ġhumanity":11924,"Ġheritage":11925,"Ġremote":11926,"ĠZone":11927,"ĠRomania":11928,"ĠPicture":11929,"Ġoccasional":11930,"orne":11931,"ĠOverall":11932,"Ġpetition":11933,"RI":11934,"Ġorganic":11935,"Ġcostume":11936,"Ġlessons":11937,"Ġqualifying":11938,"avid":11939,"ffield":11940,"neath":11941,"itic":11942,"Ġmant":11943,"ĠConstantin":11944,"Ġfrightened":11945,"ĠIS":11946,"Ġconvicted":11947,"Ġcivilians":11948,"Any":11949,"Ġnumbered":11950,"Ġhandsome":11951,"Ġboundaries":11952,"ĠTyler":11953,"riel":11954,"Ġtactics":11955,"rating":11956,"eto":11957,"ĠFull":11958,"ĠNam":11959,"Ġinvaded":11960,"Ġredes":11961,"cat":11962,"Ġdull":11963,"their":11964,"Ġregret":11965,"Ġsettlements":11966,"Ġdiverse":11967,"ĠDraft":11968,"anga":11969,"Ġcathedral":11970,"ĠHolland":11971,"verty":11972,"ĠDiana":11973,"Ġrushing":11974,"Ġchore":11975,"ĠCornwall":11976,"Ġeldest":11977,"Ġlocked":11978,"Ġawful":11979,"ĠArmstrong":11980,"Ġhosp":11981,"ĠTerr":11982,"ĠAI":11983,"Ġlasting":11984,"ĠDesign":11985,"ĠFourth":11986,"rh":11987,"Ġborough":11988,"Ġfaint":11989,"ĠInv":11990,"Ġfilmm":11991,"Ġarguing":11992,"ĠSic":11993,"ĠKid":11994,"ĠEddie":11995,"Ġrebels":11996,"Ġrecept":11997,"Ġpoverty":11998,"Ġproteins":11999,"Ġcloth":12000,"Ġboyfriend":12001,"colm":12002,"Ġairing":12003,"ĠElectric":12004,"Ġabsolute":12005,"ĠBryan":12006,"Ġcro":12007,"ĠOthers":12008,"Ã¶r":12009,"Ġreforms":12010,"ushes":12011,"ĠExper":12012,"Ġ1894":12013,"Ġparticipation":12014,"Ġlaboratory":12015,"Ġsharks":12016,"Ġresearchers":12017,"onium":12018,"ĠDays":12019,"Ġdropping":12020,"anka":12021,"ĠBlu":12022,"eries":12023,"ĠTang":12024,"Ġbeer":12025,"Ġrendered":12026,"Ġties":12027,"also":12028,"ĠLiter":12029,"Ġtension":12030,"Ġcott":12031,"ĠMall":12032,"Ġpresentation":12033,"Ġuranium":12034,"Ġmaps":12035,"ĠChelsea":12036,"ĠSara":12037,"ĠHave":12038,"Ġabst":12039,"ĠVeg":12040,"ĠBrooklyn":12041,"Ġcha":12042,"Ġreceives":12043,"Ġputs":12044,"Ġvulnerable":12045,"thlete":12046,"ĠFace":12047,"Ġsixty":12048,"Ġexplore":12049,"Ġapproaches":12050,"CO":12051,"Ġdiplomatic":12052,"Ġrelieved":12053,"hent":12054,"ĠAren":12055,"ĠPoll":12056,"ĠGreatest":12057,"Ġsculpture":12058,"Ġ108":12059,"Ġscientist":12060,"Ġexamination":12061,"Ġcommanders":12062,"Ġseparation":12063,"Ġspirits":12064,"Ġhurry":12065,"rÃ©":12066,"vation":12067,"Ġscrew":12068,"Ġunlikely":12069,"Ġlatest":12070,"Ġrifle":12071,"Ġpromin":12072,"Ġaffection":12073,"Ġsnake":12074,"Ġcord":12075,"Ġ169":12076,"Ġrevised":12077,"Ġdrain":12078,"ĠAbu":12079,"Ġinterviews":12080,"Ġinherited":12081,"woman":12082,"lights":12083,"pike":12084,"ĠQuest":12085,"ĠToy":12086,"immer":12087,"Ġ1891":12088,"ĠBuffalo":12089,"rat":12090,"Ġtoy":12091,"Ġdad":12092,"Ġweakness":12093,"Ġdece":12094,"olia":12095,"Ġimprisoned":12096,"ĠWas":12097,"ĠLov":12098,"ĠEth":12099,"Ġdirections":12100,"heimer":12101,"Ġsteadily":12102,"ĠSign":12103,"Ġrolled":12104,"Ġenact":12105,"Ġbrave":12106,"ĠStein":12107,"Ġrush":12108,"Ġlakes":12109,"Ġecho":12110,"ĠStudio":12111,"ĠConservative":12112,"Ġrevolutionary":12113,"Ġdual":12114,"cliff":12115,"Ġanymore":12116,"ĠJohnston":12117,"ĠBright":12118,"Ġsupports":12119,"Ġlicense":12120,"ĠMom":12121,"Ġflex":12122,"Ġmaintaining":12123,"ĠPerformance":12124,"igious":12125,"ĠSheffield":12126,"Ġharsh":12127,"ĠSciences":12128,"ĠLocal":12129,"Ġrejoin":12130,"ĠMi":12131,"ĠWinds":12132,"Ġrescued":12133,"oping":12134,"arting":12135,"Ill":12136,"jud":12137,"ĠNAT":12138,"Ġridic":12139,"Care":12140,"Ġcere":12141,"odium":12142,"Ġchim":12143,"Ġhostile":12144,"Ġstretched":12145,"Ġenormous":12146,"Ġdimin":12147,"uper":12148,"Ġ127":12149,"ĠPlant":12150,"maybe":12151,"Î½":12152,"ĠÃī":12153,"Ġrivalry":12154,"ĠIndonesian":12155,"Ġcig":12156,"Ġairfield":12157,"Ġsounded":12158,"ĠMadrid":12159,"Ġ1865":12160,"âĢĺ":12161,"Ġeverywhere":12162,"Ġeighteen":12163,"Ġtraditionally":12164,"Ġaltogether":12165,"Ġdestroyer":12166,"Ġremarkable":12167,"Ġtonnes":12168,"ounce":12169,"ĠMilan":12170,"ĠMagic":12171,"ĠDeputy":12172,"Ġjurisdiction":12173,"ellers":12174,"Ġsne":12175,"Ġvari":12176,"Ġoxid":12177,"rastructure":12178,"Ġexplaining":12179,"Ġelephant":12180,"ded":12181,"ĠNova":12182,"umbled":12183,"Ġ1892":12184,"ĠTerritory":12185,"Ġbatteries":12186,"ĠBapt":12187,"Ġforecast":12188,"Ġestimates":12189,"During":12190,"ĠThames":12191,"ĠGran":12192,"Ġwidow":12193,"rage":12194,"usk":12195,"Ġquit":12196,"Ġinsurance":12197,"Ġdancers":12198,"Ġreass":12199,"Ġindigenous":12200,"Ġepic":12201,"Ġwarnings":12202,"ĠRepublicans":12203,"Ġphoto":12204,"Ġrelocated":12205,"ĠRonald":12206,"Ġcurve":12207,"ĠCemetery":12208,"ĠVIII":12209,"ĠKaiser":12210,"aton":12211,"ĠHD":12212,"Ġcontend":12213,"Ġdivers":12214,"icism":12215,"Ġnautical":12216,"Ġfossils":12217,"Ġinstructions":12218,"Ġstored":12219,"ĠRight":12220,"Ġsteady":12221,"Ġlinks":12222,"Ġjudgment":12223,"Ġmanip":12224,"Ġreinforced":12225,"ĠErnest":12226,"etheless":12227,"nan":12228,"itement":12229,"Ġfant":12230,"ilia":12231,"Ġconsiderably":12232,"enh":12233,"ĠRP":12234,"Ġconsideration":12235,"ĠMovie":12236,"Ġelaborate":12237,"ellar":12238,"Ġadvancing":12239,"Ġindustries":12240,"ĠSaturn":12241,"65":12242,"gus":12243,"inery":12244,"ĠScar":12245,"stad":12246,"ĠFro":12247,"Ġfinest":12248,"Ġsubstitute":12249,"Ġdistinction":12250,"ĠGuitar":12251,"Ġclimbed":12252,"Ġpine":12253,"Ġcollections":12254,"Ġthreatening":12255,"nels":12256,"Ġtherm":12257,"nex":12258,"Ġprayer":12259,"ĠHerald":12260,"Ġmagnetic":12261,"Ġ1888":12262,"Ġresort":12263,"embr":12264,"Ġchess":12265,"Ġdiseases":12266,"Ġgates":12267,"ĠLud":12268,"Ġincred":12269,"Ġpraising":12270,"Ġsegments":12271,"Ġmanufacturing":12272,"Ġgaining":12273,"acious":12274,"ometric":12275,"Ġdependent":12276,"Ġfundamental":12277,"Bob":12278,"van":12279,"atoes":12280,"Ġnearest":12281,"ĠBarcel":12282,"Ġdisplaced":12283,"Ġtotally":12284,"eren":12285,"ainted":12286,"Ġboilers":12287,"ju":12288,"nut":12289,"ĠBrooks":12290,"Ġsponsored":12291,"Ãł":12292,"Ġbuff":12293,"ĠScots":12294,"uka":12295,"ĠPercy":12296,"Ġrecognize":12297,"Ġinnocent":12298,"Ġnaked":12299,"aneous":12300,"Ġenabled":12301,"arma":12302,"Ġforever":12303,"enz":12304,"Ġfol":12305,"ĠRest":12306,"ĠOscar":12307,"levard":12308,"Ġculmin":12309,"ĠDublin":12310,"ahl":12311,"ĠTransportation":12312,"ĠChad":12313,"Ġthereby":12314,"gain":12315,"Ġaft":12316,"Ġbars":12317,"Ġtoss":12318,"Ġfemin":12319,"eda":12320,"ĠSri":12321,"Ġblame":12322,"ĠDeb":12323,"Ġsummon":12324,"Ġintersects":12325,"Ġgrossing":12326,"onial":12327,"ĠPel":12328,"Ġamid":12329,"ĠSherman":12330,"imony":12331,"issa":12332,"Ġactivist":12333,"Ġrenewed":12334,"atar":12335,"Ġchlor":12336,"Ġmorph":12337,"ĠPun":12338,"plane":12339,"64":12340,"Ġinterrupted":12341,"iked":12342,"ĠBrand":12343,"ĠTraining":12344,"Ġcalendar":12345,"Ġtornado":12346,"Ġdiscontin":12347,"gow":12348,"esh":12349,"ĠBurg":12350,"Ġexamined":12351,"Ġcelebrate":12352,"Ġaccidentally":12353,"mill":12354,"Ġlux":12355,"ĠEner":12356,"Ġhyper":12357,"Ġcircular":12358,"Ġaccomplished":12359,"ĠPrest":12360,"Ġalright":12361,"Ġhandling":12362,"Ġcelebration":12363,"WA":12364,"ĠOpera":12365,"Ġmechanism":12366,"Ġmoist":12367,"arrass":12368,"Ġproposals":12369,"itol":12370,"Ġtrapped":12371,"Ġkilometers":12372,"ĠJulian":12373,"Ġvariation":12374,"Ġsel":12375,"ĠCode":12376,"keys":12377,"Ġclergy":12378,"Ġmaiden":12379,"Ġanxious":12380,"uded":12381,"ĠEnv":12382,"Ġcoc":12383,"ĠSega":12384,"Ġrolling":12385,"ĠPut":12386,"ĠNothing":12387,"ountain":12388,"Ġantib":12389,"Ġchampionships":12390,"Ġchallenges":12391,"Ġwalks":12392,"ĠAber":12393,"Ġintervention":12394,"Ġemotions":12395,"ggie":12396,"Ġattraction":12397,"Ġsuspic":12398,"ĠâĢ¦":12399,"ieg":12400,"Ġbusinessman":12401,"ĠMarket":12402,"áº":12403,"igo":12404,"Ġbiological":12405,"Ġunconscious":12406,"opl":12407,"Ġunt":12408,"Ġinhab":12409,"Ġmathematics":12410,"ĠParsons":12411,"ĠMix":12412,"Ġhealthy":12413,"ĠClassic":12414,"Ġsinking":12415,"Ġgarn":12416,"Ġwinners":12417,"Ġsensitive":12418,"ĠMonday":12419,"ĠIsaac":12420,"Ġcyclones":12421,"Ġconfirm":12422,"ĠAND":12423,"Ġimpressive":12424,"ĠWinn":12425,"ĠPatri":12426,"ĠKer":12427,"ĠStre":12428,"Ġrope":12429,"Ġintermedi":12430,"Ġvelocity":12431,"ĠSaf":12432,"Ġaftermath":12433,"Ġrecurring":12434,"ĠCand":12435,"Ġramp":12436,"Ġshar":12437,"ĠTherefore":12438,"Ġ1885":12439,"ĠMontana":12440,"Ġoct":12441,"eddy":12442,"yers":12443,"ĠStri":12444,"ĠSean":12445,"Ġnevertheless":12446,"ĠMinor":12447,"Ġpreserve":12448,"Ġtours":12449,"Ġavoided":12450,"DP":12451,"instein":12452,"ĠRan":12453,"Ġbless":12454,"Ġtribut":12455,"shine":12456,"ĠSlav":12457,"Ġsearching":12458,"Ġmultiplayer":12459,"ifferent":12460,"Ġpositively":12461,"ĠMalcolm":12462,"ĠDh":12463,"ĠLucy":12464,"ĠSerbia":12465,"ĠChester":12466,"ĠGir":12467,"ĠKyle":12468,"assy":12469,"Ġtourist":12470,"Ġvolcanic":12471,"Ð°":12472,"Ġsituations":12473,"oric":12474,"Ġpressed":12475,"Ġjail":12476,"32":12477,"ĠCec":12478,"ĠHood":12479,"Ġprivile":12480,"Ġworker":12481,"pel":12482,"ĠEt":12483,"opard":12484,"Ġ240":12485,"ridor":12486,"aphic":12487,"Ġneuro":12488,"neum":12489,"ĠAntar":12490,"Ġfunded":12491,"ĠFreedom":12492,"ĠSP":12493,"ĠComedy":12494,"Ġoptions":12495,"origin":12496,"regular":12497,"Ġstructural":12498,"Ġshopping":12499,"Ġconsequence":12500,"Ġvolunteers":12501,"Ġrains":12502,"ieve":12503,"ĠTechnology":12504,"those":12505,"Ġbelongs":12506,"Take":12507,"lar":12508,"Ġconsolid":12509,"Ġbride":12510,"ĠBranch":12511,"Ġengineers":12512,"ĠMcKin":12513,"music":12514,"Ġfile":12515,"Ġstreak":12516,"acer":12517,"ĠLie":12518,"TH":12519,"ĠEld":12520,"ikh":12521,"Ġourselves":12522,"ĠVegas":12523,"Ġlun":12524,"Ġmidnight":12525,"Ġstrikes":12526,"Ġdisappoint":12527,"ĠBarcelona":12528,"could":12529,"Ġprovisions":12530,"ĠBoat":12531,"oft":12532,"Ġcree":12533,"ĠMaced":12534,"usty":12535,"ĠRoom":12536,"Ġinteraction":12537,"Foot":12538,"ĠKrist":12539,"Ġdefinitely":12540,"Ġtimber":12541,"Ġsaving":12542,"ĠSah":12543,"Ġmunicipal":12544,"ĠPedro":12545,"Ġsacrifice":12546,"sis":12547,"Ġpm":12548,"ĠEllen":12549,"TWC":12550,"annels":12551,"Ġcharted":12552,"ĠFriends":12553,"stop":12554,"Ġsailors":12555,"eta":12556,"Ġbelonging":12557,"Ġsafely":12558,"Ġug":12559,"ĠJTWC":12560,"Ġcomputers":12561,"Ġbullet":12562,"Ġ158":12563,"Ġsteal":12564,"ĠMadison":12565,"Ġliner":12566,"inging":12567,"ĠLeaf":12568,"wyn":12569,"asi":12570,"ĠZh":12571,"ĠRabbit":12572,"ĠConstantine":12573,"Ġbin":12574,"agles":12575,"Ġpotentially":12576,"ĠPS":12577,"aku":12578,"Ġ1864":12579,"fecture":12580,"Ġmit":12581,"ĠSaw":12582,"ĠPay":12583,"ĠBeginning":12584,"Ġliterally":12585,"Ġparliamentary":12586,"Ġlayers":12587,"Ġlocally":12588,"osc":12589,"cker":12590,"ĠKenneth":12591,"ĠRomans":12592,"Ġjumping":12593,"ĠRou":12594,"ĠRegional":12595,"Ġrugby":12596,"xide":12597,"Ġeagle":12598,"ĠCensus":12599,"lett":12600,"Ġrequiring":12601,"ĠMiles":12602,"itime":12603,"ĠDJ":12604,"heric":12605,"Ġministers":12606,"Ġillustrated":12607,"Ġstair":12608,"Ġpermit":12609,"GB":12610,"oming":12611,"Ġrivals":12612,"Ġsubstance":12613,"ĠShiva":12614,"197":12615,"Ġcitizen":12616,"Ġdiagnosed":12617,"Ġcounsel":12618,"isan":12619,"ĠSep":12620,"Ġexile":12621,"Ġspur":12622,"ĠMcL":12623,"Ġposts":12624,"ĠYugoslavia":12625,"ovic":12626,"ĠSection":12627,"ĠOfficial":12628,"ĠArmenian":12629,"ĠWagner":12630,"ĠQuar":12631,"Ġopposing":12632,"ĠPanzer":12633,"dis":12634,"ĠMidd":12635,"Ġsear":12636,"Ġ159":12637,"ĠRegister":12638,"Ġdepends":12639,"Ġprosper":12640,"Ġdisturbance":12641,"backs":12642,"Ġease":12643,"Ġrip":12644,"ĠFish":12645,"istical":12646,"angular":12647,"ĠGlas":12648,"ĠProduction":12649,"fa":12650,"ĠCS":12651,"ĠKill":12652,"ĠSeason":12653,"Ġvariations":12654,"olo":12655,"ĠSH":12656,"Ġauton":12657,"ĠFarmer":12658,"Ġfrogs":12659,"Ġdisappear":12660,"ĠAgainst":12661,"Br":12662,"Ġdemo":12663,"Ġintroduce":12664,"ĠLiberty":12665,"Ġaccommodate":12666,"Ġsque":12667,"Ġtrap":12668,"achute":12669,"ĠCardiff":12670,"Ġdecreased":12671,"Ġveteran":12672,"acking":12673,"Ġ101":12674,"Ġpainter":12675,"rieved":12676,"ĠCarlos":12677,"RS":12678,"ipher":12679,"Ġharder":12680,"Ġalarm":12681,"oshi":12682,"Ġstranger":12683,"Ġtennis":12684,"ĠMajesty":12685,"Ġcondemned":12686,"ĠBangladesh":12687,"wanna":12688,"ĠOw":12689,"ĠComics":12690,"Ġslide":12691,"ĠWarri":12692,"ĠCrus":12693,"bai":12694,"cr":12695,"iors":12696,"turn":12697,"Ġbapt":12698,"Ġsized":12699,"Ġferry":12700,"ĠChen":12701,"Ġgrain":12702,"restrial":12703,"inted":12704,"Ġsorrow":12705,"ulu":12706,"Ġgravity":12707,"ĠLore":12708,"Ġmeal":12709,"ĠDevil":12710,"Ġinclusion":12711,"ĠNas":12712,"iang":12713,"Ġwheels":12714,"ĠNevada":12715,"Ġoffs":12716,"Ġ1862":12717,"ĠWel":12718,"ĠArchbishop":12719,"Ġintelligent":12720,"Ġmartial":12721,"uddy":12722,"Ġceiling":12723,"Ġignored":12724,"only":12725,"stal":12726,"ĠWatch":12727,"ĠSpider":12728,"ĠSchum":12729,"Ġmixing":12730,"ĠChapel":12731,"Ġresignation":12732,"ĠCinc":12733,"ĠRI":12734,"parts":12735,"Ġaston":12736,"Ġhaz":12737,"Ġconvey":12738,"Ġtreas":12739,"Ġfron":12740,"ĠEff":12741,"Ġwhenever":12742,"Ġ154":12743,"Ġscreenplay":12744,"Ġconflicts":12745,"Ġfract":12746,"Ġcurious":12747,"Ġimplemented":12748,"care":12749,"edge":12750,"Ġpipe":12751,"ĠTourn":12752,"Ġcomics":12753,"Ġgran":12754,"ĠVenice":12755,"ortion":12756,"Ġqualities":12757,".[":12758,"ĠTell":12759,"Ġlip":12760,"ĠAbraham":12761,"ĠBarnes":12762,"Ġbabies":12763,"Col":12764,"cons":12765,"Ġsomehow":12766,"Ġtrailer":12767,"==":12768,"Ġliver":12769,"ĠNormandy":12770,"Ġloaded":12771,"auc":12772,"Ġinterven":12773,"ounters":12774,"Ġcheap":12775,"Ġinfrastructure":12776,"ĠCred":12777,"Ġseated":12778,"Ġdeeper":12779,"Ġthreats":12780,"ĠSprings":12781,".--":12782,"Ġdiscour":12783,"ĠMerced":12784,"world":12785,"onso":12786,"ĠLuther":12787,"ĠEdition":12788,"ĠNATO":12789,"mons":12790,"Ġblamed":12791,"Ġsimilarities":12792,"achelor":12793,"ĠNation":12794,"Ġrab":12795,"ĠSpencer":12796,"Ġconvince":12797,"Ġmeasuring":12798,"ealous":12799,"ĠOlivia":12800,"ĠConstantinople":12801,"Ġwis":12802,"ĠPrinc":12803,"Ġextensively":12804,"ĠAL":12805,"ĠBasket":12806,"unge":12807,"Ġshops":12808,"Ġunn":12809,"Ġupcoming":12810,"ĠEmma":12811,"post":12812,"Ġmasc":12813,"quet":12814,"amine":12815,"Ġquoted":12816,"pit":12817,"ÉĻ":12818,"Ġsharing":12819,"Ġauthorized":12820,"Ġcommercially":12821,"rified":12822,"Ġpronounced":12823,"ĠCaes":12824,"ĠSox":12825,"ĠNiger":12826,"Ġleather":12827,"ĠReed":12828,"Ġ135":12829,"ĠGuild":12830,"Ġcomposers":12831,"ĠAlberta":12832,"UN":12833,"Ġib":12834,"ĠNathan":12835,"Ġrevival":12836,"Ġreader":12837,"Ġdoctrine":12838,"ĠAzer":12839,"Ġstairs":12840,"ĠJake":12841,"Ġclimbing":12842,"Ġhelicopter":12843,"person":12844,"ĠTO":12845,"ĠColomb":12846,"ĠXV":12847,"Ġparticipants":12848,"ulsion":12849,"aris":12850,"Ġants":12851,"istocr":12852,"bery":12853,"ĠControl":12854,"Ġtear":12855,"entieth":12856,"ĠCP":12857,"Ġfocuses":12858,"Ġconsumption":12859,"ĠCEO":12860,"ĠGang":12861,"ĠMarl":12862,"Ġjuven":12863,"Ġsquadrons":12864,"EL":12865,"bage":12866,"armed":12867,"Ġsupper":12868,"Ġ03":12869,"Ġrounded":12870,"Ġexciting":12871,"Ġventure":12872,"omas":12873,"ierra":12874,"Ġcompanions":12875,"Ġfatal":12876,"Ġcooking":12877,"Ġ||":12878,"Ġpushing":12879,"Ġbeings":12880,"ĠHum":12881,"Ġimposed":12882,"Ġ167":12883,"Ġeditions":12884,"irk":12885,"ĠPeng":12886,"Ġprest":12887,"Ġcarved":12888,"Ġslept":12889,"ĠJanet":12890,"Ġclay":12891,"Ġopinions":12892,"ĠBooks":12893,"little":12894,"eward":12895,"ĠCinem":12896,"ĠBent":12897,"avian":12898,"ĠAlliance":12899,"Ġinex":12900,"Ġstyl":12901,"Ġstiff":12902,"Ġimper":12903,"ĠCommer":12904,"bris":12905,"Ġfloating":12906,"ĠEnergy":12907,"Ä«":12908,"Ġpseud":12909,"ĠCavalry":12910,"Ġovercome":12911,"Ġgenes":12912,"Ġpayment":12913,"Ġpeninsula":12914,"ĠBaltic":12915,"ĠUkraine":12916,"rus":12917,"Ġdare":12918,"Ġplastic":12919,"Ġdocumented":12920,"Ġvirtually":12921,"Ġgathering":12922,"ĠBased":12923,"ĠRound":12924,"Ġraw":12925,"riages":12926,"Ġhoused":12927,"Man":12928,"ĠCase":12929,"Ġcurtain":12930,"Ġvoters":12931,"Ġextraordinary":12932,"Ġrecruited":12933,"Ġprox":12934,"Ġinducted":12935,"Ġslipped":12936,"Ġspokes":12937,"Ġconquest":12938,"ĠFriedrich":12939,"Many":12940,"ģĦ":12941,"Ġscared":12942,"Ġsurprising":12943,"Even":12944,"Ġpian":12945,"ĠWelling":12946,"ĠLords":12947,"Ġinterf":12948,"Ġfaculty":12949,"ulk":12950,"Ġwanting":12951,"Ġpromoting":12952,"ĠSpringfield":12953,"Ġcemetery":12954,"Ġhm":12955,"Ġusage":12956,"ĠAppe":12957,"UC":12958,"ĠMarian":12959,"Ġmolecules":12960,"Ġcorporate":12961,"ĠFlorence":12962,"Ġaqu":12963,"icus":12964,"ĠFran":12965,"ikes":12966,"Ġinsult":12967,"Ġmunicipalities":12968,"di":12969,"ĠBark":12970,"Ġjaw":12971,"ĠCincinn":12972,"ĠFly":12973,"Ġspawn":12974,"ahn":12975,"ĠStudies":12976,"ĠVo":12977,"ĠGlob":12978,"ĠRaymond":12979,"Ġremoving":12980,"ĠMann":12981,"ĠGhost":12982,"ĠGregory":12983,"Ġboots":12984,"Ġmonastery":12985,"Ġflown":12986,"ĠWestminster":12987,"Ġrocket":12988,"Ġwhispered":12989,"ĠEsc":12990,"ogg":12991,"Ġconductor":12992,"Ġå":12993,"umi":12994,"Ġtroop":12995,"Ġlacking":12996,"Ġestimate":12997,"ĠEvil":12998,"Ġembarked":12999,"ĠFighter":13000,"upon":13001,"Ġpeas":13002,"ĠEdmund":13003,"Ġtemples":13004,"Ġmemories":13005,"Ġcalculated":13006,"ĠKil":13007,"ishops":13008,"GH":13009,"Ġfancy":13010,"cia":13011,"nda":13012,"ulum":13013,"icular":13014,"Ġargue":13015,"ĠLaurie":13016,"ĠTib":13017,"avour":13018,"ĠHearts":13019,"Ġpointing":13020,"Ġdivine":13021,"every":13022,"Ġtool":13023,"ĠDerby":13024,"Ġanticipated":13025,"67":13026,"ĠNed":13027,"Ġfarmer":13028,"Ġaccessible":13029,"ĠIns":13030,"Ġclip":13031,"alg":13032,"ĠSkin":13033,"Ġembarrass":13034,"ĠNASA":13035,"ĠMovement":13036,"zi":13037,"Ġgrandmother":13038,"Ġsustain":13039,"Ġhurried":13040,"Ġinhib":13041,"Ġthread":13042,"Ġverses":13043,"Ġcontracts":13044,"ĠMercury":13045,"Ġliv":13046,"Ġlaps":13047,"ĠLink":13048,"ĠVery":13049,"Ġdarker":13050,"Ġhighlighted":13051,"Ġtum":13052,"Ġpy":13053,"ĠTreas":13054,"Ġescorted":13055,"Ġfears":13056,"Ġshake":13057,"Ġpartners":13058,"Ġoriented":13059,"Ġpir":13060,"ema":13061,"ĠSeb":13062,"ĠLeo":13063,"Ġpresidency":13064,"arah":13065,"leb":13066,"ĠAction":13067,"chair":13068,"Ġris":13069,"Ġarguments":13070,"Ġ1840":13071,"Ġdecrease":13072,"rob":13073,"pling":13074,"alin":13075,"ampa":13076,"ĠLeices":13077,"ischer":13078,"Ġmasses":13079,"Ġexcitement":13080,"Ġwitnesses":13081,"GM":13082,"pop":13083,"Ġoak":13084,"ĠHat":13085,"Ġrider":13086,"mentary":13087,"ĠVilla":13088,"Ġreporter":13089,"ĠDuncan":13090,"Ġpond":13091,"ĠTitan":13092,"ĠRav":13093,"azon":13094,"ĠIsle":13095,"Ġcosm":13096,"into":13097,"ĠWeather":13098,"ĠMember":13099,"Ġmarking":13100,"Ġcontrad":13101,"ĠHunt":13102,"Ġarena":13103,"Ġtourists":13104,"Ġwolf":13105,"ĠRivers":13106,"Ġopenly":13107,"Ġdivorced":13108,"ĠCincinnati":13109,"usters":13110,"ĠManagement":13111,"ĠReddy":13112,"Ġbiography":13113,"Ġshouted":13114,"Ġlyric":13115,"ĠNep":13116,"Ġplum":13117,"Ġknight":13118,"ennial":13119,"Ġdeliberately":13120,"ĠMalta":13121,"Hello":13122,"elfare":13123,"Ġnortheastern":13124,"oro":13125,"ĠMorning":13126,"ĠRevolutionary":13127,"Ġcircles":13128,"Ġber":13129,"Ġmetric":13130,"Ġhearts":13131,"Ġ1863":13132,"Ġwarships":13133,"_.":13134,"Ġbark":13135,"ĠBears":13136,"ĠDuch":13137,"Ġannex":13138,"ĠGrade":13139,"ĠTwitter":13140,"Ġlinear":13141,"etary":13142,"Ġwhales":13143,"Ġreconc":13144,"ĠLeeds":13145,"Ġmansion":13146,"oan":13147,"ĠSonic":13148,"imir":13149,"isting":13150,"epper":13151,"Ġamazing":13152,"Ġsmallest":13153,"Ġcurved":13154,"Ġgenius":13155,"Ġ1887":13156,"umbered":13157,"ĠMarshal":13158,"Ġweakening":13159,"Ġsignals":13160,"Ġfellows":13161,"Ġdevil":13162,"Ġconnects":13163,"Ġcommenting":13164,"Ġterritorial":13165,"ĠRomney":13166,"ĠHerbert":13167,"Ġprototype":13168,"Ġbesides":13169,"Ġdescended":13170,"ĠLaboratory":13171,"Ġcanton":13172,"Ġrays":13173,"agi":13174,"Ġlonely":13175,"Ġgifts":13176,"Miss":13177,"hal":13178,"Ġowing":13179,"chw":13180,"ĠGates":13181,"ichi":13182,"Ġarr":13183,"Ġregulations":13184,"Ġcompositions":13185,"Ġexhibit":13186,"ĠKel":13187,"Ġdisgu":13188,"ĠRef":13189,"vor":13190,"ĠAlt":13191,"Ġsurround":13192,"Ġprogressive":13193,"heart":13194,"ĠNan":13195,"ĠContinental":13196,"ĠTerm":13197,"Ġjealous":13198,"ĠThan":13199,"ĠNewcastle":13200,"ĠRomanian":13201,"Ġfarming":13202,"ĠChairman":13203,"Ġtide":13204,"Ġoccurring":13205,"Ġ450":13206,"Ġcapturing":13207,"Ġheavier":13208,"Ġimagination":13209,"Ġrestrictions":13210,"Ġfierce":13211,"BO":13212,"Ġsingers":13213,"ĠFormula":13214,"ĠRush":13215,"Ġunderneath":13216,"Ġthunderstorm":13217,"ĠLis":13218,"ĠBlair":13219,"Ġsymbols":13220,"ĠHeavyweight":13221,"sts":13222,"ĠFight":13223,"ĠEqu":13224,"Ġspark":13225,"Ġ102":13226,"Ġ145":13227,"ĠBradley":13228,"ĠPick":13229,"ĠWald":13230,"ĠChang":13231,"Ġreleasing":13232,"ĠOrthodox":13233,"ĠButler":13234,"ĠTournament":13235,"Ġdug":13236,"Ġlib":13237,"ĠVick":13238,"Ġrelax":13239,"Ġannoy":13240,"Ġ220":13241,"Ġ1886":13242,"ĠBurke":13243,"Ġtransformed":13244,"try":13245,"Ġpump":13246,"leased":13247,"ĠMak":13248,"Ġunre":13249,"Ġdistinguish":13250,"Ġundertaken":13251,"Ġmetre":13252,"Ġinspe":13253,"Ġterminal":13254,"Ġlawsuit":13255,"has":13256,"ÏĤ":13257,"ĠTir":13258,"Ġgear":13259,"ĠPly":13260,"Ġagencies":13261,"Ste":13262,"Ġchannels":13263,"ĠVlad":13264,"Ġbrush":13265,"Ġdetected":13266,"Ġvarying":13267,"Ġbuck":13268,"ĠCond":13269,"ĠOcc":13270,"Ġunve":13271,"Ġdefenders":13272,"Ġadjust":13273,"Other":13274,"mans":13275,"Ġcontinental":13276,"Ġdepicts":13277,"Ġvicinity":13278,"Ġathlete":13279,"agic":13280,"ĠOil":13281,"Ġspeeds":13282,"oirs":13283,"anian":13284,"Ġvariable":13285,"cor":13286,"Ġteammate":13287,"eches":13288,"ĠMacArthur":13289,"Ġencourage":13290,"Ġnaming":13291,"Ġspeaker":13292,"ĠâĻª":13293,"osom":13294,"Career":13295,"ĠScientology":13296,"Ġdeer":13297,"ritic":13298,"ounted":13299,"action":13300,"Ġrunner":13301,"Ġconsent":13302,"68":13303,"raska":13304,"ĠFab":13305,"sson":13306,"ĠLaura":13307,"People":13308,"wig":13309,"eli":13310,"Ġjam":13311,"ymn":13312,"Ġmistaken":13313,"Ġconspiracy":13314,"inisc":13315,"Ġasserted":13316,"Ã©mon":13317,"ĠOrd":13318,"heads":13319,"Ġbomber":13320,"Ġrapper":13321,"Ġgarnered":13322,"ĠMembers":13323,"herd":13324,"ĠUC":13325,"ĠTribune":13326,"69":13327,"aceous":13328,"ĠPlat":13329,"ettes":13330,"Geography":13331,"ĠCort":13332,"Ġ111":13333,"Ġmodest":13334,"enberg":13335,"Ġprol":13336,"Ġblast":13337,"Ġsmiling":13338,"Ġconcepts":13339,"alais":13340,"Ġhammer":13341,"Ġfluid":13342,"ĠChamberlain":13343,"ĠInvest":13344,"Ġmuscle":13345,"Ġspeculation":13346,"Ġtempo":13347,"Ġparking":13348,"girl":13349,"Ġtasks":13350,"ĠTas":13351,"Ġaristocr":13352,"inda":13353,"Ġnecessarily":13354,"Ġmonkey":13355,"Ġbatted":13356,"enez":13357,"Ġtasked":13358,"Ġadventures":13359,"ĠâĤ¹":13360,"ĠBasketball":13361,"RT":13362,"ĠHerm":13363,"osion":13364,"Ġoutstanding":13365,"International":13366,"Ġessay":13367,"aho":13368,"Ġspacecraft":13369,"Ġworthy":13370,"ĠMartha":13371,"ĠReport":13372,"Ġbrut":13373,"gric":13374,"Ġinstantly":13375,"cock":13376,"fam":13377,"ĠChem":13378,"Ġstraw":13379,"Ġtracked":13380,"ĠDesert":13381,"ĠDenver":13382,"Ġcorresponding":13383,"mommy":13384,"Illustration":13385,"employ":13386,"Ġstreams":13387,"Ġcultures":13388,"Ġwidth":13389,"Ġcomedian":13390,"Ġinput":13391,"ĠLP":13392,"aceae":13393,"holm":13394,".âĢĻ":13395,"Ġwounds":13396,"ĠMarines":13397,"Ġfarms":13398,"ĠArabic":13399,"ĠCeltic":13400,"ĠUnd":13401,"lington":13402,"Ġceremonies":13403,"ĠFerdin":13404,"Ġgarage":13405,"ĠBoulevard":13406,"Ġgenerations":13407,"Ġeventual":13408,"ĠXI":13409,"Ġpreceding":13410,"Ġdiscipline":13411,"ĠHispan":13412,"ĠBroadcast":13413,"Ġvaries":13414,"ĠJoint":13415,"Ġposter":13416,"ĠEmily":13417,"Ġ1884":13418,"ĠOttawa":13419,"ĠKay":13420,"Ġcentered":13421,"Ġmanaging":13422,"Like":13423,"Ġ118":13424,"Ġgenres":13425,"Ġkilog":13426,"naments":13427,"Ġconsequences":13428,"ĠOrganization":13429,"hind":13430,"Ġmarsh":13431,"Ġproclaimed":13432,"Christ":13433,"Ġphenomenon":13434,"acular":13435,"Ġeastward":13436,"ĠBerg":13437,"ĠAzerbai":13438,"ĠFrog":13439,"ĠEC":13440,"Ġnob":13441,"auge":13442,"ĠGlasgow":13443,"rates":13444,"watch":13445,"isch":13446,"Ġpity":13447,"ĠCox":13448,"ĠMV":13449,"Ġdebris":13450,"ĠMoz":13451,"Ġsubtropical":13452,"Ġdealt":13453,"Ġdirecting":13454,"Ġirregular":13455,"ĠPalestine":13456,"RC":13457,"Ġknees":13458,"Ġstopping":13459,"opic":13460,"Ġreporting":13461,"Ġconfess":13462,"alties":13463,"actic":13464,"Ġcanon":13465,"Ġcentimet":13466,"Ġrealistic":13467,"zed":13468,"ĠLot":13469,"Ġexpense":13470,"Ġbeds":13471,"umberland":13472,"Ġoptim":13473,"ĠEnvironment":13474,"Ġattractive":13475,"ĠSC":13476,"ĠFoster":13477,"ĠâģĦ":13478,"Ġindependently":13479,"ĠJamaica":13480,"ĠHull":13481,"Ġshapes":13482,"ĠMethod":13483,"Ġinning":13484,"ido":13485,"ĠHok":13486,"ulates":13487,"ĠSex":13488,"Ġmetals":13489,"ĠSche":13490,"Ġnicknamed":13491,"ioneer":13492,"Ġboost":13493,"Ġbreeds":13494,"Ġlesser":13495,"Ġcastles":13496,"ĠBerm":13497,"ĠPsych":13498,"plex":13499,"Ġkeyboard":13500,"Ġfaithful":13501,"Ġimmigrants":13502,"bot":13503,"zig":13504,"Ġpreparations":13505,"Ġconcurrent":13506,"ĠGothic":13507,"Pr":13508,"Ġpenn":13509,"iri":13510,"anto":13511,"Ġindirect":13512,"Ġacre":13513,"ĠShield":13514,"ĠCommons":13515,"Ġbombardment":13516,"Ġshame":13517,"acker":13518,"Ġcontrary":13519,"ĠFifth":13520,"hop":13521,"aning":13522,"Ġric":13523,"ĠCloud":13524,"Ġkeys":13525,"Ġpsychological":13526,"arse":13527,"imer":13528,"archy":13529,"Ġhistorically":13530,"Ġphysically":13531,"Ġexpanding":13532,"Ġritual":13533,"ycl":13534,"Ġanthem":13535,"Ġresid":13536,"Ġpsychiat":13537,"ĠBengal":13538,"oline":13539,"uine":13540,"rock":13541,"ework":13542,"Ġstudios":13543,"Ġelite":13544,"Ġversus":13545,"ĠÄĲ":13546,"Peter":13547,"gary":13548,"ĠFaith":13549,"umped":13550,"Ġvain":13551,"ĠPanama":13552,"Ġperpet":13553,"Ġ1881":13554,"front":13555,"ĠSuz":13556,"Ġinternet":13557,"Ġhybrid":13558,"Calais":13559,"Ġpneum":13560,"Ġplanes":13561,"Ġbarely":13562,"Ġprogressed":13563,"Ġdrives":13564,"stable":13565,"Ġconfer":13566,"Ġperc":13567,"Ġcorruption":13568,"ĠNebraska":13569,"acco":13570,"ovsky":13571,"phabet":13572,"ĠHenri":13573,"ĠCena":13574,"necess":13575,"angered":13576,"athetic":13577,"ĠTigers":13578,"Ġsuited":13579,"Ġretreated":13580,"Ġroutine":13581,"Ġmelod":13582,"idia":13583,"rians":13584,"flu":13585,"Ġtrio":13586,"Ġphysician":13587,"Ġnetworks":13588,"Ġambassador":13589,"ĠCircle":13590,"Ġrevel":13591,"Ġonwards":13592,"Ġsuburb":13593,"ĠMicha":13594,"Ġswitched":13595,"Ġfights":13596,"Ġtroubles":13597,"Ġsuspension":13598,"otted":13599,"Ġkitt":13600,"four":13601,"ĠTalk":13602,"Ġrod":13603,"Ġsyndrome":13604,"rium":13605,"ĠNak":13606,"48":13607,"ithm":13608,"ĠHein":13609,"Ġedges":13610,"yright":13611,"Ġprocedure":13612,"Ġbonds":13613,"ĠPon":13614,"ĠDelhi":13615,"urbs":13616,"ĠNav":13617,"ĠEagle":13618,"Ġunited":13619,"Ġgrat":13620,"DI":13621,"orus":13622,"Ġhomosexual":13623,"Ġsuperst":13624,"Ġevacuation":13625,"ĠGibral":13626,"ĠCabinet":13627,"Ġpatch":13628,"ĠTheodore":13629,"Ġflies":13630,"Ġsubsc":13631,"Ġ1876":13632,"ĠArgentine":13633,"uchess":13634,"olves":13635,"Ġelevated":13636,"Ġcanceled":13637,"ĠHond":13638,"Ġweighed":13639,"Ġfreed":13640,"Ġgraduating":13641,"ondissement":13642,"drop":13643,"ĠVoice":13644,"uela":13645,"ĠWaters":13646,"Ġá":13647,"Ġ1877":13648,"guard":13649,"Ġtales":13650,"iti":13651,"Ġbree":13652,"Ġbang":13653,"icia":13654,"ĠGrove":13655,"ĠEisen":13656,"Ġnotion":13657,"Ġgenera":13658,"pring":13659,"Ġcontinent":13660,"Ġconducting":13661,"Ġscholarship":13662,"ĠAthletic":13663,"Cap":13664,"Ġwicked":13665,"ĠCarn":13666,"ovich":13667,"Ġmetropolitan":13668,"Ġfraud":13669,"ĠPrinceton":13670,"Two":13671,"bul":13672,"Ġion":13673,"Ġfacil":13674,"Ġlaying":13675,"ĠSpeed":13676,"Ġfragments":13677,"Gu":13678,"Ġbol":13679,"Ġhatch":13680,"atern":13681,"Ġdissolved":13682,"ĠWatson":13683,"Footnote":13684,"Ġconvert":13685,"ĠLeban":13686,"Ġ117":13687,"gÃ©":13688,"Ġaest":13689,"ĠRug":13690,"Ġharbor":13691,"olan":13692,"Ġadmit":13693,"Ġagrees":13694,"Ġrepeat":13695,"Ġpowder":13696,"Ġamphib":13697,"Ġencounters":13698,"Ġrulers":13699,"ijing":13700,"Ġlocomotives":13701,"Ġabundant":13702,"Ġcrust":13703,"idding":13704,"Ġ1869":13705,"Ġextends":13706,"lake":13707,"Ġbills":13708,"ĠMull":13709,"ĠRNA":13710,"Ġdesk":13711,"Ġlandmark":13712,"ĠConserv":13713,"Ġmolecular":13714,"Ġfungus":13715,"Ġorgans":13716,"omous":13717,"ivision":13718,"soon":13719,"Ġassociate":13720,"Ġmechanics":13721,"Ġgallery":13722,"ĠArena":13723,"inqu":13724,"ĠRaid":13725,"Ġchances":13726,"parent":13727,"Ġsib":13728,"Ġdock":13729,"Ġenlar":13730,"pic":13731,"ĠFlanders":13732,"Ġoutcome":13733,"Ġsolve":13734,"Ġ1875":13735,"iminary":13736,"Ġdisbanded":13737,"rection":13738,"eded":13739,"Ġscarc":13740,"Ġtransmission":13741,"ĠBulgarian":13742,"people":13743,"Ġinvitation":13744,"ĠBaptist":13745,"too":13746,"Ġ1867":13747,"Ġcruise":13748,"Ġinternationally":13749,"Ġcollaborated":13750,"ĠHebrew":13751,"ĠGibraltar":13752,"arians":13753,"aurus":13754,"Ġ1871":13755,"ĠCrawford":13756,"ĠĠĊ":13757,"ebe":13758,"Ġexercises":13759,"Ġsolely":13760,"ĠPlymouth":13761,"core":13762,"Ġscout":13763,"Ġ1830":13764,"ĠBeau":13765,"Ġfootballer":13766,"Ġtouchdowns":13767,"igrated":13768,"Ġ(,":13769,"abi":13770,"ĠThanks":13771,"Ġassured":13772,"Ġinaugural":13773,"ĠMult":13774,"istence":13775,"Ġremake":13776,"ĠShar":13777,"Ġdepicting":13778,"Ġscreens":13779,"Ġsoup":13780,"ĠKin":13781,"Ġ1883":13782,"Ġprinting":13783,"Ġcollecting":13784,"ĠLinda":13785,"Ġvacc":13786,"Ġrefuses":13787,"ĠGlou":13788,"related":13789,"Ġachievement":13790,"Ġpulling":13791,"Ġnomine":13792,"ĠGonz":13793,"ĠPerhaps":13794,"ĠCollection":13795,"gas":13796,"Ġlamp":13797,"Ġgolf":13798,"Ġrational":13799,"ĠNass":13800,"rah":13801,"ĠBrid":13802,"ĠStrong":13803,"Ġtheaters":13804,"Before":13805,"Ġloyalty":13806,"ĠMercedes":13807,"houses":13808,"Ġsid":13809,"iliation":13810,"ĠDod":13811,"Ġpref":13812,"ufficient":13813,"Ġ1866":13814,"Ġencom":13815,"ĠDrake":13816,"Ġfocusing":13817,"Ġcontacted":13818,"Maybe":13819,"Ġpp":13820,"Ġconced":13821,"Ġassume":13822,"ĠShan":13823,"Ġboom":13824,"Ġradius":13825,"bian":13826,"lined":13827,"Ġhaul":13828,"Ġreef":13829,"ĠTheater":13830,"Ġbattlefield":13831,"ĠRodrig":13832,"ĠHass":13833,"ĠInside":13834,"uctive":13835,"ĠStandard":13836,"ete":13837,"ichael":13838,"ĠYard":13839,"ĠZero":13840,"Ġpublicity":13841,"ĠRenaissance":13842,"Ġpaus":13843,"agons":13844,"ĠCurtis":13845,"Ġhypothesis":13846,"ci":13847,"hot":13848,"hero":13849,"adal":13850,"ĠHubb":13851,"ĠRus":13852,"ĠCapital":13853,"ĠChurchill":13854,"ĠSad":13855,"ĠAub":13856,"Ġgoodness":13857,"Ġdrops":13858,"Ġpermanently":13859,"Ġvolcano":13860,"ĠPhillips":13861,"ĠTwenty":13862,"ĠPetersburg":13863,"Ġpredominantly":13864,"take":13865,"Ġdiversity":13866,"Ġ02":13867,"Ġruins":13868,"Ġearnest":13869,"Ġfoolish":13870,"Ġchocolate":13871,"Ġentr":13872,"Ġvegetation":13873,"Ġdeposits":13874,"Ġassassination":13875,"Dr":13876,"iev":13877,"Ġsubmer":13878,"ĠBeijing":13879,"Ġparticipating":13880,"Ġstruggling":13881,"ĠDorothy":13882,"Ġobliged":13883,"pse":13884,"izers":13885,"ĠParks":13886,"Ġjudicial":13887,"Ġdeals":13888,"ĠShadow":13889,"Ġviewing":13890,"ursday":13891,"Ġhorns":13892,"umping":13893,"Ġdisabled":13894,"Ġroadway":13895,"Ġguarant":13896,"Tom":13897,"ĠShir":13898,"Ġkicked":13899,"stage":13900,"amo":13901,"atsu":13902,"ĠTurks":13903,"Ġlogo":13904,"ĠBCE":13905,"asaki":13906,"Ġcompiled":13907,"Ġregiments":13908,"Ġhonorary":13909,"inus":13910,"Ġtrump":13911,"Ġphosph":13912,"Ġsoci":13913,"Ġcoloured":13914,"Ġacquis":13915,"Ġrestaurants":13916,"ĠYugoslav":13917,"ĠManuel":13918,"Ġ1873":13919,"Ġpupils":13920,"Ġfinance":13921,"grade":13922,"Ġtreasure":13923,"ĠEssex":13924,"'.":13925,"Total":13926,"ente":13927,"Ġtrace":13928,"erals":13929,"Ġmask":13930,"Ġcomprehens":13931,"Ġcontribute":13932,"Ġpackage":13933,"ĠDiamond":13934,"ĠBesides":13935,"oqu":13936,"ËĲ":13937,"itches":13938,"asses":13939,"ĠArc":13940,"Ġdecisive":13941,"ĠAdela":13942,"Ġarmoured":13943,"Ġwondered":13944,"Ġhorizontal":13945,"Ġwart":13946,"alid":13947,"ĠTu":13948,"ĠDj":13949,"ĠStarr":13950,"Ġoffshore":13951,"Ġultimate":13952,"Ġmentions":13953,"Ġgamb":13954,"ĠRange":13955,"ĠMonth":13956,"ĠSmack":13957,"Ġprocessing":13958,"Ġ1868":13959,"Ġdiscussing":13960,"Ġpeaceful":13961,"ĠMunich":13962,"Ġmanifest":13963,"Ġdive":13964,"opol":13965,"Ġincidents":13966,"Ġslee":13967,"pus":13968,"ĠERA":13969,"clamation":13970,"ashire":13971,"ĠTrav":13972,"Ġtargeted":13973,"Tell":13974,"iating":13975,"Ġcraw":13976,"Ġscales":13977,"Ġwitnessed":13978,"Ġinitiative":13979,"ĠRu":13980,"ĠBasil":13981,"Ġfertil":13982,"Ġreferee":13983,"ĠJoyce":13984,"Gener":13985,"ĠMoney":13986,"ocal":13987,"Ġaccus":13988,"Ġadds":13989,"ĠNorthwest":13990,"ĠMyst":13991,"Ġadequ":13992,"ampire":13993,"Ġfavored":13994,"Ġ1882":13995,"ĠMalay":13996,"Ġbedroom":13997,"ĠAlbany":13998,"ĠMarx":13999,"Ġ107":14000,"Ġepit":14001,"ĠBot":14002,"Ġ119":14003,"Ġpersec":14004,"Ġconquered":14005,"original":14006,"bors":14007,"ĠAaron":14008,"igation":14009,"Ġallied":14010,"isphere":14011,"Ġstability":14012,"ĠPent":14013,"Ġnorthwestern":14014,"ĠWis":14015,"Ã©l":14016,"Ġ230":14017,"Ġsecretly":14018,"Ġtroubled":14019,"rams":14020,"ĠPoe":14021,"ĠWed":14022,"ĠGreeks":14023,"----------------":14024,"Ġdisappointment":14025,"Ġugly":14026,"ĠWings":14027,"iane":14028,"Ġsitcom":14029,"Ġblew":14030,"Ġrotation":14031,"urers":14032,"Ġcease":14033,"Ġhomeless":14034,"ĠLuft":14035,"Ġchallenging":14036,"Ġfence":14037,"ĠFood":14038,"ĠCoal":14039,"ĠComputer":14040,"ĠFerdinand":14041,"agne":14042,"Ġweird":14043,"ĠTraff":14044,"arthy":14045,"Ġãĥ":14046,"Ġweren":14047,"Ġfuck":14048,"omical":14049,"Ġnam":14050,"Ġreadily":14051,"Ġeligible":14052,"Car":14053,"UR":14054,"five":14055,"eria":14056,"leted":14057,"ĠVic":14058,"ĠGround":14059,"Ġmutual":14060,"Ġ978":14061,"oi":14062,"Ġpione":14063,"ĠTrent":14064,"Ġfreely":14065,"Ġphotographer":14066,"morrow":14067,"Ġtables":14068,"ĠPine":14069,"Ġatoms":14070,"ĠFinnish":14071,"ĠPokÃ©mon":14072,"Ġgenuine":14073,"uzzle":14074,"Ġgentlemen":14075,"ĠGeoffrey":14076,"ĠSuff":14077,"ĠPand":14078,"ĠDud":14079,"Ġclan":14080,"Ġcostumes":14081,"Ġblend":14082,"rez":14083,"stown":14084,"Ġmachinery":14085,"Ġintegrated":14086,"Ġsink":14087,"Ġchron":14088,"Ġminds":14089,"ĠDemocrat":14090,"Ġheroes":14091,"ĠSolar":14092,"Ġsubmarines":14093,"Ġsubtle":14094,"Ġrevived":14095,"Ġmounts":14096,"Ġrecruit":14097,"Ġupdated":14098,"Ġsharply":14099,"ĠMills":14100,"Ġstole":14101,"cending":14102,"ĠTrue":14103,"ĠPalmer":14104,"mmet":14105,"aisy":14106,"ĠTab":14107,"ĠCut":14108,"Ġdinosaur":14109,"ĠMasters":14110,"ĠBrew":14111,"ĠDelta":14112,"Ġblown":14113,"Ġcritically":14114,"Ġtrips":14115,"Ġcookie":14116,"Ġdreadn":14117,"ION":14118,"stration":14119,"Ġeleg":14120,"blem":14121,"ĠĠĠĠĠĠĠĠĠ":14122,"Ġoperas":14123,"Ġpriests":14124,"Ġ1878":14125,"tell":14126,"ĠChase":14127,"Ġcreates":14128,"ĠIsles":14129,"Ġmidst":14130,"ĠEllis":14131,"Ġdelighted":14132,"hn":14133,"tw":14134,"ĠRosen":14135,"olith":14136,"ĠLon":14137,"Ġunanim":14138,"Ġdevelopments":14139,"ĠBlake":14140,"gun":14141,"orp":14142,"aston":14143,"ironments":14144,"ĠLancashire":14145,"Ġpuzzle":14146,"give":14147,"ĠSaints":14148,"ĠFur":14149,"keley":14150,"been":14151,"agedy":14152,"Ġclosure":14153,"Ġexecut":14154,"Ġmistress":14155,"ĠAdventure":14156,"ĠHubbard":14157,"ĠAgric":14158,"\"),":14159,"Bill":14160,"made":14161,"oland":14162,"Ġcoaches":14163,"Ġmarble":14164,"ĠSalv":14165,"Ġgalaxy":14166,"atem":14167,"Ġbug":14168,"Ġholy":14169,"ĠRah":14170,"ĠLeader":14171,"Ġsummar":14172,"ĠBuddhist":14173,"great":14174,"ateful":14175,"ĠMut":14176,"Ġneat":14177,"oths":14178,"Ġconfig":14179,"ĠBrowns":14180,"Ġfloors":14181,"vol":14182,"ĠRear":14183,"Ġboxes":14184,"Ġjournalists":14185,"ĠCommissioner":14186,"Ġsits":14187,"ĠSierra":14188,"Ġitem":14189,"ĠLamb":14190,"odied":14191,"ĠVenez":14192,"Ġpropaganda":14193,"Ġexterior":14194,"ĠTow":14195,"Ġshit":14196,"Ġrook":14197,"Ġfortifications":14198,"Ġhabitats":14199,"ĠVenus":14200,"dr":14201,"whe":14202,"Ġcurrency":14203,"ĠWoods":14204,"Ġfolks":14205,"Fl":14206,"Ġtiger":14207,"Ġdat":14208,"Ġgrid":14209,"posing":14210,"Ġmanufactured":14211,"Ġneighbouring":14212,"Î¹":14213,"oux":14214,"lew":14215,"omp":14216,"Ġriot":14217,"Ġ114":14218,"Ġje":14219,"Ġ1872":14220,"Ġdisputed":14221,"Ġwool":14222,"isations":14223,"ĠHamb":14224,"ĠLouise":14225,"Ġfurniture":14226,"ĠTotal":14227,"Ġnodd":14228,"ishn":14229,
[...]
